{"!":0,"\"":1,"#":2,"$":3,"%":4,"&":5,"'":6,"(":7,")":8,"*":9,"+":10,",":11,"-":12,".":13,"/":14,"0":15,"1":16,"2":17,"3":18,"4":19,"5":20,"6":21,"7":22,"8":23,"9":24,":":25,";":26,"<":27,"=":28,">":29,"?":30,"@":31,"A":32,"B":33,"C":34,"D":35,"E":36,"F":37,"G":38,"H":39,"I":40,"J":41,"K":42,"L":43,"M":44,"N":45,"O":46,"P":47,"Q":48,"R":49,"S":50,"T":51,"U":52,"V":53,"W":54,"X":55,"Y":56,"Z":57,"[":58,"\\":59,"]":60,"^":61,"_":62,"`":63,"a":64,"b":65,"c":66,"d":67,"e":68,"f":69,"g":70,"h":71,"i":72,"j":73,"k":74,"l":75,"m":76,"n":77,"o":78,"p":79,"q":80,"r":81,"s":82,"t":83,"u":84,"v":85,"w":86,"x":87,"y":88,"z":89,"{":90,"|":91,"}":92,"~":93,"¡":94,"¢":95,"£":96,"¤":97,"¥":98,"¦":99,"§":100,"¨":101,"©":102,"ª":103,"«":104,"¬":105,"®":106,"¯":107,"°":108,"±":109,"²":110,"³":111,"´":112,"µ":113,"¶":114,"·":115,"¸":116,"¹":117,"º":118,"»":119,"¼":120,"½":121,"¾":122,"¿":123,"À":124,"Á":125,"Â":126,"Ã":127,"Ä":128,"Å":129,"Æ":130,"Ç":131,"È":132,"É":133,"Ê":134,"Ë":135,"Ì":136,"Í":137,"Î":138,"Ï":139,"Ð":140,"Ñ":141,"Ò":142,"Ó":143,"Ô":144,"Õ":145,"Ö":146,"×":147,"Ø":148,"Ù":149,"Ú":150,"Û":151,"Ü":152,"Ý":153,"Þ":154,"ß":155,"à":156,"á":157,"â":158,"ã":159,"ä":160,"å":161,"æ":162,"ç":163,"è":164,"é":165,"ê":166,"ë":167,"ì":168,"í":169,"î":170,"ï":171,"ð":172,"ñ":173,"ò":174,"ó":175,"ô":176,"õ":177,"ö":178,"÷":179,"ø":180,"ù":181,"ú":182,"û":183,"ü":184,"ý":185,"þ":186,"ÿ":187,"Ā":188,"ā":189,"Ă":190,"ă":191,"Ą":192,"ą":193,"Ć":194,"ć":195,"Ĉ":196,"ĉ":197,"Ċ":198,"ċ":199,"Č":200,"č":201,"Ď":202,"ď":203,"Đ":204,"đ":205,"Ē":206,"ē":207,"Ĕ":208,"ĕ":209,"Ė":210,"ė":211,"Ę":212,"ę":213,"Ě":214,"ě":215,"Ĝ":216,"ĝ":217,"Ğ":218,"ğ":219,"Ġ":220,"ġ":221,"Ģ":222,"ģ":223,"Ĥ":224,"ĥ":225,"Ħ":226,"ħ":227,"Ĩ":228,"ĩ":229,"Ī":230,"ī":231,"Ĭ":232,"ĭ":233,"Į":234,"į":235,"İ":236,"ı":237,"Ĳ":238,"ĳ":239,"Ĵ":240,"ĵ":241,"Ķ":242,"ķ":243,"ĸ":244,"Ĺ":245,"ĺ":246,"Ļ":247,"ļ":248,"Ľ":249,"ľ":250,"Ŀ":251,"ŀ":252,"Ł":253,"ł":254,"Ń":255,"er":256,");":257,"et":258,"on":259,"in":260,"es":261,"at":262,"al":263,"en":264,"ion":265,"Ġ{":266,"le":267,"as":268,"Ġ=":269,"()":270,"is":271,"tr":272,"ct":273,"get":274,"it":275,"or":276,"am":277,"pu":278,"ic":279,"an":280,"id":281,"ing":282,"ar":283,"ass":284,"ent":285,"ur":286,"ed":287,"ro":288,"Ġ\"":289,"pe":290,"Ġn":291,"ap":292,"Ġs":293,"Ġ);":294,"ate":295,"ĠĠ":296,"ert":297,"th":298,"ce":299,"re":300,"lic":301,"ul":302,"ess":303,"blic":304,"public":305,"Ġ(":306,"();":307,"Str":308,"te":309,"Ġv":310,"\",":311,"(\"":312,"Ġc":313,"ype":314,"Map":315,"ame":316,"String":317,"Ġ)":318,"pt":319,"de":320,"il":321,"ew":322,"ue":323,"In":324,"assert":325,"est":326,"ret":327,"urn":328,"ab":329,"Type":330,"ad":331,"ist":332,"lass":333,"if":334,"return":335,"\");":336,"ity":337,"Ġt":338,"qu":339,"ch":340,"se":341,"oid":342,"ol":343,"ession":344,"Ex":345,"ment":346,"Ġvoid":347,"el":348,"able":349,"im":350,"put":351,"ction":352,"En":353,"Ġnew":354,"om":355,"Ġp":356,"ull":357,"Name":358,"st":359,"ver":360,"Ġf":361,"ames":362,"ation":363,"Re":364,"int":365,"Ġe":366,"().":367,"lo":368,"ption":369,"Con":370,"un":371,"this":372,"qual":373,"ag":374,"alue":375,"names":376,"inal":377,"namesMap":378,"quals":379,"um":380,"ers":381,"ild":382,"oo":383,"up":384,"xt":385,"ult":386,"Ent":387,"St":388,"set":389,"rid":390,"act":391,"pr":392,"Ġb":393,"ect":394,"Over":395,"Entity":396,"Overrid":397,"ode":398,"iz":399,"Ġnull":400,"Equals":401,"Override":402,"ig":403,"ck":404,"assertEquals":405,"final":406,"ception":407,"Par":408,"od":409,"Exception":410,"ĠĠĠĠ":411,"Ġm":412,"ot":413,"ut":414,"class":415,"ay":416,"Pro":417,"Class":418,"ib":419,"Tr":420,"end":421,"iv":422,"Ġget":423,"List":424,"ery":425,"bj":426,"res":427,"add":428,"Lo":429,"Id":430,"try":431,"Ġo":432,"ter":433,"Ġd":434,"uild":435,"ĠS":436,"Ġ1":437,"Ġ+":438,"ĠString":439,"bject":440,"Ġtest":441,"our":442,"row":443,"co":444,"());":445,"ory":446,"Fi":447,"Col":448,"Qu":449,"ey":450,"pert":451,"Ġin":452,"pl":453,"lement":454,"Test":455,"Ġ*":456,"Ar":457,"Ġ0":458,"text":459,"ial":460,"ime":461,"ata":462,"eld":463,"Ġ-":464,"av":465,"Object":466,"ans":467,"Res":468,"entity":469,"00":470,"actory":471,"perty":472,"Ġth":473,"stan":474,"reate":475,"Ch":476,"To":477,"Query":478,"(),":479,"));":480,"em":481,"cted":482,"ger":483,"uilder":484,"for":485,"Factory":486,"ator":487,"ql":488,"Man":489,"ri":490,"app":491,"ute":492,"Ġ!":493,"Met":494,"cope":495,"ource":496,"Value":497,"lection":498,"Ġst":499,"iter":500,"and":501,"Ġset":502,"ind":503,"Ġ==":504,"Ġl":505,"Trans":506,"Time":507,"action":508,"ize":509,"rom":510,"De":511,"State":512,"umn":513,"Of":514,"ase":515,"lean":516,"omp":517,"Mapp":518,"Ġvalue":519,"trib":520,"ub":521,"hod":522,"ener":523,"Builder":524,"age":525,"fa":526,"oolean":527,"ray":528,"Ġres":529,"Set":530,"con":531,"Key":532,"For":533,"[]":534,"alse":535,"str":536,"fer":537,"Im":538,"cal":539,"Date":540,"ĠJ":541,"Field":542,"session":543,"ersist":544,"pro":545,"Ġex":546,"Se":547,"ath":548,"Ġre":549,"Context":550,"cri":551,"Transaction":552,"Ġa":553,"Th":554,"ort":555,"Mapping":556,"oun":557,"ager":558,"atch":559,"ser":560,"Ġ<":561,"pression":562,"An":563,"Ġ!=":564,"to":565,"tribute":566,"Un":567,"Ġi":568,"Session":569,"At":570,"Array":571,"amet":572,"Ġtr":573,"create":574,"Ġsession":575,"Ġj":576,"ava":577,"Manager":578,"Ġint":579,"Ġpro":580,"par":581,"Ġcon":582,"Table":583,"ain":584,"new":585,"vent":586,"ive":587,"lect":588,"ach":589,"Ġid":590,"Ġ->":591,"Ġis":592,"ence":593,"ith":594,"stance":595,"oin":596,"Ġw":597,"uper":598,"Ġentity":599,"ne":600,"cess":601,"ong":602,"Property":603,"cript":604,"ir":605,"ex":606,"Or":607,"append":608,"ĠĠĠ":609,"Expression":610,"Ġ).":611,"By":612,"dex":613,"Column":614,"ivate":615,"riter":616,"Element":617,"Ġ2":618,"db":619,"Ġpar":620,"Ġname":621,"else":622,"ameter":623,"isit":624,"ĠC":625,"<?":626,"rows":627,"private":628,"dbc":629,"Path":630,"Des":631,"Method":632,"ifi":633,"Ġresult":634,"Ġh":635,"atic":636,"ĠH":637,"Data":638,"ss":639,"ow":640,"us":641,"Ġ:":642,"ack":643,"Ser":644,"ĠP":645,"Reg":646,"ĉĉ":647,"Ġlo":648,"ializ":649,"der":650,"Mode":651,"Result":652,"IN":653,"one":654,"ĠB":655,"tem":656,"ber":657,"not":658,"Ġtype":659,"Inte":660,"Null":661,"qm":662,"DateTime":663,"à¤":664,"Ġthis":665,"ite":666,"ER":667,"Attribute":668,").":669,"Collection":670,"Integer":671,"ia":672,"eam":673,"of":674,"ument":675,"mo":676,"pected":677,"Ġfalse":678,"ader":679,"ated":680,"per":681,"os":682,"name":683,"eck":684,"Em":685,"ve":686,"Ġboolean":687,"ount":688,"eng":689,"unction":690,"vic":691,"ST":692,"gger":693,"criptor":694,"roup":695,"Parameter":696,"alu":697,"ern":698,"fault":699,"ength":700,"True":701,"Ġstatic":702,"fi":703,"ĠM":704,"ign":705,"ac":706,"ge":707,"port":708,"mat":709,"Ġthe":710,"ĠA":711,"Descriptor":712,"etch":713,"Regis":714,"Event":715,"assertTrue":716,"essage":717,"size":718,"ies":719,"date":720,"Ġthrows":721,"Statement":722,"ple":723,"umber":724,"erson":725,"With":726,"dit":727,"la":728,"ler":729,"tected":730,"vice":731,"ĠT":732,"ust":733,"oc":734,"Ġtrue":735,"use":736,"Ġ}":737,"art":738,"Source":739,"yp":740,"Not":741,"Up":742,"Ġto":743,"all":744,"uration":745,"Ġinstance":746,"Al":747,"protected":748,"ative":749,"ĠD":750,"ĠObject":751,"throw":752,"gy":753,"ccess":754,"<?>":755,"key":756,"))":757,"alues":758,"Local":759,"ak":760,"super":761,"ee":762,"ON":763,"Comp":764,"tain":765,"test":766,"query":767,"Registry":768,"Child":769,"stant":770,"plement":771,"ete":772,"Group":773,"ptions":774,"Ġcol":775,"ibern":776,"ibernate":777,"inTransaction":778,"Refer":779,"fig":780,"ure":781,"leg":782,"ache":783,"ml":784,"Ġde":785,"ctx":786,"uf":787,"Join":788,"fo":789,"Java":790,"ec":791,"Ġch":792,"adata":793,"Ġscope":794,"Inter":795,"Sql":796,"Ġ3":797,"Arg":798,"case":799,"Count":800,"ash":801,"Node":802,"cl":803,"ifier":804,"ypes":805,"createQuery":806,"value":807,"Pr":808,"andler":809,"dd":810,"ext":811,"ax":812,"Ġproperty":813,"getName":814,"ĠI":815,"ition":816,"urr":817,"enc":818,"com":819,"notation":820,"arget":821,"ace":822,"\")":823,"assertTh":824,"Stream":825,"Ġ'":826,"Part":827,"Js":828,"File":829,"Ġinstanceof":830,"assertThat":831,"ree":832,"Number":833,"ast":834,"ialect":835,"ustom":836,"out":837,"&&":838,"Index":839,"Ġx":840,"Gener":841,"ings":842,"Message":843,"SessionFactory":844,"AR":845,"oot":846,"ill":847,"Ġmet":848,"vert":849,"length":850,"Ġfrom":851,"ear":852,"ly":853,"From":854,"Long":855,"Com":856,"sh":857,"Ġcreate":858,"ress":859,"ine":860,"Bind":861,"ner":862,"reg":863,"riteria":864,"ary":865,"persist":866,"Impl":867,"AL":868,"asic":869,"entifier":870,"Po":871,"TE":872,"imple":873,"Implement":874,"scope":875,"Ġar":876,"Reference":877,"())":878,"ias":879,"Init":880,"her":881,"Ġlist":882,"Scope":883,"Ġr":884,"ink":885,"fset":886,"Parser":887,"ard":888,"Ġg":889,"uct":890,"op":891,"Access":892,"Ġcatch":893,"Format":894,"rap":895,"Ð°":896,"Service":897,"alid":898,"Add":899,"tract":900,"ron":901,"ule":902,"equals":903,"\";":904,"ht":905,"ile":906,"ther":907,"ord":908,"Function":909,"Ġstr":910,"One":911,"getC":912,"LE":913,"ail":914,"Ġof":915,"Update":916,"TI":917,"Ġctx":918,"check":919,"eg":920,"Ġadd":921,"Tree":922,"Pre":923,"Ġ?":924,"Implementor":925,"Parent":926,"Info":927,"wt":928,"from":929,"Ġelse":930,"Persist":931,"move":932,"Entry":933,"upport":934,"Ġem":935,"cept":936,"Jdbc":937,"urrent":938,"Handler":939,"type":940,"list":941,"ug":942,"figuration":943,"tern":944,"Ġse":945,"ME":946,"Ġor":947,"yn":948,"Ġtable":949,"Ass":950,"Ġexpected":951,"ĠF":952,"Ref":953,"Ġ&&":954,"ersion":955,"Ġal":956,"Code":957,"Sub":958,"Zone":959,"Ġnot":960,"udit":961,"Ġfor":962,"Names":963,"do":964,"illis":965,"Argument":966,"Ġ),":967,"Ġquery":968,"getId":969,"Ġfinal":970,"print":971,"quest":972,"RE":973,"ĠĊ":974,"ys":975,"Ġvisit":976,"Default":977,"As":978,"Be":979,"Initializ":980,"Native":981,"Annotation":982,"cond":983,"pty":984,"unt":985,"Logger":986,"),":987,"select":988,"yle":989,"find":990,"uble":991,"comp":992,"Ġ4":993,"DE":994,"entityManager":995,"imal":996,"++":997,"Metadata":998,"onent":999,"log":1000,"edic":1001,"Resource":1002,"fail":1003,"On":1004,"tes":1005,"yte":1006,"Options":1007,"boolean":1008,"ange":1009,"lause":1010,"ock":1011,"Cache":1012,"ound":1013,"à¦":1014,"ror":1015,"ip":1016,"Item":1017,"low":1018,"af":1019,"ĠEntity":1020,"reation":1021,"Ġreturn":1022,"Ins":1023,"Select":1024,"Listener":1025,"Fetch":1026,"AN":1027,"null":1028,"col":1029,"Root":1030,"ender":1031,"False":1032,"RO":1033,"12":1034,"Many":1035,"Ġ|":1036,"Instance":1037,"onth":1038,"edicate":1039,"SE":1040,"root":1041,"ural":1042,"Ġat":1043,"legal":1044,"Types":1045,"getTransaction":1046,"Reader":1047,"rite":1048,"Wid":1049,"Ġcontext":1050,"Ġext":1051,"\\\"":1052,"llegal":1053,"pec":1054,"Sqm":1055,"clo":1056,"Lock":1057,"ore":1058,"assertFalse":1059,"Clause":1060,"ang":1061,"Ġkey":1062,"ends":1063,"verter":1064,"Ġen":1065,"Ġclass":1066,"Ġpublic":1067,"form":1068,"odel":1069,"Ġun":1070,"del":1071,"Ġcolumn":1072,"</":1073,"Text":1074,"Int":1075,"Oper":1076,"Visit":1077,"tains":1078,"iteral":1079,"ces":1080,"};":1081,"Order":1082,"Identifier":1083,"Values":1084,"**":1085,"Ġan":1086,"Ġmethod":1087,"ĠArray":1088,"Ġif":1089,"back":1090,"Ġfi":1091,"QL":1092,"Ġ{@":1093,"10":1094,"pa":1095,"ĠSqm":1096,"bed":1097,"\"));":1098,"pre":1099,"result":1100,"Ġ>":1101,"ĠUn":1102,"Ġ@":1103,"Size":1104,"Ut":1105,"toString":1106,"Model":1107,"Request":1108,"osition":1109,"sion":1110,"own":1111,"lear":1112,"Configuration":1113,"Out":1114,"cale":1115,"gr":1116,"ĠHibernate":1117,"SessionFactoryScope":1118,"Er":1119,"fin":1120,"Sh":1121,"goo":1122,"Version":1123,"Bytes":1124,"qlParser":1125,"ustomer":1126,"az":1127,"JavaType":1128,"bedd":1129,"ĠL":1130,"Ġparent":1131,"reak":1132,"met":1133,"ĠĠĠĠĠĠĠ":1134,"Day":1135,"xy":1136,"ĠN":1137,"mit":1138,"Dialect":1139,"attern":1140,"ision":1141,"omain":1142,"CE":1143,"Locale":1144,"Millis":1145,"Basic":1146,"ister":1147,"here":1148,"Selection":1149,"Ġbe":1150,"Load":1151,"Ġarg":1152,"vid":1153,"à½":1154,"ight":1155,"read":1156,"fix":1157,"ll":1158,"ared":1159,"âµ":1160,"NotNull":1161,"Util":1162,"ution":1163,"plic":1164,"nection":1165,"gwt":1166,"ategy":1167,"Point":1168,"getType":1169,"ĠentityManager":1170,"eri":1171,"ics":1172,"ced":1173,"Ġcomp":1174,"Ġsql":1175,"ouble":1176,"ĠG":1177,"amed":1178,"code":1179,"que":1180,"void":1181,"Offset":1182,"Empty":1183,">();":1184,"ĠList":1185,"Ġobject":1186,"Ġfield":1187,"ren":1188,"Ġextends":1189,"0000":1190,"ire":1191,"HH":1192,"gle":1193,"ystem":1194,"Unit":1195,"Stat":1196,"Ð¸":1197,"Style":1198,"item":1199,"are":1200,"Ø§":1201,"andard":1202,"plo":1203,"Audit":1204,"EN":1205,"raph":1206,"Year":1207,"olo":1208,"uffer":1209,"Call":1210,"::":1211,"Compl":1212,"ploy":1213,"long":1214,"Ġon":1215,"avig":1216,"ified":1217,"tml":1218,"Enum":1219,"link":1220,"Writer":1221,"ĠException":1222,"perties":1223,"erm":1224,"ources":1225,"google":1226,"Row":1227,"Literal":1228,"getS":1229,"Constr":1230,"EntityManager":1231,"exec":1232,"ient":1233,"Hel":1234,"LO":1235,"avigable":1236,"atement":1237,"ology":1238,"delete":1239,"Ġpersist":1240,"axb":1241,"ical":1242,"ronology":1243,"Ġ*/":1244,"uld":1245,"contains":1246,"Standard":1247,"odule":1248,"field":1249,"ant":1250,"/**":1251,"And":1252,"ĠDateTime":1253,"Address":1254,"beg":1255,"imit":1256,"Converter":1257,"Ġjdbc":1258,"Predicate":1259,"Generator":1260,"Read":1261,"Ġsub":1262,"OR":1263,"remove":1264,"fore":1265,"ook":1266,"((":1267,"ould":1268,"pect":1269,"expected":1270,"Spec":1271,"Ret":1272,"ud":1273,"close":1274,"plicit":1275,"ocument":1276,"Ġelement":1277,"Log":1278,"ML":1279,"Ð½":1280,"Char":1281,"ilter":1282,"ell":1283,"Initialized":1284,"ply":1285,"anel":1286,"vider":1287,"ĠClass":1288,"Fr":1289,"Widget":1290,"acle":1291,"Instant":1292,"Cont":1293,"sub":1294,"Target":1295,">\\":1296,"Le":1297,"place":1298,"All":1299,"01":1300,"Ġ5":1301,"sum":1302,"ance":1303,"Ġindex":1304,"clear":1305,"press":1306,"ln":1307,"ave":1308,"break":1309,"amp":1310,"áĢ":1311,"à¥":1312,"Ġcom":1313,"Ġjoin":1314,"lem":1315,"chem":1316,"UR":1317,"true":1318,"Ġsuper":1319,"afe":1320,"Ġ(!":1321,"Ġattribute":1322,"Ġ||":1323,"Ġroot":1324,"Ġchild":1325,"];":1326,"mote":1327,"iew":1328,"Ap":1329,"Resol":1330,"has":1331,"wner":1332,"Strategy":1333,"uite":1334,"putStream":1335,"áĥ":1336,"ĠJs":1337,"eriod":1338,"Pl":1339,"Proxy":1340,"AT":1341,"Dis":1342,"param":1343,"Chronology":1344,"Binding":1345,"println":1346,"Ġim":1347,"build":1348,"Ġ6":1349,"next":1350,"Ġevent":1351,"chema":1352,"utation":1353,"Sett":1354,"ÑĢ":1355,"Valid":1356,"assertNotNull":1357,"200":1358,"ĠSet":1359,"sw":1360,"ashMap":1361,"opy":1362,"Helper":1363,"logger":1364,"upported":1365,"commit":1366,"Simple":1367,"ArgumentException":1368,"llegalArgumentException":1369,"rapp":1370,"Alias":1371,"TableGroup":1372,"ID":1373,"Ġy":1374,"load":1375,"utable":1376,"Byte":1377,"foo":1378,"ari":1379,"catch":1380,"ized":1381,"Operation":1382,"ĠR":1383,"stract":1384,"ible":1385,"TreeLogger":1386,"irst":1387,"No":1388,"Af":1389,"inator":1390,"Ġ[":1391,"lock":1392,"ken":1393,"apply":1394,"ĳĦ":1395,"istics":1396,"Ġdo":1397,"gram":1398,"ðĳĦ":1399,"iginal":1400,"visit":1401,"Return":1402,"Serializ":1403,"register":1404,"Is":1405,"abled":1406,"ush":1407,"por":1408,"avigablePath":1409,"cription":1410,"Error":1411,"dev":1412,"execute":1413,"olve":1414,"Person":1415,"loat":1416,"legate":1417,"Check":1418,"vision":1419,"Dec":1420,"ToOne":1421,"Persister":1422,"Ġvalues":1423,"Ġser":1424,"ĠInteger":1425,"Embedd":1426,"Month":1427,"PA":1428,"bm":1429,"Decl":1430,"Component":1431,"utes":1432,"ake":1433,"ific":1434,"riteriaBuilder":1435,"Provider":1436,"pen":1437,"aint":1438,"Ġmap":1439,"Ġpre":1440,"azy":1441,"ik":1442,"ĠX":1443,"Ġload":1444,"lush":1445,"Html":1446,"Sup":1447,"byte":1448,"quence":1449,"Ġjava":1450,"eek":1451,"IS":1452,"Contract":1453,">(":1454,"ĠV":1455,"older":1456,"ptim":1457,"sing":1458,"Ġ10":1459,"Ġparse":1460,"face":1461,"ca":1462,"Ġfetch":1463,"Oracle":1464,"Ġcollection":1465,"User":1466,"ĉĉĉ":1467,"enter":1468,"ĠTh":1469,"ĠsessionFactory":1470,"ameters":1471,"UT":1472,"index":1473,"Process":1474,"Columns":1475,"TY":1476,"..":1477,"function":1478,"ableTo":1479,"Ġas":1480,"Ġmapp":1481,"roll":1482,"UE":1483,"tainer":1484,"OException":1485,"ost":1486,"ClassType":1487,"pon":1488,"ual":1489,"FieldType":1490,"Tem":1491,"imest":1492,"duct":1493,"ique":1494,"agment":1495,"imestamp":1496,"arn":1497,"write":1498,"Base":1499,"Ġsource":1500,"Ast":1501,"uple":1502,"Script":1503,"amodel":1504,"Foo":1505,"CH":1506,"map":1507,"les":1508,"start":1509,"vel":1510,"Ġsh":1511,"ĠPerson":1512,"Same":1513,"string":1514,"ĠArrayList":1515,"throws":1516,"Del":1517,"ployee":1518,"CO":1519,"Utils":1520,"ponse":1521,"ðĲ":1522,"untime":1523,"char":1524,"Min":1525,"java":1526,"Ġother":1527,"ĠW":1528,"à¸":1529,"Ġby":1530,"count":1531,"Panel":1532,"stream":1533,"Loader":1534,"ature":1535,"Bean":1536,"Insert":1537,"Exec":1538,"Case":1539,"ulti":1540,"cop":1541,"});":1542,"val":1543,"Complete":1544,"},":1545,"default":1546,"arg":1547,"ServiceRegistry":1548,"any":1549,"table":1550,"Ġ((":1551,"data":1552,"ĠCollection":1553,"ackage":1554,"TestEntity":1555,"ox":1556,"iation":1557,"Pattern":1558,"ToMany":1559,"Properties":1560,"false":1561,"ĠsetId":1562,"Decimal":1563,"\").":1564,"Ġitem":1565,"HqlParser":1566,"Metamodel":1567,"iterator":1568,"accept":1569,"other":1570,"Ġdata":1571,"Second":1572,"Boolean":1573,"Ġend":1574,"atural":1575,"SS":1576,"Double":1577,"user":1578,"Visitor":1579,"34":1580,"rim":1581,"Ðµ":1582,"old":1583,"its":1584,"áŀ":1585,"parse":1586,"parent":1587,"Dir":1588,"Ġgener":1589,"àº":1590,"laz":1591,"Start":1592,"à®":1593,"init":1594,"Ġbuild":1595,"Ġwhere":1596,"Connection":1597,"Param":1598,"Ġstart":1599,"Children":1600,"ome":1601,"getClass":1602,"reationState":1603,"Buffer":1604,"Graph":1605,"executeUpdate":1606,"source":1607,"Position":1608,"getEntity":1609,"The":1610,"à°":1611,"bstract":1612,"Big":1613,"ĠMap":1614,"After":1615,"method":1616,"red":1617,"à²":1618,"Get":1619,"ialize":1620,"SQL":1621,"Warn":1622,"Fields":1623,"Ð¾":1624,"ification":1625,"VAL":1626,"valid":1627,"copy":1628,"à¬":1629,"Ġallow":1630,"isInitialized":1631,"sql":1632,"Ġstatement":1633,"Domain":1634,"TH":1635,"Ġdate":1636,"Ġdefault":1637,"ĠBig":1638,"àª":1639,"getJdbc":1640,"Edit":1641,"Each":1642,"abel":1643,"current":1644,"Ġtarget":1645,"doIn":1646,"Hibernate":1647,"assertNull":1648,"000":1649,"child":1650,"atab":1651,"Ġbyte":1652,"with":1653,"Only":1654,"Document":1655,"CompleteException":1656,"atabase":1657,"play":1658,"Ġstat":1659,"ableToCompleteException":1660,"Named":1661,"ync":1662,"Ġoptions":1663,"ÛĮ":1664,"()));":1665,"Ġtrans":1666,"izer":1667,"Ġnode":1668,"Parse":1669,"Ġ9":1670,"ility":1671,"enced":1672,"io":1673,"Non":1674,"ĠO":1675,"Ġperson":1676,"greg":1677,"ft":1678,"setParameter":1679,"irection":1680,"Ġlong":1681,"ÙĨ":1682,"Iter":1683,"ateg":1684,"TimeZone":1685,"sumer":1686,"hs":1687,"Assert":1688,"ÙĪ":1689,"Ġentry":1690,"aturalId":1691,"Suppress":1692,"the":1693,"System":1694,"78":1695,"ork":1696,"format":1697,"getResult":1698,"property":1699,"ody":1700,"Ġmetadata":1701,"MA":1702,"ingle":1703,"buf":1704,"ify":1705,"ui":1706,"getValue":1707,"TR":1708,"Warnings":1709,"AttributeMapping":1710,"Ġinit":1711,"ok":1712,"à´":1713,"lected":1714,"Sp":1715,"Ġtree":1716,"og":1717,"Qual":1718,"Ġrefer":1719,"CT":1720,"]);":1721,"ceptor":1722,"++)":1723,"Defin":1724,"Ġreg":1725,"uctor":1726,"à¨":1727,"orre":1728,"inter":1729,"Ġallowed":1730,"Sign":1731,"be":1732,"PE":1733,"ask":1734,"ATE":1735,"poral":1736,"arch":1737,"Ġresults":1738,"Stack":1739,"Embeddable":1740,"rst":1741,"sert":1742,"11":1743,"notated":1744,"UL":1745,"mb":1746,"Enabled":1747,"â´":1748,"Ġdialect":1749,"Ġorder":1750,"ĠTest":1751,"VALUE":1752,"bug":1753,"First":1754,"rapper":1755,"min":1756,"Before":1757,"ved":1758,"Settings":1759,"Change":1760,"Ġlock":1761,"du":1762,"Safe":1763,"Ġ%":1764,"Ġdes":1765,"rowable":1766,"Statistics":1767,"SuppressWarnings":1768,"Clo":1769,"inary":1770,"Ġpath":1771,"lazz":1772,"Ġdis":1773,"ĠComp":1774,"Formatter":1775,"Duration":1776,"Ġwith":1777,"begin":1778,"56":1779,"AME":1780,"ĠIn":1781,"Ġ/**":1782,"odes":1783,"Ġsqm":1784,"eign":1785,"Constant":1786,"wh":1787,"ĠUnableToCompleteException":1788,"Copy":1789,"Ġlistener":1790,"Prefix":1791,"ocket":1792,"NameMap":1793,"ember":1794,"Ġthat":1795,"View":1796,"Ġout":1797,"erge":1798,"element":1799,"Parameters":1800,"hibernate":1801,"sed":1802,"year":1803,"ĠSer":1804,"He":1805,"Ġparameter":1806,"setName":1807,"Ġbuilder":1808,"appendSql":1809,"AB":1810,"ached":1811,"JClassType":1812,"day":1813,"Ø±":1814,"Ġinter":1815,"Jpa":1816,"UN":1817,"column":1818,"Editor":1819,"<>(":1820,"Holder":1821,"word":1822,"crim":1823,"viceRegistry":1824,"ingState":1825,"Rule":1826,"js":1827,"sr":1828,"('":1829,"ish":1830,"pector":1831,"Token":1832,"20":1833,"ĠIOException":1834,"Ġpr":1835,"bar":1836,"Arrays":1837,"STAN":1838,"cre":1839,"isEmpty":1840,"ref":1841,"Ġlogger":1842,"ĠLong":1843,"des":1844,"Interface":1845,"uto":1846,"Period":1847,"ide":1848,"Vari":1849,"Ġer":1850,"tributes":1851,"croll":1852,"herit":1853,"getResultList":1854,"ff":1855,"ashSet":1856,"local":1857,"ph":1858,"ability":1859,"ĠSql":1860,"Revision":1861,"aKey":1862,"Super":1863,"Ġz":1864,"ann":1865,"event":1866,"dis":1867,"Form":1868,"ample":1869,"ĠJdbc":1870,"]\",":1871,"ING":1872,"NO":1873,"led":1874,"Ġ20":1875,"order":1876,"],":1877,"áĪ":1878,"ðĲĲ":1879,"Lazy":1880,"osite":1881,"Fragment":1882,"ker":1883,"sessionFactory":1884,"ĠAn":1885,"Assign":1886,"Ġselect":1887,"Ġalias":1888,"writer":1889,"JPA":1890,"ingContext":1891,"ĠE":1892,"ities":1893,"ĠSQL":1894,"supported":1895,"Ġopen":1896,"person":1897,"ension":1898,"Inspector":1899,"Container":1900,"LA":1901,"Filter":1902,"ashCode":1903,"TION":1904,"Co":1905,"MP":1906,"replace":1907,"Resolver":1908,"Det":1909,"Mapper":1910,"compare":1911,"HHH":1912,"Delete":1913,"Ġexpression":1914,"Bar":1915,"ĠType":1916,"INSTAN":1917,"Ġparam":1918,"SI":1919,">)":1920,"Ġ30":1921,"gregate":1922,"Constraint":1923,"Ġtime":1924,"criminator":1925,"TIME":1926,"update":1927,"Ġoffset":1928,"Criteria":1929,"Ġcall":1930,"Ð°Ð":1931,"Ġcurrent":1932,"gn":1933,"getKey":1934,"iraKey":1935,"Consumer":1936,"pare":1937,"Expected":1938,"ĠSets":1939,"nown":1940,"Hbm":1941,"Remote":1942,"Length":1943,"orm":1944,"ĠJava":1945,"gener":1946,"NativeQuery":1947,"bind":1948,"INSTANCE":1949,"udent":1950,"sb":1951,"Ġnative":1952,"30":1953,"Employee":1954,"actual":1955,"Module":1956,"resent":1957,"mand":1958,"save":1959,"MappingType":1960,"Ġpersister":1961,"End":1962,"no":1963,"15":1964,"itch":1965,"--":1966,"ĠHqlParser":1967,"dition":1968,"Build":1969,"ĠentityName":1970,"version":1971,"ociation":1972,"valueOf":1973,"ency":1974,"getN":1975,"Ġfirst":1976,"Tuple":1977,"aw":1978,"(-":1979,"JMethod":1980,"ole":1981,"Proto":1982,"Sequence":1983,"OfDay":1984,"ÑĤ":1985,"Ġmessage":1986,"TableReference":1987,"Response":1988,"Ġoriginal":1989,"URL":1990,"jdbc":1991,"ier":1992,"aredSession":1993,"Week":1994,"cord":1995,"prec":1996,"Ag":1997,"Ġcheck":1998,"Ġfind":1999,">\");":2000,"pend":2001,"finally":2002,"Ġstring":2003,"].":2004,"Match":2005,"pace":2006,"Max":2007,"Ġhas":2008,"à·":2009,"Interceptor":2010,"ĠIllegalArgumentException":2011,"Content":2012,"Constructor":2013,"Description":2014,"Hour":2015,"Mod":2016,"Level":2017,"If":2018,"Ġsize":2019,"Persistent":2020,"getInstance":2021,"beginTransaction":2022,"Su":2023,"cont":2024,"ategory":2025,"chron":2026,"AuditReader":2027,"vir":2028,"Iterator":2029,"axbHbm":2030,"getR":2031,"aredSessionContract":2032,"Float":2033,"Ġtext":2034,"Definition":2035,"AD":2036,"Owner":2037,"Image":2038,"<>();":2039,"Found":2040,"aged":2041,"line":2042,"eners":2043,"ĠSimple":2044,"LI":2045,"ĠĠĠĠĠĊ":2046,"context":2047,"Ġinstant":2048,"values":2049,"Ġrow":2050,"RI":2051,"Ġobj":2052,"ĠSession":2053,"endar":2054,"ssue":2055,"Ġshould":2056,"annel":2057,"target":2058,"getProperty":2059,"ĠBasic":2060,"Fail":2061,"Ġdp":2062,"{\"":2063,"Issue":2064,"last":2065,"ty":2066,"Suite":2067,"à¶":2068,"Ġass":2069,"Results":2070,"Ġmapping":2071,"Region":2072,"Collect":2073,">>":2074,"alias":2075,"eignKey":2076,"Down":2077,"ForIssue":2078,"Cal":2079,"TestForIssue":2080,"ka":2081,"IllegalArgumentException":2082,"Ġ_":2083,"builder":2084,"mapp":2085,"Ġarray":2086,"cedure":2087,"Methods":2088,"aredSessionContractImplementor":2089,"TER":2090,"NAME":2091,"Ġac":2092,"Line":2093,"ations":2094,"ĠÐ":2095,"ates":2096,"lient":2097,"EntityName":2098,"à¼":2099,"EntityManagerFactory":2100,"known":2101,"ton":2102,"Multi":2103,"à§":2104,"acter":2105,"entityManagerFactory":2106,"Equal":2107,"flush":2108,"plit":2109,"Ġ12":2110,"ĠProperty":2111,"ĠopenSession":2112,"FI":2113,"asList":2114,"join":2115,"ouse":2116,"cur":2117,"org":2118,"resolve":2119,"ÃŃ":2120,"array":2121,"ilation":2122,"Ġowner":2123,"orted":2124,"Binder":2125,"Ñģ":2126,"sg":2127,"geom":2128,"verse":2129,"ipp":2130,"CK":2131,"Ġresolve":2132,"Validator":2133,"TypeRegistry":2134,"indow":2135,"file":2136,"Cell":2137,"PAR":2138,"he":2139,"HashMap":2140,"Range":2141,"ĠDate":2142,"river":2143,"Ġjs":2144,"plate":2145,"CON":2146,"und":2147,"DO":2148,"Ġrev":2149,"Contact":2150,"Block":2151,"ĠQuery":2152,"Ġversion":2153,"remote":2154,"Ġcount":2155,"Ġvisitor":2156,"Has":2157,"let":2158,"entry":2159,"Ġ{}":2160,"assertSame":2161,"iler":2162,"lob":2163,"',":2164,"viron":2165,"getSql":2166,"vironment":2167,"Ġle":2168,"switch":2169,"Customer":2170,"ry":2171,"99":2172,"ĠContext":2173,"CA":2174,"Socket":2175,"Tag":2176,"fg":2177,"ĠPersist":2178,"getElement":2179,"Timestamp":2180,"utton":2181,"emb":2182,"shell":2183,"Ġ7":2184,"vail":2185,"vailable":2186,"doInJPA":2187,"à¤¾":2188,"Ġimplement":2189,"ĠStandard":2190,"ĠpropertyName":2191,"reationContext":2192,"match":2193,"ModelPart":2194,"wrap":2195,"Abstract":2196,"ĠjavaType":2197,"ested":2198,"LockMode":2199,"InputStream":2200,"Intern":2201,"Ġ&":2202,"uth":2203,"first":2204,"SO":2205,"Classes":2206,"TEST":2207,"itle":2208,"Ġfactory":2209,"Ġbase":2210,"ClassName":2211,"Subclass":2212,"ont":2213,"Ġdelegate":2214,"trans":2215,"EntryPoint":2216,"bo":2217,"ni":2218,"Ġno":2219,"HT":2220,"Selected":2221,"Environment":2222,"Perm":2223,"Ġfile":2224,"ĠgetAuditReader":2225,";\",":2226,"bit":2227,"áĬ":2228,"tx":2229,"Ġmake":2230,"Coord":2231,"XML":2232,"Ġold":2233,"VE":2234,"instant":2235,"ages":2236,"remoteui":2237,"ĠLocal":2238,"while":2239,"Sn":2240,"ĠFile":2241,"ĠtableGroup":2242,"ie":2243,"static":2244,"Sources":2245,"32":2246,"Ġlocale":2247,"upports":2248,"Initializer":2249,"ause":2250,"dt":2251,"statement":2252,"imitive":2253,"Ġlog":2254,"mar":2255,"ayout":2256,"Ġwh":2257,"Ġand":2258,"ĠK":2259,"My":2260,"Qualified":2261,"ables":2262,"Ph":2263,"Database":2264,"US":2265,"ĠSe":2266,"UTC":2267,"cade":2268,"ob":2269,"Ġlength":2270,"JoinColumn":2271,"Binary":2272,"itor":2273,"OfYear":2274,"ating":2275,"vers":2276,"76":2277,"ld":2278,"Ġannotation":2279,"fetch":2280,"ĠaNumber":2281,"Inner":2282,"ynchron":2283,"Mutation":2284,"path":2285,"WT":2286,"Async":2287,"Ġ\",":2288,"App":2289,"MessageProto":2290,"RemoteMessageProto":2291,"Action":2292,"Ġcache":2293,"Mappings":2294,"Ġover":2295,"ascade":2296,"Xml":2297,"Ġed":2298,"Link":2299,"atal":2300,"ĠsetName":2301,"ĠJpa":2302,"98":2303,"ector":2304,"anch":2305,"Bid":2306,"GE":2307,"Present":2308,"Ġcriteria":2309,"à¼ĭ":2310,"Ðº":2311,"JdbcType":2312,"can":2313,"Ġ8":2314,"LOG":2315,"pret":2316,"err":2317,"double":2318,"SourceInfo":2319,"urrency":2320,"Ġformat":2321,"utions":2322,"Package":2323,"Ġsecond":2324,"Product":2325,"getSessionFactory":2326,"FA":2327,"xml":2328,"isting":2329,"NotFound":2330,"Bindings":2331,"node":2332,"program":2333,"crement":2334,"Cap":2335,"ĠSh":2336,"Keyword":2337,"Short":2338,"Ġfoo":2339,"ĠArrays":2340,"Cre":2341,"Ġuser":2342,"Internal":2343,"PER":2344,"Ġmin":2345,"utor":2346,"Ġargument":2347,"Callback":2348,"Coordinator":2349,"tration":2350,"MI":2351,"\"),":2352,"Contrib":2353,"ĠSQLException":2354,"ences":2355,"...":2356,"idget":2357,"xstream":2358,"lator":2359,"Ext":2360,"Character":2361,"Optim":2362,"Ġclazz":2363,"Ġ40":2364,"Ġactual":2365,"ĠStringBuilder":2366,"Can":2367,"Ġexec":2368,"getMessage":2369,"à¥į":2370,"Ã¡":2371,"formation":2372,"Status":2373,"ization":2374,"functionFactory":2375,"Ñĥ":2376,"ya":2377,"Attributes":2378,"Ac":2379,"Ġnames":2380,"Render":2381,"\"}":2382,"ONE":2383,"Bound":2384,"Partial":2385,"ĠserviceRegistry":2386,"second":2387,"atalog":2388,"Ġread":2389,"Hand":2390,"ymb":2391,"my":2392,"Ġtem":2393,"rl":2394,"Constants":2395,"ialization":2396,"collection":2397,"Limit":2398,"setState":2399,"info":2400,"TestSuite":2401,"Annotated":2402,"Scale":2403,"ifact":2404,"proto":2405,"Ġaccess":2406,"OutputStream":2407,"ict":2408,"url":2409,"ferred":2410,"Output":2411,"irect":2412,"ymbol":2413,"}.":2414,"ÙĦ":2415,"enceContext":2416,"Create":2417,"OperationException":2418,"Width":2419,"ĠHibernateException":2420,"orrect":2421,"Last":2422,"TA":2423,"Declared":2424,"\".":2425,"ĠcriteriaBuilder":2426,"Mapped":2427,"Next":2428,"Ġq":2429,"23":2430,"Mock":2431,"Ġ\".":2432,"JavaResource":2433,"Box":2434,"Vis":2435,"Ġappend":2436,"attribute":2437,"Ġ+=":2438,"Ġlast":2439,"lang":2440,"ĠRe":2441,"Ġelem":2442,"cer":2443,"rop":2444,"Generated":2445,"suite":2446,"Ġchar":2447,"':":2448,"Args":2449,"Operator":2450,"SafeHtml":2451,"lag":2452,"amic":2453,"ableType":2454,"tra":2455,"Ġfunction":2456,"ScriptObject":2457,"Ġnumber":2458,"ForeignKey":2459,"vailableSettings":2460,"Stor":2461,"Ġunit":2462,"Orig":2463,"\\\\":2464,"ABLE":2465,"sure":2466,"man":2467,"ts":2468,"Ġbind":2469,"ĠĠĠĠĠĠĠĠ":2470,"BigInteger":2471,"áĭ":2472,"Procedure":2473,"lural":2474,"AY":2475,"ps":2476,"Ġcode":2477,"uggy":2478,"Ed":2479,"Schema":2480,"supportedOperationException":2481,"Ġposition":2482,"lation":2483,"ĠBigInteger":2484,"Act":2485,"TableName":2486,"Chang":2487,"precated":2488,"Custom":2489,"getJavaType":2490,"wn":2491,"TypeName":2492,"Am":2493,"ian":2494,"checked":2495,"substring":2496,"Server":2497,"Ġstats":2498,"localctx":2499,"ta":2500,"TO":2501,"month":2502,"Ġ\"'":2503,"Ġdet":2504,"by":2505,"ught":2506,"ments":2507,"DateTimeFieldType":2508,"Ġaddress":2509,"ResultSet":2510,"KE":2511,"Body":2512,"Ġargs":2513,"untimeException":2514,"cation":2515,"iate":2516,"Command":2517,"imary":2518,"Role":2519,"unique":2520,"Implicit":2521,"insert":2522,"CreationState":2523,"Me":2524,"ails":2525,"irectional":2526,"Write":2527,"Ġcan":2528,"Superclass":2529,"Ġapply":2530,"registerKeyword":2531,"aa":2532,"ject":2533,"Ġ;":2534,"AX":2535,"jiraKey":2536,"amb":2537,"parator":2538,"protobuf":2539,"Ġcustomer":2540,"Extract":2541,"Config":2542,"address":2543,"ManyToMany":2544,"05":2545,"hashCode":2546,"wer":2547,"ynamic":2548,"number":2549,"Current":2550,"Hint":2551,"aybe":2552,"ĠHashMap":2553,"imum":2554,"ater":2555,"iled":2556,"Ġcopy":2557,"ays":2558,"Compar":2559,"strap":2560,"Ġconnection":2561,"Url":2562,"aming":2563,"SourceName":2564,"Api":2565,"14":2566,"Ð²":2567,"ootstrap":2568,"Label":2569,"kip":2570,"Ġtypes":2571,"po":2572,"getPre":2573,"02":2574,"Option":2575,"Ġcomponent":2576,"uthor":2577,"ByteArray":2578,"Setting":2579,"Variable":2580,"03":2581,"GER":2582,"options":2583,"ere":2584,"â´°":2585,"ippet":2586,"Ø³":2587,"debug":2588,"Support":2589,"TypeCode":2590,"yc":2591,"Ġone":2592,"listener":2593,"ĠChild":2594,"Collector":2595,"Ġcb":2596,"ĠParent":2597,"Ġexception":2598,"Condition":2599,"ĠMetadata":2600,"Ġlocal":2601,"ManyToOne":2602,"vok":2603,"Ð°Ð½":2604,"MO":2605,"rapped":2606,"Ġdoes":2607,"àµ":2608,"uman":2609,"ServiceRegistryBuilder":2610,"ĠBigDecimal":2611,"=\\\"":2612,"Entities":2613,"Ġresource":2614,"NT":2615,"Ġ{\",":2616,"ĠBoolean":2617,"ĠAudit":2618,"Ùħ":2619,"Mar":2620,"pc":2621,"ÙĬ":2622,"áı":2623,"Ġref":2624,"merge":2625,"Snippet":2626,"ĠU":2627,"Ġpersistent":2628,"iction":2629,"Ġidentifier":2630,"render":2631,"ReadOnly":2632,"||":2633,"original":2634,"Ġerror":2635,"Wh":2636,"ied":2637,"ÉĽ":2638,"Ġhave":2639,"ĠMapping":2640,"Lib":2641,"Resources":2642,"Full":2643,"etry":2644,"hour":2645,"Ð»":2646,"StringBuilder":2647,"Ġ\"<":2648,"Static":2649,"ormal":2650,"64":2651,"Pos":2652,"Ġ</":2653,"Ġremove":2654,"model":2655,"types":2656,"ialized":2657,"mt":2658,"Ign":2659,"ĠEvent":2660,"ROR":2661,"div":2662,"iles":2663,"Primitive":2664,"Ġconfiguration":2665,"input":2666,"ERROR":2667,"ED":2668,"Information":2669,"alued":2670,"Ġman":2671,"ĠHashSet":2672,"Cast":2673,"ULT":2674,"16":2675,"eries":2676,"cte":2677,"Remove":2678,"isAssign":2679,"cell":2680,"Audited":2681,"ĠPeriod":2682,"Serialization":2683,"Ġab":2684,"StateException":2685,"<?>)":2686,"getQuery":2687,"à¤°":2688,"MM":2689,"Ġ>=":2690,"Css":2691,"19":2692,"Deprecated":2693,"Ġ'\"":2694,"run":2695,"Contributions":2696,"FO":2697,"mutable":2698,"client":2699,"Association":2700,"ProcessingState":2701,"Basics":2702,"unchecked":2703,"Ġresol":2704,"à¤¿":2705,"Declar":2706,"eom":2707,"Ġdt":2708,"PropertyName":2709,"Composite":2710,"BuildingContext":2711,"getDefault":2712,"Failure":2713,"Ġit":2714,"Serializable":2715,"ĠJoin":2716,"ĠMock":2717,"Throwable":2718,"Batch":2719,"NaturalId":2720,"Cte":2721,"Ġsb":2722,"annotation":2723,"OneToMany":2724,"Ġ[*":2725,"poralType":2726,"_.":2727,"base":2728,"ermine":2729,"BigDecimal":2730,"time":2731,"Gwt":2732,"getParent":2733,"Ġmodule":2734,"Ġthrow":2735,"Ġconfig":2736,"correct":2737,"Ġhe":2738,"setId":2739,"Ġinfo":2740,"Scroll":2741,"Tim":2742,"Enh":2743,"Ġgroup":2744,"ĠendVisit":2745,"bitField":2746,"pres":2747,"empty":2748,"Valued":2749,"Ġdomain":2750,"oder":2751,"EE":2752,"addTestSuite":2753,"cate":2754,"yles":2755,"ĠIN":2756,"Top":2757,"Ġnext":2758,"ableFrom":2759,"IT":2760,"getAnnotation":2761,"Ġreader":2762,"ĠSessionFactory":2763,"AS":2764,"Num":2765,"NavigablePath":2766,"Wrapper":2767,"make":2768,"Ġprocess":2769,"setProperty":2770,"Ġconvert":2771,"Ġstream":2772,"Readable":2773,"MAX":2774,"box":2775,"Exp":2776,"acker":2777,"Ġimplementation":2778,"New":2779,"Ġte":2780,"Ġprodu":2781,"vices":2782,"ĠEntityOf":2783,"pressible":2784,"Ġgenerate":2785,"ingleResult":2786,"DB":2787,"à¯":2788,"stat":2789,"Art":2790,"Plan":2791,"getColumn":2792,"FAULT":2793,"='":2794,"Ñı":2795,"generate":2796,"getChild":2797,"ollow":2798,"Member":2799,"bs":2800,"Window":2801,"Program":2802,"Ġextract":2803,"iol":2804,"Ing":2805,"ĠExpression":2806,"ĠNumber":2807,"Def":2808,"process":2809,"04":2810,"Pass":2811,"verify":2812,"STR":2813,"ĠAvailableSettings":2814,"enu":2815,"Interval":2816,"Generation":2817,"Ġrender":2818,"Ġfr":2819,"EX":2820,"Open":2821,"inherit":2822,"Ġ<<":2823,"Ġhandler":2824,"Ad":2825,"Tool":2826,"ĠAbstract":2827,"Arguments":2828,"yped":2829,"ranch":2830,"licy":2831,"ĠcreationState":2832,"Ġequals":2833,"Specification":2834,"Auto":2835,"Expr":2836,"Registration":2837,"Ġoverrid":2838,"Work":2839,"where":2840,"ĠclassName":2841,"Template":2842,"Modified":2843,"IC":2844,"used":2845,"TYPE":2846,"core":2847,"Button":2848,"essages":2849,"(\"<":2850,"ernal":2851,"OT":2852,"HTML":2853,"llegalStateException":2854,"inue":2855,"over":2856,"ick":2857,"metadata":2858,"Appender":2859,"ĠnavigablePath":2860,"ROM":2861,"getMillis":2862,"Services":2863,"Us":2864,"Ð´":2865,"rowser":2866,"AA":2867,"Mutable":2868,"Rel":2869,"Ġaction":2870,"ĠOrder":2871,"Unique":2872,"ĠThrowable":2873,"Post":2874,"offset":2875,"SqlAst":2876,"cap":2877,"Div":2878,"idd":2879,"ES":2880,"EntityManagerFactoryScope":2881,"view":2882,"ãĥ":2883,"xed":2884,"à³":2885,"utionContext":2886,"CODE":2887,"ParseTree":2888,"Aggregate":2889,"06":2890,"part":2891,"Ġwriter":2892,"Run":2893,"Transform":2894,"pareStatement":2895,"NotFoundException":2896,"isAssignableFrom":2897,"Ġexit":2898,"123":2899,"Doc":2900,"OF":2901,"84":2902,"millis":2903,"Ġssr":2904,"compareTo":2905,"ĠAnnotation":2906,"lick":2907,"ula":2908,"Ġwrite":2909,"getSingleResult":2910,"SON":2911,"Var":2912,"rono":2913,"Visible":2914,"Joins":2915,"alker":2916,"board":2917,"wo":2918,"Ġenter":2919,"Thread":2920,"Bits":2921,"IG":2922,"Ġ\\\"":2923,"Val":2924,"áİ":2925,"ĠPr":2926,"fields":2927,"Ġmax":2928,"UM":2929,"Ġinsert":2930,"Layout":2931,"ĠEmployee":2932,"ĠCustomer":2933,"Plural":2934,"ORM":2935,"Ġselection":2936,"Discriminator":2937,"ĠPersistent":2938,"Bidirectional":2939,"Ġ/":2940,"isEqual":2941,"refer":2942,"Ġembedd":2943,"Viewer":2944,"AC":2945,"unk":2946,"Objects":2947,"à±":2948,"ani":2949,"Embedded":2950,"Supported":2951,"ious":2952,"Ġreferenced":2953,"lace":2954,"(_":2955,"IOException":2956,"MIN":2957,"Sort":2958,"Produ":2959,"thing":2960,"ison":2961,"Translator":2962,"Ġassert":2963,"ĠXML":2964,"13":2965,"ged":2966,"Trace":2967,"Ġ19":2968,"Meta":2969,"ĠCollections":2970,"Artifact":2971,"iated":2972,"Primary":2973,"Left":2974,"ializable":2975,"icalName":2976,"object":2977,"Ġstate":2978,"Collections":2979,"Pointer":2980,"Ġreference":2981,"Signature":2982,"Lang":2983,"Ã©":2984,"addSnippet":2985,"Managed":2986,"triction":2987,"ĠresultList":2988,"ĠTree":2989,"ET":2990,"eb":2991,"vious":2992,"cision":2993,"Ġret":2994,"ero":2995,"Ġsimple":2996,"Selectable":2997,"ĠtypeConfiguration":2998,"\"))":2999,"Dom":3000,"ice":3001,"<?,":3002,"aryTable":3003,"ĠUnsupportedOperationException":3004,"()).":3005,"References":3006,"Driver":3007,"getField":3008,"Student":3009,"Ġlhs":3010,"');":3011,"Ġcont":3012,"ierarch":3013,"Replace":3014,"Ignore":3015,"Expressions":3016,"ĠTable":3017,"getIdentifier":3018,"áī":3019,"ĠMy":3020,"Height":3021,"Flush":3022,"Ġ[%":3023,">()":3024,"getStatistics":3025,"Queries":3026,"ĠJaxbHbm":3027,"Ġph":3028,"Record":3029,"DateTimeZone":3030,"COND":3031,"Expressible":3032,"Keys":3033,"Ġprogram":3034,"JsType":3035,"Ġvalid":3036,"ists":3037,"Referenced":3038,"àŃ":3039,"ĠLocale":3040,"round":3041,"Ġexisting":3042,"Ġconstr":3043,"CHAR":3044,"Que":3045,"Ġk":3046,"Search":3047,"CriteriaQuery":3048,"Creator":3049,"LockOptions":3050,"rollback":3051,"shot":3052,"Ġmatch":3053,"')":3054,".\",":3055,"vlet":3056,"ĠBuilder":3057,"apshot":3058,"ClassLoader":3059,"ĠColumn":3060,"Client":3061,"Ġfilter":3062,"OfMonth":3063,"fr":3064,"uage":3065,"Styles":3066,"ĠUser":3067,"ane":3068,"QU":3069,"Dig":3070,"Ġinput":3071,"getSession":3072,"Ġloaded":3073,"call":3074,"Upd":3075,"Bo":3076,"atform":3077,"Ids":3078,"Frame":3079,"Wrap":3080,"Input":3081,"Explicit":3082,"Requ":3083,"Use":3084,"DataPoint":3085,"inheritDoc":3086,"doInHibernate":3087,"Accessor":3088,"ðĲĳ":3089,"Executor":3090,"LECT":3091,"Any":3092,"Ġmodel":3093,"Naming":3094,"Calendar":3095,"ived":3096,"Ġ100":3097,"BU":3098,"cast":3099,"finish":3100,"ffect":3101,"Ġfollow":3102,"Ġpart":3103,"continue":3104,"parameter":3105,"oft":3106,"Own":3107,"addAll":3108,"Ui":3109,"Ġmsg":3110,"Ġproduced":3111,"istory":3112,"ired":3113,"NullPointer":3114,"NullPointerException":3115,"PRO":3116,"ingMode":3117,"eat":3118,"delegate":3119,"ĠMath":3120,"Close":3121,"Other":3122,"ĠElement":3123,"Ġfound":3124,"Ġmod":3125,"à¤¨":3126,"RefEd":3127,"Params":3128,"Ġaccept":3129,"Elem":3130,"Vector":3131,"Ġproperties":3132,"ike":3133,"(?":3134,"Display":3135,"Ġu":3136,"ĠRuntimeException":3137,"uniqueResult":3138,"Ġ[*]\",":3139,"expression":3140,"uffix":3141,"RefIng":3142,")));":3143,"JType":3144,"ise":3145,"ude":3146,"¾\");":3147,"Struct":3148,"ched":3149,"impl":3150,"Identity":3151,"ĠMutable":3152,"da":3153,"nect":3154,"tp":3155,"()[":3156,"Neg":3157,"ja":3158,"Contain":3159,"ĠentityDescriptor":3160,"Ġare":3161,"work":3162,"Ġstatistics":3163,"fl":3164,"sWith":3165,"td":3166,"max":3167,"erged":3168,"Details":3169,"SER":3170,"Ġurl":3171,"Import":3172,"ular":3173,"emant":3174,"Compilation":3175,"Policy":3176,"ĠEnum":3177,"Aria":3178,"Channel":3179,"Ġstyle":3180,"Generic":3181,"mod":3182,"tries":3183,"Ord":3184,"mapping":3185,"DD":3186,"Ġenc":3187,"getChildren":3188,"LL":3189,"Ġupdate":3190,"<?>>":3191,"Delegate":3192,"Jaxb":3193,"hn":3194,"ission":3195,"HashSet":3196,"OM":3197,"Depend":3198,"SharedSessionContractImplementor":3199,"Ġleft":3200,"Øª":3201,"74":3202,"ions":3203,"Ġrevision":3204,"week":3205,"Platform":3206,"Changed":3207,"lay":3208,"inish":3209,"__":3210,"rit":3211,"error":3212,"Eng":3213,"locale":3214,"Ġoptim":3215,"Immutable":3216,"VER":3217,"handler":3218,"ĠĠĠĠĠ":3219,"Ġxml":3220,"++;":3221,"ĠSharedSessionContractImplementor":3222,"eds":3223,"SH":3224,"1234":3225,"2004":3226,"ĠFetch":3227,"Producer":3228,"mento":3229,"andle":3230,"ĠTem":3231,"AnnotatedClass":3232,"Do":3233,"ĠIdentifier":3234,"cache":3235,"ountry":3236,"Ġbean":3237,"ReturnType":3238,"Ġoper":3239,"ĠDouble":3240,"OO":3241,"Parameterized":3242,"should":3243,"edType":3244,"ones":3245,"Success":3246,"MapKey":3247,"hasNext":3248,"Direct":3249,"PC":3250,"Ø¨":3251,"isEqualTo":3252,"acy":3253,"ohn":3254,"Ind":3255,"YearMonth":3256,"push":3257,"singType":3258,"ma":3259,"Span":3260,"JaxbHbm":3261,"MT":3262,"group":3263,"aggregate":3264,"72":3265,"simple":3266,"à«":3267,"Ġ++":3268,"forEach":3269,"patch":3270,"pos":3271,"Invalid":3272,"Nodes":3273,"sp":3274,"keys":3275,"Ġschema":3276,"Ġ!(":3277,"getCriteriaBuilder":3278,"TIVE":3279,"getTypeConfiguration":3280,"KEY":3281,"Ġver":3282,"Ġsequence":3283,"MENT":3284,"land":3285,"rc":3286,"eature":3287,"ra":3288,"parser":3289,"Ġselectable":3290,"embers":3291,"Color":3292,"Days":3293,"module":3294,"display":3295,"Engine":3296,"ĠBind":3297,"Queue":3298,"Hql":3299,"Ġpattern":3300,"Ġproduct":3301,";\\":3302,"Ġdecl":3303,"Selector":3304,"Tab":3305,"zone":3306,"Extension":3307,"Ìģ":3308,"Ġ\"\"":3309,"upd":3310,"Lower":3311,"ĠSystem":3312,"CriteriaBuilder":3313,"addAnnotatedClass":3314,"ysical":3315,"Viol":3316,"Ġdouble":3317,"()))":3318,"args":3319,"pareStatementCount":3320,"idth":3321,"elf":3322,"StatementInspector":3323,"ycle":3324,"BA":3325,"instance":3326,"charAt":3327,"lease":3328,"Ġcl":3329,"expect":3330,"ColumnName":3331,"getPrepareStatementCount":3332,")\");":3333,"elem":3334,"ĠsetUp":3335,"Mouse":3336,"allback":3337,"Transformer":3338,"pute":3339,"SET":3340,"Ġwidget":3341,"Hours":3342,"oy":3343,"ĠtoString":3344,"ĠThis":3345,"Ġdetermine":3346,"CI":3347,"Symbol":3348,".\");":3349,"uch":3350,"Ġlisteners":3351,"fined":3352,"trace":3353,"getAttribute":3354,"Ġconverter":3355,"Lob":3356,"DomainResult":3357,"entrySet":3358,"CN":3359,"Items":3360,"validate":3361,"lated":3362,"Ġrequest":3363,"âµī":3364,"Logg":3365,"Dirty":3366,"owner":3367,"SqmExpression":3368,"OfWeek":3369,"Interpret":3370,"Exit":3371,"Ġbar":3372,"ĠItem":3373,"SELECT":3374,"Nested":3375,"Ġad":3376,"Ġexplicit":3377,"Should":3378,"Loaded":3379,"ĠJsContext":3380,"Ġpredicate":3381,"ĠSqlAst":3382,"Mis":3383,"position":3384,"fire":3385,"Events":3386,"Ġchrono":3387,"Indexed":3388,"Bounds":3389,"ZE":3390,"package":3391,"clus":3392,"CHE":3393,"Ġdescription":3394,"ware":3395,"pattern":3396,"Seconds":3397,"Browser":3398,"Store":3399,"Unable":3400,"ĠAdd":3401,"ĠDuration":3402,"obj":3403,"Ġcal":3404,"cape":3405,"wa":3406,"Ġmust":3407,"Att":3408,"SessionFactoryImplementor":3409,"Header":3410,"dialect":3411,"Unknown":3412,"INT":3413,"UP":3414,"ĠTime":3415,")\",":3416,"09":3417,"ote":3418,"pup":3419,"ĠEntityOfBasics":3420,"Kind":3421,"getText":3422,"Ġcustom":3423,"getCurrent":3424,"NE":3425,"Ġhql":3426,"ĠISO":3427,"ugg":3428,"compile":3429,"áŁ":3430,"edStatement":3431,"aces":3432,"html":3433,"Buggy":3434,"Inline":3435,"Ġà¤":3436,"Ġgeom":3437,"getCollection":3438,"ĠLockMode":3439,"change":3440,"Export":3441,"ru":3442,"convert":3443,"description":3444,"Cl":3445,"Ġ?>":3446,"DEFAULT":3447,"ĠY":3448,"extract":3449,"iance":3450,"ocus":3451,"Ð°ÑĢ":3452,"we":3453,"custom":3454,"ym":3455,"24":3456,"setValue":3457,"oded":3458,"product":3459,"Ġtransaction":3460,"RefEdEntity":3461,"ĠCon":3462,"ternative":3463,"incorrect":3464,"Ġcallback":3465,"Mut":3466,"cat":3467,"reader":3468,"ĠDocument":3469,"Ġregion":3470,"Ġcte":3471,"Ġbuffer":3472,"clude":3473,"AfterEach":3474,"rapperOptions":3475,"Ġspec":3476,"Ġabstract":3477,"yy":3478,"Abs":3479,"body":3480,"ev":3481,"lags":3482,"Ġbasic":3483,"ended":3484,"Elements":3485,"sume":3486,"ancement":3487,"DomainType":3488,"iver":3489,"Ġlen":3490,"toArray":3491,"getQualified":3492,"role":3493,"short":3494,"âµı":3495,"Ġgenerator":3496,"getEntityName":3497,"FIN":3498,"Ġbuf":3499,"config":3500,"Print":3501,"OneToOne":3502,"ULL":3503,"ĠAddress":3504,"Ġqu":3505,"Listeners":3506,"Ġreturns":3507,"containsKey":3508,"ĠSafe":3509,"Compiler":3510,"ĠloadNameMap":3511,"Single":3512,"eet":3513,"ĠIllegalStateException":3514,"voc":3515,"paredStatement":3516,"loadNameMap":3517,"enceUnit":3518,"RefIngEntity":3519,"==":3520,"Direction":3521,"Permission":3522,"var":3523,"Ġdir":3524,"Ordinal":3525,"DI":3526,"getMapping":3527,"indexOf":3528,"Minute":3529,"filter":3530,"Rows":3531,"graph":3532,"tag":3533,"×Ļ":3534,"oll":3535,"unit":3536,"ĠLink":3537,"visitor":3538,"ĠValue":3539,"Resolution":3540,"Extractor":3541,"rno":3542,"some":3543,"Ġtuple":3544,"ĠAnimal":3545,"ĠFor":3546,"iffer":3547,"Ġreturned":3548,"18":3549,"Cascade":3550,"Skip":3551,"edProcedure":3552,"style":3553,"History":3554,"Ú©":3555,"QuerySpec":3556,"PathSource":3557,"Ø§ÙĨ":3558,"Account":3559,"GWT":3560,"(\"}":3561,"Expect":3562,"setDefault":3563,"ĠCache":3564,"ĠFROM":3565,"ROOT":3566,")\"":3567,"ĠZ":3568,"open":3569,"ĠlockMode":3570,";\");":3571,"LD":3572,"ĠNode":3573,"oted":3574,"ParameterBindings":3575,"StatementInterceptor":3576,"Ġfinally":3577,"errHandler":3578,"aj":3579,"eric":3580,"Strings":3581,"cho":3582,"Ġrun":3583,"Ġchildren":3584,"SC":3585,"ĠDefault":3586,"anced":3587,"Ġnamed":3588,"Ġsign":3589,"Ġpo":3590,"Minutes":3591,"vocation":3592,"Ġus":3593,"Ġuse":3594,"NullValue":3595,"2006":3596,"Uri":3597,"ĠField":3598,"getEn":3599,"Maps":3600,"ĠTypes":3601,"ĠObjects":3602,"READ":3603,"ynchronized":3604,"enant":3605,"ories":3606,"EntityDescriptor":3607,"ĠtestGet":3608,"Ġlazy":3609,"Ġprefix":3610,"src":3611,"Menu":3612,"ĠEmbeddable":3613,"Ġsett":3614,"Ġline":3615,"Namespace":3616,"Ã¨":3617,"ĠProduct":3618,".\"":3619,"Creation":3620,"PRE":3621,"į\");":3622,"unwrap":3623,"ArrayList":3624,"22":3625,"dl":3626,"ires":3627,"Increment":3628,"semb":3629,"âĢ":3630,"ARN":3631,"ĠSerialization":3632,"Active":3633,"air":3634,"ram":3635,"Ġdel":3636,"Loading":3637,"ĠfieldName":3638,"istin":3639,"shal":3640,"ambda":3641,"Declaration":3642,"getService":3643,"[])":3644,"versService":3645,"Split":3646,"emantic":3647,"LON":3648,"Ġsort":3649,"EventListener":3650,"uggest":3651,"Are":3652,"anon":3653,"Ġcontainer":3654,"ĠtableName":3655,"reated":3656,"Ġtag":3657,"ĠSchema":3658,"à¤¯":3659,"outFile":3660,"Look":3661,"det":3662,"istic":3663,"Ġoutput":3664,"OP":3665,"Inherit":3666,"ĠtypeName":3667,"ConnectionProvider":3668,"Formula":3669,"Where":3670,"ason":3671,"Extern":3672,"EntityWith":3673,"Ġhbm":3674,"Align":3675,"ĠGWT":3676,"edBy":3677,"SECOND":3678,"Compliance":3679,"Ġregis":3680,"istinct":3681,"ĠSub":3682,"Ġinvok":3683,"getCache":3684,"ĠpersistentClass":3685,"Book":3686,"Mask":3687,"Sorted":3688,"buffer":3689,"JoinType":3690,"ViewerRequest":3691,"Geom":3692,"cogn":3693,"Ġyear":3694,"Finish":3695,"late":3696,"Restriction":3697,"Compile":3698,"à¥ĩ":3699,"ĠJavaScriptObject":3700,"optim":3701,"à©":3702,"à¹":3703,"Ġ(\"":3704,"ĠMappingException":3705,"Ġbook":3706,"ĠsetParameter":3707,"STA":3708,"Execution":3709,"DATE":3710,"Dynamic":3711,"mon":3712,"Timeout":3713,"usted":3714,"Ġcolumns":3715,"0000000":3716,"startsWith":3717,"Back":3718,"Category":3719,"customer":3720,"Ident":3721,")\";":3722,"Files":3723,"getLocal":3724,"ingular":3725,"abc":3726,"message":3727,"Ãł":3728,"import":3729,"createNativeQuery":3730,"ĠqueryPart":3731,"metic":3732,"Ġdisplay":3733,"45":3734,"Prop":3735,"CTION":3736,"itive":3737,"ithmetic":3738,"exit":3739,"Instantiation":3740,"Temporal":3741,"initialize":3742,"StoredProcedure":3743,"maybe":3744,"oe":3745,"getStyle":3746,"getFirst":3747,"delay":3748,"Versioned":3749,"Revisions":3750,"Both":3751,"ĠJaxb":3752,"exception":3753,"ĠEntityPersister":3754,"ailed":3755,"EntityPersister":3756,"vMode":3757,"Ġ\");":3758,"cedence":3759,"##":3760,"blem":3761,"Ġparameters":3762,"SIZE":3763,"à§į":3764,"ek":3765,"trol":3766,"uplic":3767,"akart":3768,"Assemb":3769,"ISO":3770,"monthOfYear":3771,"ĠContact":3772,"tree":3773,"troy":3774,"animal":3775,"ĠresBytes":3776,"Getter":3777,"sign":3778,"Ġplural":3779,"resource":3780,"Location":3781,"TestData":3782,"Ġtoken":3783,"Annotations":3784,"ĠdatePattern":3785,"StackTrace":3786,"à¤¸":3787,"Outer":3788,"Linked":3789,"Ġwas":3790,"Ġthrown":3791,"cc":3792,"util":3793,"Optional":3794,"75":3795,"Ġnum":3796,"Qualifier":3797,"LowerCase":3798,"dir":3799,"ĠNative":3800,"ets":3801,"ĠMar":3802,"SqlSelection":3803,"Ġemployee":3804,"ĠtimePattern":3805,"Lookup":3806,"getSourceInfo":3807,"ĠaBytes":3808,"rnoException":3809,"arDown":3810,"akarta":3811,"Per":3812,"sync":3813,"api":3814,"Ġsn":3815,"Exchange":3816,"ClassDecl":3817,"JoinColumnBidirectional":3818,"Ġsupports":3819,"ĠDialect":3820,"NumberOf":3821,"000000":3822,"70":3823,"Ġcast":3824,"rie":3825,"BasicType":3826,"children":3827,"Ġtransform":3828,"Ġ\"</":3829,"Ġ<=":3830,"Click":3831,"Ð¼":3832,"ĠJMethod":3833,"Ġaf":3834,"This":3835,"Ann":3836,"Final":3837,"fd":3838,"FromClause":3839,"ĠnodeBuilder":3840,"Relation":3841,"down":3842,"assertParse":3843,"ĠFoo":3844,"DurationFieldType":3845,"assertAnnotation":3846,"olute":3847,"ĠtestSet":3848,"clud":3849,"Json":3850,".</":3851,"Es":3852,"Page":3853,"state":3854,"Ġmonth":3855,"ou":3856,"ĠgetEntityManager":3857,"ĠSelect":3858,"iddle":3859,"addSnippetClassDecl":3860,"server":3861,"DateTimeFormat":3862,"Statements":3863,"Ġregister":3864,"Optimizer":3865,"Digits":3866,"ãĤ":3867,"Ġservice":3868,"Ġmanaged":3869,"chedule":3870,"getMappingMetamodel":3871,"uid":3872,"Ġextension":3873,"ĠNamed":3874,"getTable":3875,"Ġts":3876,"ĠPlural":3877,"ociated":3878,"Memento":3879,"Ġ{\\":3880,"channel":3881,"resh":3882,"plier":3883,"ĠtableReference":3884,"73":3885,"bl":3886,"Ġing":3887,"atag":3888,"Paths":3889,"Ġembeddable":3890,"Violation":3891,".*":3892,"je":3893,"reset":3894,"QueryPart":3895,"ĠresultSet":3896,"ynth":3897,"External":3898,"atagram":3899,"Ġany":3900,"END":3901,"789":3902,"Phone":3903,"When":3904,"Ġca":3905,"Bit":3906,"Zero":3907,"Ñĸ":3908,"avin":3909,"Ġtreat":3910,"ĠjiraKey":3911,"ĠAss":3912,"à¤ķ":3913,"Multiple":3914,"iator":3915,"ĠtearDown":3916,"=\"":3917,"Put":3918,"float":3919,"ĠAttribute":3920,"ĠByte":3921,"faces":3922,"100":3923,"CreationContext":3924,"ĠRoot":3925,"getFactory":3926,"rior":3927,"ĠrBytes":3928,"Ġnothing":3929,"Timing":3930,"Typed":3931,"ĠattributeMapping":3932,"Ġeras":3933,"statementInspector":3934,"STRING":3935,"Leg":3936,"PO":3937,"hel":3938,"Ġnon":3939,"Ġ200":3940,"kerType":3941,"annotations":3942,"Ġsuite":3943,"DOM":3944,"system":3945,"oding":3946,"resol":3947,"ToCopy":3948,"à¦¾":3949,"debugf":3950,"29":3951,"79":3952,"Feature":3953,"Host":3954,"Ġall":3955,"aring":3956,"component":3957,"getSqlQueries":3958,"ĠSessionFactoryImplementor":3959,"Ctx":3960,"Ã³":3961,"DevMode":3962,"Permutation":3963,"Ġne":3964,"Desc":3965,"Handl":3966,"55":3967,"Ġ\"-":3968,"Ġsrc":3969,"argument":3970,"Ð³":3971,"Ġign":3972,"Ġmillis":3973,"otal":3974,"JavaScriptObject":3975,"ĠWrapperOptions":3976,"Assembler":3977,"Õ¡":3978,"toLowerCase":3979,"Ġmapper":3980,"Ġafter":3981,"Font":3982,"cent":3983,"visitChildren":3984,"me":3985,"med":3986,"widget":3987,"Ð±":3988,"Exact":3989,"Debug":3990,"Ġarguments":3991,"ĠTableGroup":3992,"Counts":3993,"Ġbytes":3994,"BothW":3995,"criteria":3996,"à¤¾\");":3997,"Ġresolved":3998,"Xref":3999,"ceiver":4000,"Separator":4001,"StreamReader":4002,"YE":4003,"ep":4004,"×Ĳ":4005,"atible":4006,"Servlet":4007,"Ð¸Ñı":4008,"SimpleFoo":4009,"Ġparams":4010,"BothWays":4011,"getNode":4012,"Force":4013,"Language":4014,"Title":4015,"sive":4016,"getOffset":4017,"Convert":4018,"keySet":4019,"AccessType":4020,"~~":4021,"ListJoinColumnBidirectional":4022,"Ġ},":4023,"Ġ}\",":4024,"DeclaredType":4025,"ParseTreeListener":4026,"ix":4027,"Touch":4028,"Throw":4029,"ĠFloat":4030,"Ġbefore":4031,"Ġinitial":4032,"ott":4033,"Precedence":4034,"ErrnoException":4035,"Ð°Ð»":4036,"Pol":4037,"sqm":4038,"etion":4039,"decl":4040,"okup":4041,"abilityExchange":4042,"getPath":4043,"getMetadata":4044,"Ġresponse":4045,"Ġform":4046,"Ġinterface":4047,"oftware":4048,"TestFinish":4049,"Ġreplace":4050,"AM":4051,"Ġday":4052,"ArrayType":4053,"ÐµÑĢ":4054,"JExpression":4055,"Ġinte":4056,"appender":4057,"JsName":4058,"Ġzone":4059,"lobal":4060,"WN":4061,"Ġdb":4062,"ĠDOM":4063,"Usage":4064,"delayTestFinish":4065,"BM":4066,"getChronology":4067,"content":4068,"êķ":4069,"Joined":4070,"à½²":4071,"ĠConfiguration":4072,"StrTestEntity":4073,"Ġunique":4074,"caught":4075,"//":4076,"Ġ{\"":4077,"Ġorg":4078,"Ġfragment":4079,"side":4080,"ĠComponent":4081,"Bas":4082,"edValue":4083,"resBytes":4084,"plied":4085,"configuration":4086,"Ġfields":4087,"getNavigablePath":4088,"MockJavaResource":4089,"oned":4090,"asString":4091,"Ġhtml":4092,"Commit":4093,"ÐµÐ½":4094,"Directory":4095,"Bootstrap":4096,"FF":4097,"panel":4098,"Ġmany":4099,"Jso":4100,"ĠsqlAst":4101,"Ġ\"+":4102,"Callable":4103,"Ġaudit":4104,"Comment":4105,"Ġrs":4106,"ĠEntityWith":4107,"supports":4108,"Ġcell":4109,"getTarget":4110,"ĠĠĠĠĠĠĠĠĠĠĠ":4111,"[]{":4112,"OutOf":4113,"Maximum":4114,"present":4115,">\";":4116,"LY":4117,"Profile":4118,"connection":4119,"StandardServiceRegistryBuilder":4120,"ĠstatementInspector":4121,"Ġenum":4122,"Validation":4123,"ĠInt":4124,"iff":4125,"igh":4126,"leanup":4127,"Jsni":4128,"LOGGER":4129,"ĠSerializationException":4130,"FT":4131,"num":4132,"split":4133,"getD":4134,"assertBothWays":4135,"Coll":4136,"LocalDateTime":4137,"riority":4138,"flow":4139,"isInstance":4140,"ĠlockOptions":4141,"finishTest":4142,"Ø¯":4143,"erialize":4144,"Arithmetic":4145,"BeforeEach":4146,"RITE":4147,"Anal":4148,"Ġprop":4149,"anges":4150,"getString":4151,"ĠST":4152,"ifiers":4153,"Ġoverride":4154,"book":4155,"Î±":4156,"top":4157,"LASS":4158,"El":4159,"left":4160,"ana":4161,"uri":4162,"\"},":4163,"many":4164,"Control":4165,"Physical":4166,"pth":4167,"safe":4168,"Ð¡":4169,"ĠnaturalId":4170,"Ġpackage":4171,"ĠnotNullValue":4172,"Comparison":4173,"na":4174,"sort":4175,"Ġpost":4176,"à¦¿":4177,"Ġkeys":4178,"Ġassign":4179,"ÑģÑĤ":4180,"MappedSuperclass":4181,"less":4182,"ensure":4183,"pted":4184,"Ġdiscriminator":4185,"Enhancement":4186,"Eur":4187,"moved":4188,"getCanon":4189,"Ġcompany":4190,"ĠjdbcMapping":4191,"ĠjoinColumns":4192,"Called":4193,"Coder":4194,"getTime":4195,"Ġcached":4196,"Ġboot":4197,"Ġop":4198,"STIC":4199,"áĥĺ":4200,"Ġ[\"":4201,"ination":4202,"idn":4203,"Ġval":4204,"Ġtimestamp":4205,"Ġcontains":4206,"CacheMode":4207,"ready":4208,"hourOfDay":4209,"\":":4210,"msg":4211,"vari":4212,"untimeMetamodel":4213,"Storage":4214,"untimeMetamodels":4215,"multi":4216,"ending":4217,"JoinColumns":4218,"getQualifiedSourceName":4219,"ĠLinked":4220,"Jta":4221,"Ġiterator":4222,"orian":4223,"ĠPost":4224,"Ġcannot":4225,"Tools":4226,"boardSelected":4227,"×Ļ×":4228,"Len":4229,"WRITE":4230,"isSame":4231,"ĠPre":4232,"John":4233,"clazz":4234,"hbm":4235,"Some":4236,"bers":4237,"Ġdatabase":4238,"plac":4239,"ĠJClassType":4240,"OrderBy":4241,"dp":4242,"timestamp":4243,"inSession":4244,"Ġproxy":4245,"ĠIter":4246,"ÐºÐ°":4247,"FlushMode":4248,"ux":4249,"Ġmember":4250,"FetchClause":4251,"ĠmethodName":4252,"LOCK":4253,"NamedQuery":4254,"CompilationUnit":4255,"uk":4256,"etic":4257,"getCause":4258,"ĠSerializable":4259,"ÃŃl":4260,"$$":4261,"Raw":4262,"nd":4263,"TEGER":4264,"DBC":4265,"Ġcause":4266,"Ġperm":4267,"à¤²":4268,"PersistentClass":4269,"Comparator":4270,"FQ":4271,"Ġscale":4272,"ARR":4273,"schema":4274,"Op":4275,"umption":4276,"Ġwalker":4277,"FunctionRegistry":4278,"Ð¸Ð½":4279,"áĥĲ":4280,"HqlParserListener":4281,"ĠHqlParserListener":4282,"Place":4283,"UB":4284,"cator":4285,"ÉĶ":4286,"à»":4287,"ptional":4288,"indent":4289,"Ġtop":4290,"SubQuery":4291,"poraryTable":4292,"\"}\");":4293,"OfHour":4294,"Ġwill":4295,"Checker":4296,"transaction":4297,"cret":4298,"ĠDE":4299,"Ġimage":4300,"'\"":4301,"PT":4302,"image":4303,"igger":4304,"Cfg":4305,"HER":4306,"Ġ\"]":4307,"Ġfail":4308,"Ġcaught":4309,"TL":4310,"ales":4311,"Tracker":4312,"binding":4313,"sor":4314,"Nullable":4315,"Reflection":4316,"ĠgetOr":4317,"RootPanel":4318,"Ġcontent":4319,"Ðľ":4320,"alf":4321,"edEntity":4322,"EntityGraph":4323,"NotAudited":4324,"Ġstrategy":4325,"SelectStatement":4326,"phone":4327,"----":4328,"Ġbinding":4329,"ĠMetadataSources":4330,"ierarchical":4331,"Gu":4332,"Messages":4333,"Obj":4334,"Pk":4335,"factory":4336,"Ñĭ":4337,"Ġ,":4338,"Ġrole":4339,"Rect":4340,"resenter":4341,"Ġ15":4342,"stand":4343,"FQCN":4344,"intValue":4345,"ummy":4346,"ĠcreateNative":4347,"ters":4348,"ĠResource":4349,"getRoot":4350,"ivity":4351,"à¥ĭ":4352,"ĠMethod":4353,"Ġpos":4354,"Ã¨de":4355,"equal":4356,"TypeCheck":4357,"ĠCO":4358,"referenced":4359,"ottom":4360,"idnight":4361,"branch":4362,"ees":4363,"AddLog":4364,"ployer":4365,"PersistentAttribute":4366,"Ġaggregate":4367,"good":4368,"Completion":4369,"DAY":4370,"arator":4371,"Ġtx":4372,"Entries":4373,"ĠDom":4374,"LEFT":4375,"results":4376,"BY":4377,"Ob":4378,"Task":4379,"pop":4380,"Ðļ":4381,"Ġsp":4382,"Ġsupported":4383,"OrÃŃl":4384,"Ġ31":4385,"ORMAT":4386,",\"":4387,"ulate":4388,"Ġclo":4389,"Ġtitle":4390,"Chunk":4391,"ĠUnit":4392,"undle":4393,"ĠBinding":4394,"Side":4395,"basic":4396,"ĠTestEntity":4397,"EntityType":4398,"ĠPAR":4399,"Stats":4400,"rimary":4401,"Ġgenerated":4402,"Ġsnapshot":4403,"IST":4404,"rag":4405,"def":4406,"Ġ11":4407,"ĠcolumnName":4408,"ĠLabel":4409,"Ġexecute":4410,"'t":4411,"acher":4412,"Åĭ":4413,"Ùī":4414,"ExpressionResolver":4415,"Printer":4416,"output":4417,"ĠclassLoader":4418,"ĠonSuccess":4419,"MAL":4420,"Tables":4421,"response":4422,"ĠJSON":4423,"Years":4424,"pw":4425,"ĠgetClass":4426,"Ġcase":4427,"ayer":4428,"Ġstudent":4429,"Ġjaxb":4430,"SQLStatement":4431,"Ġwhen":4432,"Linker":4433,"uit":4434,"getFormat":4435,"getVersion":4436,"amount":4437,"rol":4438,"ĠCom":4439,"Rebuild":4440,"ĠsetC":4441,"GR":4442,"getDialect":4443,"example":4444,"access":4445,"ĠinstanceOf":4446,"logf":4447,"LOB":4448,"ategories":4449,"DurationField":4450,"ĠJavaType":4451,"iya":4452,"eted":4453,"Ġste":4454,"ait":4455,"asc":4456,"ĠStringBuffer":4457,"ourse":4458,"rika":4459,"{\"+":4460,"IL":4461,"ators":4462,"Ġ|=":4463,"ĠLocalDateTime":4464,"Focus":4465,"UI":4466,"ĠLockOptions":4467,"className":4468,"getJdbcType":4469,"css":4470,"den":4471,"ank":4472,"Ġcontract":4473,"earch":4474,"Ġannotated":4475,"Ð¾Ð½":4476,"days":4477,"ĠinvokingState":4478,"imalRebuild":4479,"closingType":4480,"ĠbuildingContext":4481,"ynthetic":4482,"HERE":4483,"ITY":4484,"Ñĺ":4485,"getMethod":4486,"connect":4487,"ĠMapKey":4488,"Runtime":4489,"Ġcontain":4490,"FileDescriptor":4491,"CharSequence":4492,"SimpleEntity":4493,"Mon":4494,"Two":4495,"ĠErrnoException":4496,"ĠDomain":4497,"regorian":4498,"ĠpersistenceContext":4499,"2005":4500,"OutOfBounds":4501,"rand":4502,"resources":4503,"Transient":4504,"Parts":4505,"âµĵ":4506,"assemb":4507,"Ġpk":4508,"Ġmerge":4509,"Lists":4510,"ENTI":4511,"Ġfetchable":4512,"Such":4513,"curity":4514,"imalRebuildCache":4515,"66":4516,"YearMonthDay":4517,"Absolute":4518,"Drop":4519,"mp":4520,"Ø¬":4521,"identifier":4522,"[][]":4523,"ĠCal":4524,"Ġgraph":4525,"getProperties":4526,"report":4527,"Ġclear":4528,"ift":4529,"ĠgetVersion":4530,"coun":4531,"IndexOutOfBounds":4532,"NamingStrategy":4533,"standard":4534,"77":4535,"EST":4536,"GL":4537,"px":4538,"TypeOracle":4539,"Ġalternative":4540,"ĠDateTimeZone":4541,"Cannot":4542,"isticLock":4543,"AEntity":4544,"NG":4545,"ĠSAX":4546,"token":4547,"Ġjpa":4548,"encing":4549,"Ġstruct":4550,"ĠquerySpec":4551,"Space":4552,"Ġtimeout":4553,"PAREN":4554,"gress":4555,"tual":4556,"properties":4557,"toByteArray":4558,"Ġ'\\":4559,"ALI":4560,"ynchronization":4561,"Renderer":4562,"×ķ":4563,"PersistenceContext":4564,"Ġyou":4565,"ĠotherEntity":4566,"dayOfMonth":4567,"512":4568,"navigablePath":4569,"ina":4570,"JoinTable":4571,"Ġprepare":4572,"áĬķ":4573,"Bi":4574,"VA":4575,"ted":4576,"level":4577,"Ġsup":4578,"student":4579,"STAMP":4580,",?":4581,"PK":4582,"getL":4583,"Ġme":4584,"ĠJson":4585,"ValuedModelPart":4586,"Na":4587,"ms":4588,"getF":4589,"à¤®":4590,"LocalDate":4591,"à¥Ģ":4592,"Serializer":4593,"ween":4594,"Priority":4595,"card":4596,"member":4597,"etween":4598,"Ġnormal":4599,"Ġequal":4600,"Ġmaybe":4601,"Fixed":4602,"Without":4603,"uff":4604,"JDeclaredType":4605,"Right":4606,"ĠTransaction":4607,"(\"\\":4608,"UpdateCount":4609,"Ġcomment":4610,"SQLException":4611,"MPTY":4612,"IndexOutOfBoundsException":4613,"Math":4614,"Using":4615,"ines":4616,"isActive":4617,"Assignment":4618,"àµį":4619,"ffective":4620,"Mutability":4621,"getCanonicalName":4622,"VAR":4623,"dent":4624,"light":4625,"Ġmain":4626,"Ġattr":4627,"FormatterBuilder":4628,"CRE":4629,"Midnight":4630,"Suffix":4631,"ĠParameter":4632,"apter":4633,"Ġbut":4634,"emory":4635,"jection":4636,"DAT":4637,"More":4638,"bin":4639,"ale":4640,"internal":4641,"Ġparser":4642,"ĠHierarchical":4643,"Months":4644,"Clear":4645,"CLASS":4646,"Est":4647,"escape":4648,"Ġcategory":4649,"ializer":4650,"Upper":4651,"Clob":4652,"Ne":4653,"edClass":4654,"Ġpl":4655,"Stmt":4656,"consume":4657,"OfMinute":4658,"applySetting":4659,"Ġprevious":4660,"SSI":4661,"Ġconstraint":4662,"Ġ1000":4663,"NotPresent":4664,"LocalTime":4665,"Ġempty":4666,"ysis":4667,"ChangeEvent":4668,"PrimaryKey":4669,"39":4670,"NULL":4671,"Ġmutation":4672,"Ġenabled":4673,"Intf":4674,"Aliases":4675,"lazy":4676,"cursive":4677,"Ġ\".\"":4678,"ĠName":4679,"Ġ\"\";":4680,"stit":4681,"Ġrequ":4682,"Ġimpl":4683,"Fragments":4684,"Illegal":4685,"TABLE":4686,"Ġqual":4687,"ForDialect":4688,"aching":4689,"ĠhashCode":4690,"leton":4691,"Containing":4692,"Legacy":4693,"ĠURL":4694,"trim":4695,"Ġpresent":4696,"ĠSource":4697,"Ġoracle":4698,"ATOR":4699,"Bu":4700,"ens":4701,"getP":4702,"Ġperiod":4703,"SelectClause":4704,"Ġanimal":4705,"ookie":4706,"Closed":4707,"LLIS":4708,"CU":4709,"getDescriptor":4710,"getDeclared":4711,"Into":4712,"Ġrel":4713,"ReferenceType":4714,"BUG":4715,"sBy":4716,"request":4717,"(\"\",":4718,"Ġxstream":4719,"DED":4720,"getJdbcMapping":4721,"voke":4722,"GwtLocale":4723,"ĠextensionRegistry":4724,"SA":4725,"named":4726,"Ðĳ":4727,"Ġ#":4728,"icu":4729,"Ġnamespace":4730,"presenter":4731,"Icon":4732,"JField":4733,"holder":4734,"Ġbatch":4735,"Ġ23":4736,"acity":4737,"ARY":4738,"MetadataBuildingContext":4739,"RPC":4740,"ursor":4741,"Enter":4742,"Ġhour":4743,"getTypeName":4744,"Ø§ÙĦ":4745,"Ġprecision":4746,"Ġgeometry":4747,"48":4748,"ertical":4749,"Ġcity":4750,"Ġcatalog":4751,"REF":4752,"Selections":4753,"ika":4754,"UTF":4755,"ĠSimpleEntity":4756,"mark":4757,"ĠTemporalType":4758,"resolved":4759,"BE":4760,"Could":4761,"Self":4762,"ba":4763,"domain":4764,"pp":4765,"Ġ()":4766,"Ġvar":4767,"assertNot":4768,"Ġrhs":4769,"fromTransaction":4770,"Ġsubclass":4771,"Ġ60":4772,"ĠAuditEntity":4773,"ĠSafeHtml":4774,"ija":4775,"main":4776,"script":4777,"ibcore":4778,"Register":4779,"ĠBook":4780,"after":4781,"ĠjdbcType":4782,"Origin":4783,"stats":4784,"gre":4785,"minute":4786,"Ġdescriptor":4787,"Variation":4788,"getRuntimeMetamodels":4789,"Geometry":4790,"Catalog":4791,"NONE":4792,"label":4793,"ĠPath":4794,"ingData":4795,"arm":4796,"Groups":4797,"SocketAddress":4798,"MISTIC":4799,"partment":4800,"getReference":4801,"getSub":4802,"record":4803,"fieldName":4804,"ðĲĲ²":4805,"SkipForDialect":4806,"ĠCalendar":4807,"25":4808,"ĠNullPointerException":4809,"Ġlive":4810,"ResultSetMapping":4811,"LayoutPanel":4812,"DON":4813,"FR":4814,"ifiable":4815,"ally":4816,"JsFunction":4817,"LEMENT":4818,"getEnclosingType":4819,"ope":4820,"Ú¯":4821,"Conversion":4822,"ĠStringHelper":4823,"OrAfter":4824,"shall":4825,"SecondPass":4826,"ĠPeriodType":4827,"Ġvalidate":4828,"VI":4829,"Ġexample":4830,"endsWith":4831,"StyleName":4832,"Minimum":4833,"assertAnnotationNotPresent":4834,"://":4835,"tion":4836,"Ð·":4837,"ÐĲ":4838,"Ø¦":4839,"Ġsearch":4840,"(\"-":4841,"Initialize":4842,"TIC":4843,"ORD":4844,"ĠbyteOffset":4845,"orrelated":4846,"ilerContext":4847,"PrimitiveType":4848,"crete":4849,"title":4850,"Ġ\\":4851,");\",":4852,"Ġclient":4853,"decode":4854,"Quoted":4855,"Attr":4856,"ExpressionContext":4857,"Alt":4858,"Ġattributes":4859,"prefix":4860,"getSimple":4861,"ĠClassLoader":4862,"LAY":4863,"getFieldIn":4864,"28":4865,"GA":4866,"oriz":4867,"ĠgetValue":4868,"Ġresources":4869,"ĠHuman":4870,"à³į":4871,"orizont":4872,"08":4873,"Codes":4874,"Ġ13":4875,"Ġcomposite":4876,"TRA":4877,"CACHE":4878,"ĠgetOrCreate":4879,"OUR":4880,"Suggest":4881,"ttp":4882,"ename":4883,"Ġdoc":4884,"Ġhandle":4885,"ĠforeignKey":4886,"Required":4887,"iresDialect":4888,"Area":4889,"Navigable":4890,"Weeks":4891,"PersistentCollection":4892,"FIX":4893,"Ġignore":4894,"Bag":4895,"Fil":4896,"hashMap":4897,"ĠEm":4898,"orph":4899,"orld":4900,"Ġsystem":4901,"AccessStrategy":4902,"prepare":4903,"ENTITY":4904,"PH":4905,"Ranges":4906,"ste":4907,"inner":4908,"getBody":4909,"getReferenced":4910,"unc":4911,"Ġdocument":4912,"Ġinstantiate":4913,"Ġassociation":4914,"à¯į":4915,"Semantic":4916,"ĠDe":4917,"AttributeSource":4918,"bean":4919,"Attach":4920,"Merge":4921,"ĠPh":4922,"Integr":4923,"ĠLocalDate":4924,"Dependent":4925,"was":4926,"setCurrent":4927,"Ġlink":4928,"TimeMillis":4929,"Ġlocate":4930,"compute":4931,"RowCount":4932,"SimpleFooProxy":4933,"isSameOrAfter":4934,"BJ":4935,"non":4936,"ublic":4937,"enum":4938,"Unexpected":4939,"ĠText":4940,"sqlAppender":4941,"propertyName":4942,"ferredData":4943,"ARRAY":4944,"WI":4945,"Ø²":4946,"erived":4947,"ĠLazy":4948,"ĠattributeName":4949,"ĠStandardServiceRegistryBuilder":4950,"getJavaTypeClass":4951,"Rpc":4952,"ĠRequest":4953,"Ġsome":4954,"OfSecond":4955,"plemental":4956,"Ġelements":4957,"Leaf":4958,"ĠdateTime":4959,"orizontal":4960,"entities":4961,"stack":4962,"setC":4963,"Unsupported":4964,"FunctionDescriptor":4965,"2002":4966,"Ġeditor":4967,"rics":4968,"Exists":4969,"Ġfd":4970,"Initialization":4971,"functionContributions":4972,"redit":4973,"Loggable":4974,"variant":4975,"ah":4976,"native":4977,"ĠcreationContext":4978,"ounter":4979,"BasicTypes":4980,"Ġya":4981,"Wrapped":4982,"imation":4983,"ĠgetProperty":4984,"Ġlimit":4985,"region":4986,"PARIS":4987,"Indic":4988,"clusion":4989,"Hit":4990,"etAddress":4991,"TypeConfiguration":4992,"ĠgetDefault":4993,"TestService":4994,"serviceRegistry":4995,"Ġwidth":4996,"PropertyInitialized":4997,"Ġaccessor":4998,"Changes":4999,"RunAsync":5000,"Ġfollowing":5001,"ĠMutableDateTime":5002,"OOLE":5003,"ATION":5004,"BO":5005,"scroll":5006,"FieldName":5007,"newItem":5008,"ternate":5009,"AND":5010,"Conditional":5011,"ĠNumberFormat":5012,"flu":5013,"Sw":5014,"Ġiter":5015,"ĠEnvironment":5016,"Enc":5017,"ĠgetChronology":5018,"Ġduration":5019,"encers":5020,"Ordering":5021,"áĢº":5022,"Ġdesc":5023,"fluencers":5024,"etime":5025,"orVersion":5026,"endor":5027,"SessionImplementor":5028,"DateTimeUtils":5029,"ParameterXref":5030,"ynt":5031,"ðĳĦ´":5032,"Processor":5033,"Ġzoo":5034,"IO":5035,"ov":5036,"sm":5037,"StringBuffer":5038,"Extra":5039,"plates":5040,"Ġthere":5041,"embedd":5042,"Ġholder":5043,"TED":5044,"Cacheable":5045,"Supplier":5046,"â´°âµ":5047,">\"":5048,"SK":5049,"mm":5050,"ĠTimeZone":5051,"getExpression":5052,"ich":5053,"Ġbreak":5054,"Ġhint":5055,"http":5056,"ancel":5057,"when":5058,"configure":5059,"uplicate":5060,"Author":5061,"chor":5062,"Dispatch":5063,"Ġappender":5064,"rupted":5065,"arguments":5066,"newInstance":5067,"AttributeName":5068,"anged":5069,"Ġcommand":5070,"marshal":5071,"lhs":5072,"Ġmode":5073,"ĠgetName":5074,"ĠHtml":5075,"82":5076,"Ġ`":5077,"ĠZone":5078,"();\",":5079,"ĠtypeOracle":5080,"Amount":5081,"allow":5082,"locate":5083,"Anno":5084,"AnnotationPresent":5085,"queue":5086,"ĠBasicType":5087,"inte":5088,"icle":5089,"selection":5090,"ĠCustom":5091,"Ġaccount":5092,"ifferent":5093,"handle":5094,"Ġscript":5095,"Ġprimary":5096,"ildcard":5097,"Ġinside":5098,"destroy":5099,"Constraints":5100,"ierarchy":5101,"callback":5102,"AU":5103,"compatible":5104,"ENCE":5105,"matches":5106,"Created":5107,"sk":5108,"setText":5109,"[]>":5110,"Ġprovider":5111,"reationProcess":5112,"sourceInfo":5113,"ĠLocalTime":5114,"ParameterizedType":5115,"OOLEAN":5116,"OUT":5117,"currency":5118,"Ġna":5119,"ById":5120,"DateTimeField":5121,"Added":5122,"à¦¨":5123,"ĠStandardBasicTypes":5124,"âµīâµ":5125,"UID":5126,"ĠbNumber":5127,"00000000":5128,"Adapter":5129,"span":5130,"Cached":5131,"NC":5132,"NER":5133,"requ":5134,"Invocation":5135,"Ġbox":5136,"ĠHandler":5137,"LongLib":5138,"Ġorig":5139,"DEBUG":5140,"êĶ":5141,"atetime":5142,"Strict":5143,"setDescription":5144,"Security":5145,"AuditingData":5146,"mapper":5147,"(\"}\");":5148,"ForceInline":5149,"revision":5150,"Ġpanel":5151,"ĠentityPersister":5152,"ĠtoReturn":5153,"findType":5154,"****":5155,"ENT":5156,"MODE":5157,"NaN":5158,"Break":5159,"IE":5160,"ĠData":5161,"employee":5162,"UniqueKey":5163,"fragment":5164,"BR":5165,"JSON":5166,"dst":5167,"drop":5168,"Ûķ":5169,"Ġ{\");":5170,"calar":5171,"peri":5172,"ĠMessage":5173,"ĠTI":5174,"++]":5175,"ĠSqmExpression":5176,"Ġsubquery":5177,"Ġconfigure":5178,"àŃį":5179,"Precision":5180,"Ordered":5181,"Ġheight":5182,"jar":5183,"isNotNull":5184,"Ġcreated":5185,"Ġmar":5186,"entityName":5187,"Ġreal":5188,"Ġprint":5189,"TAG":5190,"width":5191,"etwork":5192,"icode":5193,"Ġcur":5194,"Ġinner":5195,"Ġauto":5196,"Ġwhy":5197,"Ġphone":5198,"onedDateTime":5199,"CAL":5200,"Uint":5201,"bad":5202,"nia":5203,"áº":5204,"eni":5205,"ctor":5206,"Ġcar":5207,"ili":5208,"Ġmerged":5209,"constr":5210,"ĠGeom":5211,"ployees":5212,"Ġverify":5213,"rieve":5214,"AGE":5215,"ELEMENT":5216,"ini":5217,"ince":5218,"ĠJakarta":5219,"ĉĉĉĉ":5220,"TES":5221,"ĠGets":5222,"Ġinterceptor":5223,"ĠAnEntity":5224,"Fk":5225,"PL":5226,"Ġcss":5227,"olator":5228,"ĠJType":5229,"itionException":5230,"Hello":5231,"Ġinitialize":5232,"Ġmodification":5233,"ĠISODateTimeFormat":5234,"cognitionException":5235,"bId":5236,"post":5237,"so":5238,"tl":5239,"(\"</":5240,"Contains":5241,"uted":5242,"converter":5243,"explicit":5244,"typeOracle":5245,"MutableDateTime":5246,"Interpreter":5247,"TD":5248,"creationState":5249,"Ġup":5250,"getResource":5251,"Ġsorted":5252,"Ġ14":5253,"Ġcompare":5254,"currentTimeMillis":5255,"ogi":5256,"BinaryOperation":5257,"à½²à¼ĭ":5258,"Overrides":5259,"Setter":5260,"MappingDocument":5261,"ĠBar":5262,"ĠTarget":5263,"ĠNo":5264,"getSuper":5265,"lushMode":5266,"ĠWARN":5267,"initialized":5268,"Inheritance":5269,"Singular":5270,"doc":5271,"md":5272,"su":5273,"Ð¿":5274,"getComponent":5275,"Ġwrap":5276,"Private":5277,"outdent":5278,"Ø§Ø±":5279,"height":5280,"CapabilityExchange":5281,"hello":5282,"ĠgetOrCreateEntityManager":5283,"201":5284,"SY":5285,"Ġ(((":5286,"Metrics":5287,"Ġauthor":5288,"ByName":5289,"plication":5290,"ĠThere":5291,"COM":5292,"NonNull":5293,"Ġfollows":5294,"ĠTherefore":5295,"';":5296,"07":5297,"FK":5298,"JO":5299,"attr":5300,"isSupported":5301,"getWidget":5302,"chive":5303,"endVisit":5304,"Ġlabel":5305,"appendChild":5306,"Ġ};":5307,"Ġ45":5308,"Ġonly":5309,"ĠinitData":5310,"PeriodType":5311,"ĠSqlTypes":5312,"DDL":5313,"Ġsettings":5314,"Flag":5315,"Tenant":5316,"cfg":5317,"ĠEntryPoint":5318,"TestSet":5319,"ĠaScale":5320,"mock":5321,"StreamWriter":5322,"Functions":5323,"ĠDateTimeFormat":5324,"2003":5325,"Ġoperator":5326,"Members":5327,"scale":5328,"getOwner":5329,"Ġev":5330,"Ġdiv":5331,"[].":5332,"Ant":5333,"artifact":5334,"egin":5335,"ĠDateTimeFieldType":5336,"à·Ĭ":5337,"header":5338,"ĠexecutionContext":5339,"aaEntity":5340,"AG":5341,"dc":5342,"wrapped":5343,"à¾":5344,"enable":5345,"Ġmy":5346,"JdbcValues":5347,"getEntityDescriptor":5348,"Half":5349,"Ġsw":5350,"Emul":5351,"HasData":5352,"ĠAssert":5353,"ĠIterator":5354,"$$_":5355,"ĠCharacter":5356,"Ġnow":5357,"Ġ16":5358,"ĠBuggy":5359,"Subgraph":5360,"Ġjsni":5361,"IdentityHashMap":5362,"Õ¡Õ":5363,"ASE":5364,"ECT":5365,"cum":5366,"mal":5367,"JavaScript":5368,"persister":5369,"compilation":5370,"Ġ56":5371,"buildMetadata":5372,"UNT":5373,"RequiresDialect":5374,"WITH":5375,"Currency":5376,"Lat":5377,"Ġupd":5378,"invoke":5379,"COMP":5380,"ĠWHERE":5381,"Head":5382,"SSIMISTIC":5383,"234":5384,"Mult":5385,"Walker":5386,"Web":5387,"opt":5388,"lex":5389,"Ġcq":5390,"Influencers":5391,"ToEntity":5392,"FileName":5393,"erminal":5394,"ISH":5395,"Ġdefaults":5396,"Protocol":5397,"Logging":5398,"YEAR":5399,"ĠPARSER":5400,"ĠTIME":5401,"Mo":5402,"yz":5403,"Î¹":5404,"getDatabase":5405,"Ġsf":5406,"plural":5407,"ForUpdate":5408,"Ġhash":5409,"ONTH":5410,"ĠloadMy":5411,"ĠoverrideMap":5412,"CL":5413,"Mal":5414,"Ver":5415,"ten":5416,"vm":5417,"Ġsum":5418,"assertUpdateCount":5419,"ayment":5420,"Ġincrement":5421,"Interrupted":5422,"ĠLON":5423,"Charset":5424,"ĠpackageName":5425,"Public":5426,"isPropertyInitialized":5427,"getParameter":5428,"getFetch":5429,"getPersistenceContext":5430,"release":5431,"Original":5432,"Generate":5433,"porter":5434,"ĠloadNameMapNative":5435,"59":5436,"AF":5437,"Bad":5438,"Hash":5439,"peek":5440,"deque":5441,"Inverse":5442,"TypeDescriptor":5443,"Ġconsumer":5444,"()),":5445,"wtypes":5446,"Ġalt":5447,"à½ĵ":5448,"Fruit":5449,"ĠThe":5450,"orrelation":5451,"Ġlevel":5452,"RenderingMode":5453,"MetaData":5454,"rawtypes":5455,"ĠloadNameMapJava":5456,"loadNameMapJava":5457,"HitCount":5458,"){":5459,"pi":5460,"iness":5461,"getRevisions":5462,"TypeNames":5463,"setThe":5464,"ĠgetQuery":5465,"ĠCss":5466,"Ġraw":5467,"fromString":5468,"foreign":5469,"bytes":5470,"à±į":5471,"loadNameMapNative":5472,"ĠloadMyNameMap":5473,"\"@":5474,"binary":5475,"cce":5476,"getLength":5477,"service":5478,"ColumnNames":5479,"ĠMon":5480,"ordinal":5481,"FunctionContext":5482,"Locking":5483,"ĠTestSuite":5484,"Ġcalling":5485,"Updater":5486,"IP":5487,"Î¿":5488,"ĠRE":5489,"real":5490,"TreeNode":5491,"PreparedStatement":5492,"ModelCreationContext":5493,"Ġ(!(":5494,"Errors":5495,"Ġtemplate":5496,"pcodes":5497,"EEK":5498,"idden":5499,"ymorph":5500,"signum":5501,"KY":5502,"Merged":5503,"Sum":5504,"ĠImage":5505,"loor":5506,"antity":5507,"clearCounts":5508,"Ġinterpret":5509,"ĠJdbcType":5510,"Bundle":5511,"We":5512,"literal":5513,"nested":5514,"Î½":5515,"001":5516,"Preview":5517,"ĠXml":5518,"Contents":5519,"PERTY":5520,"GenerationContext":5521,"Ġoptimizer":5522,"ĠTimeOfDay":5523,"BIN":5524,"MS":5525,"raw":5526,"Ġview":5527,"Ġbody":5528,"addDescriptor":5529,"à¤Ł":5530,"StreamException":5531,"Era":5532,"sqlStatementInterceptor":5533,"LONDON":5534,"It":5535,"getServiceRegistry":5536,"andid":5537,"ongName":5538,"SelectionModel":5539,"Logical":5540,"Ġaliases":5541,"Collecting":5542,"head":5543,"MutationQuery":5544,"cluded":5545,"SR":5546,"Ù¾":5547,"isAnnotationPresent":5548,"getAddress":5549,"imate":5550,"Testing":5551,"SqlTypeCode":5552,"128":5553,"56789":5554,"desc":5555,"Numbers":5556,"Searched":5557,"Ġdelete":5558,"boardSelectedRow":5559,"fus":5560,"send":5561,"ĠConverter":5562,"STMT":5563,"áŀ¶":5564,"Matcher":5565,"Ġregistry":5566,")).":5567,"40":5568,"hql":5569,"atable":5570,"ica":5571,"INNER":5572,"UserType":5573,"withZone":5574,"Bus":5575,"JProgram":5576,"ĠgetDialect":5577,"QueryInfluencers":5578,"ValueMapping":5579,"container":5580,"[],":5581,"ĠAc":5582,"ĠDis":5583,"ĠVAL":5584,"Fails":5585,"RuntimeException":5586,"ĠSt":5587,"getJpa":5588,"getLast":5589,"Ġ\":":5590,"Ġ\"\\":5591,"Ġfk":5592,"PathEntry":5593,"singleton":5594,"InnerClass":5595,"erica":5596,"period":5597,"89":5598,"IR":5599,"ross":5600,"Ġ\"\\\"":5601,"Classification":5602,"prop":5603,"ĠAccess":5604,"ĠDynamic":5605,"copyOf":5606,"years":5607,"ModuleName":5608,"getInstanceUTC":5609,"Interpretation":5610,"ĠPhone":5611,"Blob":5612,"LC":5613,"Pair":5614,"hip":5615,"äº":5616,"ĠWidget":5617,"estic":5618,"Reset":5619,"URI":5620,"OFF":5621,"ĠequalTo":5622,"getItem":5623,"getDescription":5624,"ingOptions":5625,"edState":5626,"Ġper":5627,"predicate":5628,"Manage":5629,"Ġliteral":5630,"Ġlik":5631,"NotEmpty":5632,"ArgHandler":5633,"encies":5634,"NumberFormat":5635,"Initial":5636,"Ġright":5637,"Ġgwt":5638,"Subquery":5639,"SqmPath":5640,"ÛĮÙĨ":5641,"Ġintegr":5642,"(@":5643,"XProperty":5644,"×¨":5645,"sett":5646,"toReturn":5647,"Ġwork":5648,"Ġunknown":5649,"Assertions":5650,"ĠrowProcessingState":5651,"Ã¢":5652,"Ãº":5653,"ClassLiteral":5654,"FetchProfile":5655,"Ġcompile":5656,"IgnoreCase":5657,"Based":5658,"setCurrentMillis":5659,"(\",":5660,"></":5661,"Buf":5662,"Branch":5663,"Drag":5664,"EG":5665,"getAbsolute":5666,"ational":5667,"Ġ42":5668,"Ġenh":5669,"ĠHibernateProxy":5670,"Ð¾ÑĢ":5671,"getJdbcServices":5672,"before":5673,"áĥĲáĥ":5674,"yntax":5675,"Ct":5676,"Cursor":5677,"aSign":5678,"Ã¤":5679,"Ġce":5680,"Ġwindow":5681,"shared":5682,"TranslatorFactory":5683,"(\\\"":5684,"Ev":5685,"JA":5686,"ĠInstant":5687,"orage":5688,"active":5689,"EntityEntry":5690,"Partition":5691,"ÙĪØ±":5692,"21":5693,"Jtd":5694,"DELAY":5695,"ĠPersistentClass":5696,"USE":5697,"bNumber":5698,"Ġ\"_":5699,"Ġdrop":5700,"ĠaSign":5701,"ĠCriteria":5702,"doTest":5703,"MetadataImplementor":5704,"Analysis":5705,"GY":5706,"YLE":5707,"cs":5708,"spec":5709,"ĠDataPoint":5710,"plus":5711,"Ġlike":5712,"STYLE":5713,"Ġdefined":5714,"Ġimplicit":5715,"ÛĮØ§":5716,"ParseException":5717,"Snapshot":5718,"StoredProcedureQuery":5719,"Ġpermutation":5720,"ident":5721,"then":5722,"ung":5723,"ĠSE":5724,"typeName":5725,"ĠenversService":5726,"params":5727,"DivElement":5728,"city":5729,"duration":5730,"ij":5731,"layout":5732,"áĮ":5733,"ĠChronology":5734,"getValues":5735,"defined":5736,"Ġfloat":5737,"Ġdst":5738,"Ġreason":5739,"Under":5740,"lying":5741,"ĠLongLib":5742,"Rendering":5743,"CollectingStatementInspector":5744,".<":5745,"category":5746,"Ġ~":5747,"ĠKey":5748,"ceive":5749,"ĠbBytes":5750,"Ġmulti":5751,"ToString":5752,"ĠaaaEntity":5753,"ĠAsync":5754,"TableGroupJoin":5755,"eq":5756,"getStart":5757,"cover":5758,"Atom":5759,"ColumnReference":5760,"Popup":5761,"vided":5762,"Chars":5763,"ĠmoduleName":5764,"Ġheader":5765,"Ġconstructor":5766,"Nan":5767,"NORM":5768,"Õ«":5769,"ĠCh":5770,"isBefore":5771,"getBytes":5772,"imension":5773,"NativeEvent":5774,"LOAD":5775,"GeneratorContext":5776,"Instantiator":5777,"ĠServiceRegistry":5778,"MILLIS":5779,"Owning":5780,"Ġenclo":5781,"ĠDurationFieldType":5782,"ĠSelectable":5783,"ĠAssertion":5784,"27":5785,"aEntity":5786,"creationContext":5787,"dom":5788,"found":5789,"getCollectingStatementInspector":5790,"into":5791,"Ġwrapped":5792,"INFIN":5793,"Company":5794,"Interfaces":5795,"ĠVALUE":5796,"INFINITY":5797,"NI":5798,"omet":5799,"location":5800,")))":5801,"tester":5802,"Resolve":5803,"Ġshort":5804,"TERN":5805,"presentation":5806,"Writ":5807,"ĠExit":5808,"ancer":5809,"UnsupportedOperationException":5810,"JsExpression":5811,"Handle":5812,"EMPTY":5813,"NUM":5814,"ZER":5815,"Ġsame":5816,"ceived":5817,"Ġtz":5818,"chase":5819,"Than":5820,"Ġdef":5821,"ðĳĦ¨":5822,"ĠtemporalType":5823,"Expand":5824,"ĠPredicate":5825,"Ġpartial":5826,"00000001":5827,"TestSetValidator":5828,"PS":5829,"]));":5830,"driver":5831,"pk":5832,"ĠByteArray":5833,"Ġsu":5834,"UnableToCompleteException":5835,"SqlAppender":5836,"Ġseparator":5837,"Temp":5838,"Agent":5839,"ForeignKeyDescriptor":5840,"Management":5841,"88":5842,"now":5843,"irtual":5844,"ĠfetchParent":5845,"Extended":5846,"months":5847,"CteStatement":5848,"PROPERTY":5849,"assemble":5850,"CD":5851,"IM":5852,"ci":5853,"mary":5854,"getHours":5855,"ored":5856,"editor":5857,"FetchBuilder":5858,"collect":5859,"readObject":5860,"Ð¸Ñĺ":5861,"enterOuter":5862,"ĠtableGroupJoin":5863,"enterOuterAlt":5864,">\",":5865,"ĠStatistics":5866,"Ġ\"/":5867,"(\"@":5868,"utome":5869,"Locator":5870,"Quote":5871,"ssr":5872,"tableGroup":5873,"Ġinterval":5874,"DomainResultCreationState":5875,"\\\",":5876,"Ã¬":5877,"Ġnutome":5878,"ulId":5879,"Ġgetter":5880,"BuilderImpl":5881,"ArrayPosition":5882,"Ġids":5883,"Ġweek":5884,"ĠentityId":5885,"à¤µ":5886,"erika":5887,"MarkerType":5888,"ĠJoinType":5889,"PrintWriter":5890,"Counter":5891,"two":5892,"StringGenerationContext":5893,"condition":5894,"à¤¤":5895,"Ġunwrap":5896,"Ġjoined":5897,"TagName":5898,"ProcedureCall":5899,"addSnippetImport":5900,"BER":5901,"Os":5902,"getIndex":5903,"Ġ\"{":5904,"adding":5905,"à®¿":5906,"Ġformatter":5907,"atagramSocket":5908,"minuteOfHour":5909,"54":5910,"sorted":5911,"tn":5912,"getH":5913,"Ġ\"\",":5914,"Ġfailed":5915,"addAttribute":5916,"ĠtestProperty":5917,"Ġhel":5918,"ĠTimestamp":5919,"color":5920,"initial":5921,"interop":5922,"ĠTestTools":5923,"discriminator":5924,"NOT":5925,"WrapField":5926,"MaximumValue":5927,"HBM":5928,"WARN":5929,"boot":5930,"len":5931,"getSecond":5932,"ĠtestConstructor":5933,"Archive":5934,"Descriptors":5935,"JdbcValue":5936,"ĠsqlStatementInterceptor":5937,"TemporaryTable":5938,"àº²":5939,"caped":5940,"So":5941,"Wildcard":5942,"Ġamount":5943,"lookup":5944,"ĠtestIs":5945,"ToUse":5946,"ElementBuilder":5947,"à¤¡":5948,"Party":5949,"regis":5950,"Persistence":5951,"generator":5952,"VisibleRange":5953,"Ġdeclared":5954,"Miss":5955,"\"};":5956,"NA":5957,"Vertical":5958,"baz":5959,"ĠToken":5960,"ely":5961,"INTEGER":5962,"EventType":5963,"ĠpropertyHolder":5964,"InsertCount":5965,"gregated":5966,"getNaturalId":5967,"overrid":5968,"Memory":5969,"ULE":5970,"cb":5971,"jpa":5972,"lin":5973,"Ġà¦":5974,"ĠNativeQuery":5975,"ĠImmutable":5976,"Ġtask":5977,"DateFormat":5978,"parameters":5979,"outer":5980,"Ġcompute":5981,"precation":5982,"BOOLEAN":5983,"Port":5984,"synchronized":5985,"Ðĵ":5986,"(\"/":5987,"ibility":5988,"Ġdriver":5989,"Transition":5990,"ĠCfg":5991,"Compare":5992,"legacy":5993,"Controller":5994,"TypeCheckFactory":5995,"HOUR":5996,"XClass":5997,"bound":5998,"ĠFunction":5999,"itSet":6000,"separator":6001,"ridge":6002,"Ġ}\\":6003,"ĠDoe":6004,"Implementation":6005,"áĥĶ":6006,"Ġyogi":6007,"TemporalType":6008,"ĠOther":6009,"RemoteService":6010,"ĠstreamReader":6011,"ĠTreeLogger":6012,"Escape":6013,"Red":6014,"ĠLock":6015,"ĠStudent":6016,"esNot":6017,"ential":6018,"Ġcap":6019,"Existing":6020,"Ġdest":6021,"ArrayBuffer":6022,"IdentifierMapping":6023,"subquery":6024,"getEntityBinding":6025,"NORMAL":6026,"Normal":6027,"Opt":6028,"Supports":6029,"bu":6030,"ling":6031,"sources":6032,"ableResults":6033,"avor":6034,"Resize":6035,"Ġprocedure":6036,"DEX":6037,"ĠmappingDocument":6038,"Jar":6039,"schedule":6040,"Ġcurrency":6041,"newArrayList":6042,"ĠMulti":6043,"ĠunableTo":6044,"ĠRPC":6045,"ĠsourceInfo":6046,"seconds":6047,"ootstrapContext":6048,"Europe":6049,"Derived":6050,"iy":6051,"();\");":6052,"istan":6053,"Connect":6054,"Overlay":6055,"Ġthing":6056,"inder":6057,"ĠpropertyData":6058,"à¦¯":6059,"words":6060,"InternalName":6061,"Activity":6062,"Declaring":6063,"Negated":6064,"à«į":6065,"ĠSqlAstNode":6066,"Middle":6067,"Save":6068,"Sample":6069,"rBytes":6070,"uction":6071,"}\",":6072,"ĠPartial":6073,"Ģà¸":6074,"increment":6075,"Ġcfg":6076,"Overflow":6077,"endInstant":6078,"TableExpression":6079,"Defaults":6080,"ATTR":6081,"ĠmapKey":6082,"ĠComposite":6083,"Hints":6084,"ollback":6085,"à¹Ģà¸":6086,"DebugId":6087,"ĠHandlerRegistration":6088,"HR":6089,"TT":6090,"gavin":6091,"sample":6092,"Ġsuffix":6093,"iling":6094,"Exceptions":6095,"Ġdistinct":6096,"ElementType":6097,"à¤ª":6098,"Disabled":6099,"Components":6100,"Spaces":6101,"ĠJdbcMapping":6102,"Detach":6103,"Succe":6104,"Capacity":6105,"manager":6106,"ĠerasFull":6107,"ListJoinColumnBidirectionalRefEdEntity":6108,"Med":6109,"Void":6110,"lap":6111,"zip":6112,"ĠnewValue":6113,"Ġplace":6114,"ĠgetType":6115,"ĠgetSession":6116,"OrNull":6117,"ĠPo":6118,"AccessException":6119,"MetadataSources":6120,"TRUE":6121,"CV":6122,"Core":6123,"PM":6124,"Pane":6125,"mutation":6126,"intern":6127,"EntityMappingType":6128,"aved":6129,"Ġproject":6130,"à¤¬":6131,"ĠDateTimeFormatterBuilder":6132,"Serialized":6133,"heritance":6134,"LevelCache":6135,"America":6136,"CREATE":6137,"FROM":6138,"JDBC":6139,"Round":6140,"TW":6141,"Typ":6142,"hicle":6143,"limit":6144,"Ã«":6145,"Ùĩ":6146,"Ġ]":6147,"ĠÎ":6148,"onChanged":6149,"getYear":6150,"Ġscroll":6151,"Rec":6152,"Ġecho":6153,"izable":6154,"ĠfromClause":6155,"Ġselected":6156,"ĠvisitChildren":6157,"ROP":6158,"URCE":6159,"versionException":6160,"Ġjson":6161,"SOURCE":6162,"ĠSequence":6163,"ĠmodelPart":6164,"BrowserEvent":6165,"country":6166,"ke":6167,"Ã®":6168,");\");":6169,"edNode":6170,"Ġintf":6171,"DateTimeFormatter":6172,"ĠLO":6173,"Deleted":6174,"à§ĩ":6175,"áĭ«":6176,"statistics":6177,"ParseTreeVisitor":6178,"optimize":6179,"Typing":6180,"MX":6181,"ĠEnter":6182,"getReferences":6183,"ury":6184,"eded":6185,"ĠtestAdd":6186,"Ġinto":6187,"ĠDB":6188,"Ġmethods":6189,"ĠLists":6190,"Ġmapped":6191,"à°¿":6192,"Ġoptimize":6193,"Alignment":6194,"Else":6195,"VARCHAR":6196,"bined":6197,"Nanos":6198,"42":6199,"JParameter":6200,"tab":6201,"tot":6202,"ĠVisit":6203,"alt":6204,"Ġsplit":6205,"MappingModel":6206,"UND":6207,"Negative":6208,"ĠAccount":6209,"Nature":6210,"Saint":6211,"isher":6212,"Remo":6213,"addToCopy":6214,"Ġsetter":6215,"Section":6216,"clone":6217,"General":6218,"ART":6219,"SelectionQuery":6220,"ĠjdbcEnvironment":6221,"COL":6222,"}.</":6223,"SerializationStreamReader":6224,"ĠexitRule":6225,"ĠenterRule":6226,"greSQL":6227,"ilities":6228,"Trigger":6229,"exp":6230,"ĠtableExpression":6231,"à½¼":6232,"DomainModel":6233,"Detail":6234,"BinaryOperator":6235,")'":6236,"Available":6237,"GB":6238,"ai":6239,"ites":6240,"Ġfull":6241,"Ġ}\");":6242,"Ġdepend":6243,"Ġchronology":6244,"áĢ¬":6245,"ÑĢÐ¸":6246,"UTO":6247,"nodeBuilder":6248,"Symbols":6249,"ĠConversionException":6250,"ĠCacheMode":6251,"CallableStatement":6252,"ures":6253,"edBean":6254,"unknown":6255,"EntityKey":6256,"Problem":6257,"QueryParameter":6258,"Unary":6259,"ĠBase":6260,"account":6261,"Ġ35":6262,"ĠsqlTypeCode":6263,"ĠelementType":6264,"hasSize":6265,"Ġstatus":6266,"Forms":6267,"orderBy":6268,"ĠsetParameterList":6269,"uffle":6270,"HashCode":6271,"JP":6272,"ĠTableReference":6273,"istance":6274,"proxy":6275,"TransactionCompletion":6276,"ĠiField":6277,"ĠMutation":6278,"ĠTEST":6279,"JsArray":6280,"Ġmeta":6281,"Ġrange":6282,"ceptable":6283,"FetchParent":6284,"Specific":6285,"created":6286,"ConstraintViolation":6287,"firstName":6288,"EXP":6289,"StylesBuilder":6290,"Ġdeclaring":6291,"ArithmeticException":6292,"ĠDEFAULT":6293,"Atomic":6294,"totype":6295,"ien":6296,"ĠArgHandler":6297,"getRe":6298,"unused":6299,"Ġind":6300,"ALSE":6301,"Ġimplements":6302,"doubleValue":6303,"ateral":6304,"áº¹":6305,"IllegalStateException":6306,"Sur":6307,"XStream":6308,"jo":6309,"getSource":6310,"Ġsupport":6311,"ules":6312,"Fired":6313,"ĠEntityMappingType":6314,"ĠjdbcTypeRegistry":6315,"NoSuch":6316,"ExecutionContext":6317,"ÙĪÙĨ":6318,"JtaPlatform":6319,"MutabilityPlan":6320,"Registered":6321,"DK":6322,"Http":6323,"iable":6324,"normal":6325,"vas":6326,"Ð¢":6327,"ĠEn":6328,"oof":6329,"Ġoption":6330,"parsed":6331,"DataAccess":6332,"ĠDatabase":6333,"PersistenceUnit":6334,"Assumption":6335,"ANA":6336,"LogMessage":6337,"Templates":6338,"NamedNativeQuery":6339,"PESSIMISTIC":6340,"ChangeHandler":6341,"ĠAnnotated":6342,"Enhanced":6343,"ReadablePartial":6344,"getChildCount":6345,"ViewerResponse":6346,"GenericType":6347,"MALE":6348,"settings":6349,"Ġescape":6350,"getFromClause":6351,"icro":6352,"primary":6353,"Trim":6354,"Sets":6355,"NonEntity":6356,"json":6357,"getRole":6358,"Ġwhile":6359,"LONG":6360,"ĠMarkerType":6361,"ĠmanyToOne":6362,"ĠDomainResult":6363,"ND":6364,"XT":6365,"ixed":6366,"Ġinverse":6367,"ĠinferredData":6368,"Animation":6369,"createMockJavaResource":6370,"Alternate":6371,"persistence":6372,"ClauseContext":6373,"ĠLe":6374,"Ġbeen":6375,"Patterns":6376,"DoubleBits":6377,"chrono":6378,"ĠÐĲ":6379,"ĠEnumSet":6380,"Ġcls":6381,"ifference":6382,"Ġsignature":6383,"ways":6384,"getData":6385,"(\"[":6386,"setB":6387,"Thing":6388,"Ġoff":6389,"à¥ģ":6390,"â´°âµı":6391,"ĠMyEntity":6392,"ĠAsyncCallback":6393,"wordsSql":6394,"gment":6395,"ward":6396,"isValid":6397,"Ġnested":6398,"Receiver":6399,"Track":6400,"ĠgetTest":6401,"ĠSingle":6402,"pliterator":6403,"ĠreturnType":6404,"à¸²":6405,"compareDoubleBits":6406,"à·Ĵ":6407,"ĠnumberOf":6408,"OFFSET":6409,"Ð¸ÑĺÐ°":6410,"AE":6411,"Horizontal":6412,"die":6413,"Ïģ":6414,"Ġput":6415,"getStatus":6416,"Ġflags":6417,"addItem":6418,"CollectionPersister":6419,"keywordsSql":6420,"IndexOf":6421,"TEXT":6422,"RequestBuilder":6423,"Units":6424,"LOW":6425,"Application":6426,"SION":6427,"~~~~":6428,"stitution":6429,"áĥĶáĥ":6430,"intf":6431,"Ġdid":6432,"atcher":6433,"à¤Ĥ":6434,"OffsetDateTime":6435,"getNext":6436,"Ġ123":6437,"PREFIX":6438,"SECONDS":6439,"Observer":6440,"Ġliked":6441,"BLOCK":6442,"Layer":6443,"Ste":6444,"right":6445,"publ":6446,"Ġco":6447,"Parsing":6448,"Ġexp":6449,"ssible":6450,"show":6451,"getCustom":6452,"ĠFr":6453,"finition":6454,"Loadable":6455,"Leap":6456,"ĠconnectionProvider":6457,"boxed":6458,"SortSpecification":6459,"artifacts":6460,"ZERO":6461,"VM":6462,"pInfo":6463,"ĠStrTestEntity":6464,"ada":6465,"sets":6466,"ĠSoftware":6467,"entityDescriptor":6468,"Org":6469,"Ġcollect":6470,"ByteBuffer":6471,"ConnectionAccess":6472,"minus":6473,"compareFloat":6474,"TIMESTAMP":6475,"FIE":6476,"ĠSelection":6477,"HqlString":6478,"ĠerasShort":6479,"placer":6480,"17":6481,"Bl":6482,"cascade":6483,"Ùģ":6484,"Ġ\")":6485,"ily":6486,"IdClass":6487,"Ġrelation":6488,"IdentifierGenerator":6489,"Checks":6490,"ĠThing":6491,"jsinterop":6492,"ConstraintValidator":6493,"ĠannotationList":6494,"Ã¡n":6495,"ĠconfigurationValues":6496,"plementalInfo":6497,"FIELD":6498,"\"<":6499,"456":6500,"CUR":6501,"HIST":6502,"TZ":6503,"range":6504,"}\");":6505,"ÑĮ":6506,"Ø´":6507,"abilities":6508,"ifec":6509,"Protected":6510,"ĠtestQuery":6511,"Ġidx":6512,"ĠHas":6513,"ROW":6514,"hours":6515,"ĠTargetType":6516,"compareFloatBits":6517,"ifecycle":6518,"33":6519,"CF":6520,"Caching":6521,"Hierarchy":6522,"SL":6523,"lambda":6524,"ĠNotFoundException":6525,"ĠtestEntity":6526,"struct":6527,"urrence":6528,"Iterable":6529,"Ġassociated":6530,"Expecting":6531,"uxili":6532,"foreignKey":6533,"Main":6534,"OD":6535,"fect":6536,"rary":6537,"sl":6538,"getTest":6539,"getFieldType":6540,"arison":6541,"ulian":6542,"assertNumberOf":6543,"Manies":6544,"ĠentityClass":6545,"exists":6546,"Ġ'.":6547,"selectable":6548,"previous":6549,"RevisionType":6550,"tid":6551,"xx":6552,"getMinutes":6553,"idx":6554,"Ġcpe":6555,"Ġtra":6556,"PropertyData":6557,"fromInt":6558,"EnumType":6559,"ĠDateTimeConstants":6560,"ContractVariation":6561,"à®ķ":6562,"Ġ91":6563,"determine":6564,"Distinct":6565,"PG":6566,"ns":6567,"isReadOnly":6568,"tracker":6569,"getEntityManagerFactory":6570,"getReturnType":6571,"Ġcountry":6572,"ValueConverter":6573,"Ġparsed":6574,"Ġlookup":6575,"Ġcolor":6576,"Pool":6577,"ĠGwt":6578,"columns":6579,"DOWN":6580,"ĠINFO":6581,"ðĲĳĮ":6582,"Restrictions":6583,"Ġclose":6584,"ĠalternativeContact":6585,"AP":6586,"GI":6587,"IBU":6588,"gen":6589,"implicit":6590,"Ġrecord":6591,"equalsIgnoreCase":6592,"orders":6593,"Associated":6594,"âµľ":6595,"ĠXStream":6596,"phan":6597,"XMLElement":6598,"anchen":6599,"iselect":6600,"openSession":6601,"Ġregistration":6602,"00000002":6603,"getMetadataCollector":6604,"ĠprimaryKey":6605,"31":6606,"CY":6607,"mult":6608,"ĠConnection":6609,"Ġtab":6610,"Rev":6611,"Project":6612,"AttributeConverter":6613,"ĠEntityManager":6614,"à½¢":6615,"Ġ[\\":6616,"Decor":6617,"GET":6618,"ickName":6619,"modifiable":6620,"uxiliary":6621,"Gender":6622,"rong":6623,"Ã£":6624,"getParameters":6625,"ured":6626,"iven":6627,"neg":6628,"INDEX":6629,"ERENCE":6630,"typeConfiguration":6631,"Ġ>>":6632,"Closure":6633,"DatabaseObject":6634,"Ġspecified":6635,"EnhancementMetadata":6636,"ĠSAXException":6637,"TRACE":6638,"Ġorigin":6639,"Weight":6640,"AUTO":6641,"CG":6642,"Ġcv":6643,"assertCan":6644,"estart":6645,"selected":6646,"Ġexpr":6647,"TableWith":6648,"PropertyNames":6649,"Allow":6650,"IntTestEntity":6651,"getSchema":6652,"Ġ50":6653,"Assertion":6654,"interface":6655,"Ð°Ð´":6656,"ACTION":6657,"DDHIST":6658,"Handlers":6659,"ymorphic":6660,"GN":6661,"full":6662,"getSqm":6663,"OfBasics":6664,"newline":6665,"Ġ26":6666,"RowProcessingState":6667,"ĠparseFrom":6668,"Insertable":6669,"HqlParserVisitor":6670,"MAP":6671,"NOW":6672,"getKeys":6673,"ĠHqlParserVisitor":6674,"Ġoverrides":6675,"evict":6676,"Ġneeds":6677,"lessSession":6678,"AZ":6679,"BB":6680,"Like":6681,"Site":6682,"au":6683,"bb":6684,"junit":6685,"Ġpe":6686,"issing":6687,"getFunctionRegistry":6688,"ampl":6689,"Ġmock":6690,"ĠgetColumn":6691,"ird":6692,"Ġdec":6693,"ĠFORMAT":6694,"ĠforEach":6695,"Append":6696,"â´·":6697,"contact":6698,"ĠoldValue":6699,"ĠNativeSQLStatement":6700,"ĠtreatTarget":6701,"à»Ģ":6702,"×ķ×":6703,"InterruptedException":6704,"ium":6705,"attributes":6706,"changed":6707,"eline":6708,"Overridden":6709,"ĠtestWith":6710,"ĠsetAria":6711,"Animal":6712,"Ġproblem":6713,"parseFrom":6714,"RuleContext":6715,"Ð°Ð¼":6716,"versioned":6717,"\"})":6718,"Mark":6719,"ĠPrint":6720,"Attached":6721,"(\"}\\":6722,"cludes":6723,"ATTRIBU":6724,"Failed":6725,"VG":6726,"aos":6727,"catalog":6728,"ous":6729,"Ġui":6730,"Ġvya":6731,"Recursive":6732,"ForName":6733,"JdbcMapping":6734,"Insn":6735,"ĠNon":6736,"ampms":6737,"à¬¿":6738,"CTOR":6739,"secondOfMinute":6740,"ĠColumnReference":6741,"Updated":6742,"ĠschemaName":6743,"tracef":6744,"Incremental":6745,"embeddable":6746,"36":6747,"756":6748,"FOR":6749,"MD":6750,"Pack":6751,"auto":6752,"anim":6753,"ĠgetAria":6754,"ĠsetValue":6755,"FieldSerializer":6756,"Ġtracker":6757,"OrUpdate":6758,"gee":6759,"AsString":6760,"Fetchable":6761,"SEPAR":6762,"ĠcolumnType":6763,"Eras":6764,"Executed":6765,"Ð¾Ð»":6766,"ĠOptim":6767,"PrefixSet":6768,"\"}\",":6769,"Scrollbar":6770,"ĠsequenceName":6771,"PutCount":6772,"DROP":6773,"RTL":6774,"block":6775,"Ġentities":6776,"getBean":6777,"getLoaded":6778,"Incorrect":6779,"ĠgetCollection":6780,"Ġos":6781,"INE":6782,"Ġclasses":6783,"1020":6784,"Enumer":6785,"BufferException":6786,"à·ı":6787,"ĠQueryImplementor":6788,"ĠfileName":6789,"reference":6790,"REFERENCE":6791,"Effect":6792,"LT":6793,"MBean":6794,"MONTH":6795,"iwa":6796,"ÙĤ":6797,"ĠManaged":6798,"ania":6799,"Ġ\"%":6800,"Ġneg":6801,"dec":6802,"OfEra":6803,"AtRevision":6804,"ParserRuleContext":6805,"Checked":6806,"à¬¾":6807,"('.":6808,"ĠremoveAria":6809,"InvalidProtocol":6810,"áĥĺáĥ":6811,"MissCount":6812,"InvalidProtocolBufferException":6813,"ZA":6814,"ĠCharSequence":6815,"getEm":6816,"peat":6817,"Ġsynchronized":6818,"abs":6819,"oop":6820,"concat":6821,"Uninitialized":6822,"Ġprops":6823,"using":6824,"à½º":6825,"ĠDateTimeUtils":6826,"à²¿":6827,"ĠInputStream":6828,"replaceMe":6829,"ĠdpOrig":6830,"ĠPersistence":6831,"ĠJpaExpression":6832,"emptyList":6833,"assertCanAdd":6834,"à»Ģàº":6835,"><":6836,"Car":6837,"JReferenceType":6838,"button":6839,"ful":6840,"hi":6841,"ool":6842,"ÖĢ":6843,"traction":6844,"ĠgetJavaType":6845,"Depth":6846,"provider":6847,"persistent":6848,"ĠGraph":6849,"eignCustomer":6850,"SortedSet":6851,"getSimpleName":6852,"compatibleRemoteService":6853,"esticCustomer":6854,"ometh":6855,"SEPARATOR":6856,"compatibleRemoteServiceException":6857,"AI":6858,"GF":6859,"åħ":6860,"Ġampms":6861,"strategy":6862,"Ġchannel":6863,"ĠFilter":6864,"ANGE":6865,"ĠonFailure":6866,"loaded":6867,"generated":6868,"DevModeResponse":6869,"OrÃŃlÉĽ":6870,"OrÃŃláº¹":6871,"(%":6872,"Age":6873,"Global":6874,"UTE":6875,"ehicle":6876,"assign":6877,"Real":6878,"Ġee":6879,"ĠtestTo":6880,"needs":6881,"PropertyValue":6882,"<?>,":6883,"TreeItem":6884,"minutes":6885,"ĠsqmPath":6886,"ĠDateMidnight":6887,"Ġerrors":6888,"IGN":6889,"Thrown":6890,"UpperCase":6891,"omething":6892,"TC":6893,"ÐŁ":6894,"etab":6895,"ond":6896,"ĠMonth":6897,"lah":6898,"AbstractMethod":6899,"popup":6900,"ĠMockJavaResource":6901,"ReadableInstant":6902,"mediate":6903,"Ġfailure":6904,"SearchedExpression":6905,"'\",":6906,"95":6907,"AvailableSettings":6908,"CM":6909,"Dto":6910,"Sink":6911,"Ð¹":6912,"ĠGroup":6913,"(\".":6914,"Trusted":6915,"Another":6916,"toIdentifier":6917,"ĠentityBinding":6918,"temp":6919,"à¤Ĺ":6920,"DescriptorBuilder":6921,"SourceWriter":6922,"ĠIs":6923,"ĠstrFactory":6924,"fromXML":6925,"Ġfetched":6926,"TRAN":6927,"AutoBean":6928,"ETCH":6929,"LinkedHashMap":6930,"ĠembeddableMappingType":6931,"POSI":6932,"ĠHierarchicalStreamReader":6933,"Gr":6934,"PX":6935,"RU":6936,"Uuid":6937,"_;":6938,"rs":6939,"sf":6940,"ĠOracle":6941,"ĠAttributeMapping":6942,"idi":6943,"abe":6944,"setWidget":6945,"serializable":6946,"ĠiChronology":6947,"Price":6948,"listeners":6949,"à¦ķ":6950,"ĠSqmPath":6951,"Shared":6952,"ĠRange":6953,"JavaResourceBase":6954,"OfWeekyear":6955,"Ġqualified":6956,"Succeeds":6957,"CZ":6958,"Treated":6959,"VC":6960,"ww":6961,"Ġused":6962,"isStatic":6963,"Ġsingle":6964,"ĠgetElement":6965,"addPermission":6966,"ĠCurrency":6967,"INFO":6968,"ONLY":6969,"Ġ'@":6970,"Ġanother":6971,"SimplePath":6972,"Operations":6973,"Builders":6974,"ÑģÑĤÑĢ":6975,"EM":6976,"ZONE":6977,"document":6978,"go":6979,"ÙĲ":6980,"deprecation":6981,"Report":6982,"ayload":6983,"Ġthen":6984,"Ġexpect":6985,"herman":6986,"à¦¾\");":6987,"à½¦":6988,"ENABLE":6989,"avigableRole":6990,"ĠrootEntity":6991,"Mutating":6992,"ĠMonitor":6993,"BF":6994,"Dst":6995,"FALSE":6996,"GU":6997,"jaxb":6998,"ĠProperties":6999,"Ġ{-":7000,"ano":7001,"Ġcleanup":7002,"Ġextra":7003,"createMutationQuery":7004,"MethodName":7005,"ĠresultType":7006,"Common":7007,"Ġstreet":7008,"Ġouter":7009,"ĠReceiver":7010,"Ġmodified":7011,"ĠBindableType":7012,"BS":7013,"FORMAT":7014,"KN":7015,"author":7016,"addChild":7017,"Ġ24":7018,"Ġemf":7019,"Ġalready":7020,"formed":7021,"RowData":7022,"(((":7023,"áĢĶ":7024,"AliasBase":7025,"Spoof":7026,"interpret":7027,"â´±":7028,"ĠCompany":7029,"ABASE":7030,"NORE":7031,"MappedBy":7032,"Ġresolver":7033,"Ġ1972":7034,"clusive":7035,"ATTRIBUTE":7036,"Spoofing":7037,"37":7038,"Coded":7039,"Flags":7040,"Nor":7041,"Pic":7042,"RR":7043,"Rollback":7044,"Word":7045,"audit":7046,"cn":7047,"ĠTo":7048,"Ġrows":7049,"Ġpresenter":7050,"unch":7051,"Ġmessages":7052,"QueryGroup":7053,"riend":7054,"ĠBe":7055,"Emetab":7056,"ĠDAY":7057,"ĠcollectionDescriptor":7058,"UNK":7059,"ĠSqlSelection":7060,"Ġtemp":7061,"AXB":7062,"Specifications":7063,"etworkInterface":7064,"86":7065,"CR":7066,"UA":7067,"ĠState":7068,"ĠStatement":7069,"ĠEditor":7070,"ĠManyToOne":7071,"etSocketAddress":7072,"ammal":7073,"urk":7074,"setParent":7075,"ĠgetKey":7076,"Ġdom":7077,"ToAdd":7078,"Ġrestriction":7079,"TransactionCoordinator":7080,"off":7081,"mous":7082,"EmbId":7083,"ĠentityManagerFactory":7084,"ORT":7085,"ĠVector":7086,"THOD":7087,"ULTI":7088,"Tokenizer":7089,"WriteExpression":7090,"placed":7091,"assertNotSame":7092,"ĠOtherEntity":7093,"/>\\":7094,"Br":7095,"Cause":7096,"Gre":7097,"Synthetic":7098,"ĠStruct":7099,"ĠYearMonthDay":7100,"rel":7101,"Removed":7102,"ĠhashMap":7103,"ĠBU":7104,"à¦°":7105,"Ġfire":7106,"Ð½Ð°":7107,"Plus":7108,"à´¿":7109,"phones":7110,"Ġexpressions":7111,"Matching":7112,"à¶º":7113,"canner":7114,"getFirstChild":7115,",'":7116,"BD":7117,"Cent":7118,"Used":7119,"bld":7120,"ymous":7121,"Ġ$":7122,"Ġtry":7123,"ĠLoad":7124,"Ġuri":7125,"isOpen":7126,"getDisplay":7127,"amily":7128,"Ġmouse":7129,"ĠinputStream":7130,"ĠJPrimitiveType":7131,"Ġloader":7132,"NullPrecedence":7133,"checkCollection":7134,"Ġfixed":7135,"áĢ¸":7136,"TableGroupJoins":7137,"Execute":7138,"getJdbcCoordinator":7139,"Defined":7140,"CastException":7141,"Structure":7142,"ĠlazyInitializer":7143,"ĠLinkedHashMap":7144,"ndi":7145,"DATA":7146,"Encoding":7147,"ĠLONG":7148,"setCurrentMillisFixed":7149,"GT":7150,"ground":7151,"ĠStatus":7152,"Ġskip":7153,"setCopy":7154,"ĠSocket":7155,"TransactionUtil":7156,"ResultType":7157,"Fraction":7158,"àª¨":7159,"ĠmappingMetamodel":7160,"ĠPersistentCollection":7161,"Ġembedded":7162,"12345":7163,"maining":7164,"abeled":7165,"94":7166,"MulId":7167,"TML":7168,"Ġel":7169,"edTr":7170,"rev":7171,"ĠJPA":7172,"enclo":7173,"ĠXpp":7174,"writeObject":7175,"utover":7176,"BuildingOptions":7177,"Ġtemporal":7178,"Ð²Ð°":7179,"cheduled":7180,"Country":7181,"ĠImplicit":7182,"inGroup":7183,"getBasic":7184,"apsed":7185,"Ġfallback":7186,"ĠCte":7187,"ĠHTML":7188,"AttributeNode":7189,"ĠpersistenceUnit":7190,"018":7191,"MonthOfYear":7192,"Processing":7193,"ffff":7194,"getSqlAst":7195,"Commands":7196,"Missing":7197,"integer":7198,"KR":7199,"SPA":7200,"ua":7201,"getThe":7202,"ading":7203,"ĠgetIdentifier":7204,"IdData":7205,"Ġstack":7206,"ĠIllegal":7207,"Ġruntime":7208,"ĠGregorian":7209,"functionRegistry":7210,"QUER":7211,"ĠselectableMapping":7212,"ĠregionName":7213,"ĠcreateNativeSQLStatement":7214,"getAbsolutePath":7215,"Gen":7216,"IQ":7217,"Known":7218,"Synchronization":7219,"cached":7220,"sd":7221,"ĠId":7222,"alert":7223,"Ġsherman":7224,"assertInsertCount":7225,"umptions":7226,"ĠCar":7227,"à´ķ":7228,"lastName":7229,"AppUsage":7230,"traverse":7231,"modell":7232,"040":7233,"ArtifactSet":7234,"Ġreplacement":7235,"UnsupportedAppUsage":7236,"BINARY":7237,"anchenmodell":7238,"Occ":7239,"Ã¶":7240,"ÉĻ":7241,"Ġag":7242,"getColumns":7243,"oracle":7244,"amer":7245,"Ġ\"\");":7246,"irror":7247,"INTER":7248,"ĠBitSet":7249,"ĠTuple":7250,"ALL":7251,"getCreationContext":7252,"DayOfMonth":7253,"IDs":7254,"buggy":7255,"à¶±":7256,"Positive":7257,"modified":7258,"GQ":7259,"Job":7260,"LB":7261,"PAT":7262,"ople":7263,"Ö·":7264,"Ġapp":7265,"getX":7266,"roid":7267,"imator":7268,"Ġmembers":7269,"addWrapField":7270,"Ġinternal":7271,"Ġident":7272,"Ġwrapper":7273,"Ġhuman":7274,"\")));":7275,"edicates":7276,"Show":7277,"à°°":7278,"Ġdeserialize":7279,"FILE":7280,"Ġannotations":7281,"millisOfSecond":7282,"WebServer":7283,"!\");":7284,"KAR":7285,"SU":7286,"kt":7287,"isLoggable":7288,"icChronology":7289,"urchase":7290,"tributor":7291,"tempt":7292,"ĠcolumnNames":7293,"ĠNavigablePath":7294,"Addresses":7295,"subclass":7296,"ðĳĦļ":7297,"BaseType":7298,"ĠmetadataSources":7299,"SafeStyles":7300,"ĠInput":7301,"Detached":7302,"ĠTypeConfiguration":7303,"Bidi":7304,"Ġmanager":7305,"1970":7306,"AAEntity":7307,"Artifacts":7308,"Digit":7309,"876":7310,"EC":7311,"MY":7312,"SB":7313,"ZZ":7314,"Å¾":7315,"Õ¸":7316,"getB":7317,"getTimeZone":7318,"StrIntTestEntity":7319,"ĠgetState":7320,"andi":7321,"Transport":7322,"Ġremoved":7323,"ĠHel":7324,"ĠMin":7325,"ĠAm":7326,"<?>[]":7327,"encode":7328,"ugh":7329,"Resolutions":7330,"ToOneAttributeMapping":7331,"theTimestamp":7332,"Prefixes":7333,"Ġminute":7334,"TypedQuery":7335,"Ġ2005":7336,"ĠCOUNT":7337,"BJECT":7338,"35":7339,"City":7340,"KP":7341,"PN":7342,"SG":7343,"WF":7344,"host":7345,"oper":7346,"vendor":7347,"ids":7348,"req":7349,"Ġcascade":7350,"Ġtenant":7351,"EntityId":7352,"Segment":7353,"Ġcondition":7354,"Ġconsume":7355,"CollectionType":7356,"ĠAf":7357,"LECTION":7358,"ConfigurationProperty":7359,"Ġserver":7360,"ĠtimeZone":7361,"Numeric":7362,"Ġsetting":7363,"ĠBUDDHIST":7364,"QUERY":7365,"Diff":7366,"KH":7367,"Scop":7368,"TJ":7369,"ĠModelPart":7370,"getArg":7371,"putAll":7372,"ĠtestHistory":7373,"emp":7374,"Ġexport":7375,"Ġexists":7376,"ArgumentCount":7377,"à¦¼":7378,"Ġimport":7379,"AttributeMappings":7380,"Ġjso":7381,"Ġ`%":7382,"RequiresDialectFeature":7383,"multiselect":7384,"KARTA":7385,"EA":7386,"KM":7387,"Lite":7388,"Lambda":7389,"NL":7390,"NZ":7391,"Terminal":7392,"vanced":7393,"thread":7394,"à¤ľ":7395,"eep":7396,"SessionFactoryBuilder":7397,"JdbcParameter":7398,"METHOD":7399,"Enums":7400,"2007":7401,"DecimalFormat":7402,"áĪµ":7403,"ĠBasicEntity":7404,"CHEMA":7405,"Absent":7406,"ListJoinColumnBidirectionalRefIngEntity":7407,"declaring":7408,"Estimator":7409,"Ġindic":7410,"BL":7411,"Find":7412,"KG":7413,"MH":7414,"libcore":7415,"oar":7416,"getIn":7417,"anc":7418,"(\"\");":7419,"ĠbScale":7420,"emo":7421,"ĠJDBC":7422,"RegistryLite":7423,"StandardServiceRegistry":7424,"Widgets":7425,"Resolved":7426,"parseInt":7427,"lastIndexOf":7428,"ExtensionRegistryLite":7429,"Ġassignment":7430,"UBLE":7431,"Indicators":7432,"DM":7433,"DZ":7434,"LV":7435,"PF":7436,"Ã¼":7437,"ins":7438,"Ġtotal":7439,"ĠnewValues":7440,"setSelected":7441,"ĠentityType":7442,"ĠCategory":7443,"ĠBY":7444,"ĠThread":7445,"ĠreadOnly":7446,"ApiClass":7447,"Ġrequested":7448,"âĢĻ":7449,"WhereClause":7450,"ĠPluralForm":7451,"NumberFormatException":7452,"Ġintegration":7453,"TRANS":7454,"MAN":7455,"WEEK":7456,"Ġround":7457,"Ġsources":7458,"(\"{":7459,"ExceptionHelper":7460,"ĠgetForUpdate":7461,"Ġhibernate":7462,"ENGL":7463,"NOWN":7464,"à§°":7465,"OptimisticLock":7466,"getDefaultInstance":7467,"IGNORE":7468,"Ġ1900":7469,"PlatformApi":7470,"à«ĩ":7471,"CorePlatformApi":7472,"ENGLISH":7473,"GS":7474,"HU":7475,"MK":7476,"NF":7477,"sc":7478,"ÐĽ":7479,"isArray":7480,"adio":7481,"search":7482,"Ġpass":7483,"ives":7484,"ĠSTR":7485,"DataSource":7486,"ĠAl":7487,"Interop":7488,"JsMethod":7489,"longValue":7490,"RowNumber":7491,"ĠjdbcServices":7492,"getClassName":7493,"IfAbsent":7494,"mergeFrom":7495,"layer":7496,"UNKNOWN":7497,"Il":7498,"mode":7499,"naturalId":7500,"ĠUTC":7501,"sect":7502,"namespace":7503,"Tests":7504,"QueryImplementor":7505,"Ġstandard":7506,"Ġtrusted":7507,"Ġ366":7508,"DayOfWeek":7509,"udio":7510,"Ġ59":7511,"à¬°":7512,"àª¿":7513,"â´½":7514,"('\\":7515,"Ð°Ð¹":7516,"marization":7517,"CustomSql":7518,"Ġabs":7519,"ĠINTEGER":7520,"Ġcontact":7521,"Ġoperation":7522,"ajorVersion":7523,"Bottom":7524,"GHT":7525,"TM":7526,"Wall":7527,"cleanup":7528,"hash":7529,"skip":7530,"Îº":7531,"Ġap":7532,"entr":7533,"Ġ\"(":7534,"recover":7535,"very":7536,"Ġstore":7537,"Deque":7538,"ForType":7539,"ower":7540,"ĠfromString":7541,"âµ¢":7542,"àºĻ":7543,"ĠOptional":7544,"Ġpersons":7545,"ĠsqmJoin":7546,"refresh":7547,"TERAL":7548,"Ġversions":7549,"ĠByteBuffer":7550,"reportError":7551,"MinimumValue":7552,"andidate":7553,"thenReturn":7554,"uxiliaryDatabaseObject":7555,"*-":7556,"getT":7557,"association":7558,"Ġeffective":7559,"Ġ18":7560,"TestClass":7561,"TimeOfDay":7562,"ĠJExpression":7563,"Ġrelease":7564,"ĠaaEntity":7565,"Anchor":7566,"ĠDirection":7567,"ddl":7568,"Accessible":7569,"getCte":7570,"IsWidget":7571,"SqlAstTranslator":7572,"à©Ģ":7573,"rieved":7574,"Suggestion":7575,"getSuperclass":7576,"estartWebServer":7577,"ĠtestHistoryOf":7578,">,":7579,"MULTI":7580,"QA":7581,"died":7582,"ha":7583,"ama":7584,"Ġ\";":7585,"ĠgetField":7586,"aving":7587,"toXML":7588,"Interceptable":7589,"\\\":":7590,"ĠLibcore":7591,"ĠcompilerContext":7592,"ĠsqlAppender":7593,"987":7594,"ĠannotatedClass":7595,"ensitive":7596,"shallingContext":7597,"ORDER":7598,"Connected":7599,"CC":7600,"MG":7601,"MV":7602,"UZ":7603,"YY":7604,"echo":7605,"sTo":7606,"áį":7607,"trations":7608,"getPackage":7609,"getSelectClause":7610,"icon":7611,"Ġob":7612,"ParameterTypes":7613,"<?>...":7614,"JsStatement":7615,"ĠtableRecord":7616,"Asia":7617,"âµĶ":7618,"Ġcompilation":7619,"ĠdefaultValue":7620,"LIC":7621,"LIST":7622,"ipped":7623,"CAST":7624,"ĠaccessType":7625,"Varargs":7626,"Ġcalendar":7627,"ĠPostgreSQL":7628,"ĠmutationTarget":7629,"ĠClassLoaderService":7630,"getPersistenceContextInternal":7631,"registry":7632,"oarder":7633,"26":7634,"GP":7635,"KZ":7636,"polator":7637,"ÏĦ":7638,"ĠInterval":7639,"ĠEND":7640,"Props":7641,"ĠgetCurrent":7642,"strFactory":7643,"ĠModule":7644,"itional":7645,"JsProperty":7646,"Ġgavin":7647,"checkResult":7648,"executionContext":7649,"FooRequest":7650,"à¸Ļ":7651,"getClassLoader":7652,"methodName":7653,"à²°":7654,"THER":7655,"ĠAnnotationException":7656,"StackTraceElement":7657,"getNodeType":7658,"Move":7659,"BH":7660,"BT":7661,"Sk":7662,"runtime":7663,"×Ķ":7664,"getPart":7665,"ors":7666,"plete":7667,"Ġconstant":7668,"ĠCell":7669,"Ġlocation":7670,"Ġdelet":7671,"NodeBuilder":7672,"opa":7673,"à¦²":7674,"registerHandler":7675,"àª°":7676,"ĠEX":7677,"IfNotNull":7678,"LITERAL":7679,"DownEvent":7680,"9999":7681,"ĠShort":7682,"ĠISOChronology":7683,"avorite":7684,"DJ":7685,"FE":7686,"Via":7687,"Zip":7688,"br":7689,"fil":7690,"getDiscriminator":7691,"apt":7692,"TypeResolver":7693,"setup":7694,"setMax":7695,"Union":7696,"MethodException":7697,"101":7698,"ĠNaturalId":7699,"methodVisitor":7700,"Ġtranslator":7701,"ĠOpcodes":7702,"à¨°":7703,"à¨¾":7704,"replaceAll":7705,"Ġcharacter":7706,"áŁĴ":7707,"Clinit":7708,"Ġhints":7709,"ĠGeometry":7710,"Ġtraverse":7711,"Ã£o":7712,"Cert":7713,"Ġpck":7714,"Ġfld":7715,"oto":7716,"Keyboard":7717,"ĠCallback":7718,"WithNo":7719,"Ġ?,":7720,"compiler":7721,"resultSet":7722,"à½£":7723,"CharArray":7724,"ðĳĦ¢":7725,"à¸£":7726,"ÐµÐ»":7727,"áŀ¸":7728,"áĪŃ":7729,"ĠlastName":7730,"ĠMutablePeriod":7731,"require":7732,"getBasicTypeRegistry":7733,"Ġpckg":7734,"ging":7735,"socket":7736,"warn":7737,"Å¡":7738,"ĠMapper":7739,"setStr":7740,"otential":7741,"Ġai":7742,"ĠFlushMode":7743,"Refs":7744,"TRY":7745,"Constructors":7746,"RIGHT":7747,"Optimization":7748,"Enhancer":7749,"Owned":7750,"mappingDocument":7751,"ISOChronology":7752,"ĠresultSetMapping":7753,"BI":7754,"Ce":7755,"LU":7756,"just":7757,"ng":7758,"sup":7759,"va":7760,"zoo":7761,"ĠStatic":7762,"Ġlegacy":7763,"getHibernate":7764,"getEnd":7765,"ulas":7766,"Invariant":7767,"ump":7768,"Ġreq":7769,"ERI":7770,"getIdent":7771,"Retrieve":7772,"THES":7773,"ĠOwner":7774,"arraycopy":7775,"Ġlogical":7776,"Caption":7777,"ðĲĳī":7778,"00000004":7779,"Ġinteger":7780,"ĠdbData":7781,"PARENTHES":7782,"DATABASE":7783,"PARENTHESIS":7784,"(*":7785,"50":7786,"BG":7787,"La":7788,"MZ":7789,"Rate":7790,"hrow":7791,"getFull":7792,"(\"%":7793,"ĠcreationProcess":7794,"EntityMapping":7795,"Ġown":7796,"ĠresScale":7797,"acer":7798,"ĠqueryString":7799,"124":7800,"ĠfileContent":7801,"Tracking":7802,")(":7803,"Catch":7804,"FM":7805,"Flow":7806,"GW":7807,"Watcher":7808,"bag":7809,"getDeclaring":7810,"InList":7811,"ĠSelf":7812,"Ġthread":7813,"Off":7814,"toUpperCase":7815,"WithDesc":7816,"ookies":7817,"SimpleValue":7818,"ByteString":7819,"Bytecode":7820,"jdbcMapping":7821,"precision":7822,"Definitions":7823,"ableTypeOracle":7824,"Runner":7825,"Ġusing":7826,"ategoriesWithDesc":7827,"Filters":7828,"ĠPrintWriter":7829,"JM":7830,"eacher":7831,"ness":7832,"si":7833,"ti":7834,"total":7835,"Ã½":7836,"Ġctor":7837,"(){":7838,"StringLiteral":7839,"estination":7840,"setUp":7841,"Ġinclude":7842,"PropertyHolder":7843,"Ġ29":7844,"ignTime":7845,"ĠqueryGroup":7846,"CacheRegion":7847,"ĠsqlString":7848,"Ġserialize":7849,"Ġinitializer":7850,"interval":7851,"ĠCompilation":7852,"creen":7853,"à¼į\");":7854,"ĠUUID":7855,"WorkUnit":7856,"dialectClass":7857,"Analyz":7858,"Monitor":7859,"getLhs":7860,"Picker":7861,"*/":7862,"MR":7863,"Old":7864,"ZW":7865,"ç¾":7866,"isSelected":7867,"orig":7868,"ulator":7869,"TypeReference":7870,"ibling":7871,"Ġinvalid":7872,"anda":7873,"ĠsetData":7874,"FieldAccessor":7875,"createDivElement":7876,"ained":7877,"Ġworld":7878,"Locales":7879,"Referencing":7880,"Shuffle":7881,"LOSE":7882,"imited":7883,"GraphImplementor":7884,"sourceWriter":7885,"elements":7886,"à¶»":7887,"ĠlogicalName":7888,"ĠTreeSet":7889,"VERSION":7890,"ĠZoo":7891,"SideEffect":7892,"UIObject":7893,"ALIZ":7894,"JArrayType":7895,"TF":7896,"VID":7897,"][":7898,"×ł":7899,"ĠInternal":7900,"lev":7901,"getExplicit":7902,"that":7903,"reat":7904,"andom":7905,"TableNames":7906,"ByBasic":7907,"ĠAg":7908,"JavaLang":7909,"Ġ36":7910,"Ð°Ñ":7911,"NativeJsType":7912,"DELE":7913,"ClauseStack":7914,"Utf":7915,"sumed":7916,"registerConverter":7917,"parseDateTime":7918,"jsni":7919,"ĠTypeOracle":7920,"326":7921,"fetchable":7922,"getJavaTypeDescriptor":7923,"status":7924,"Ġframe":7925,"PluralAttributeMapping":7926,"Ġselections":7927,"dlType":7928,"ĠAccessType":7929,"ĠTokenStream":7930,"1000":7931,"High":7932,"Micro":7933,"rhs":7934,"ÐĿ":7935,"isNull":7936,"getNon":7937,"uler":7938,"ĠSingular":7939,"constant":7940,"FieldIn":7941,"à¦¬":7942,"à½ĺ":7943,"ĠClassNotFoundException":7944,"ĠjoinType":7945,"ĠJsName":7946,"ComponentTestEntity":7947,"Warning":7948,"JpaCompliance":7949,"UNCTION":7950,"addresses":7951,"039":7952,"dlTypeRegistry":7953,"ĠPreparedStatement":7954,"--------":7955,"roller":7956,"Boot":7957,"FETCH":7958,"Gregorian":7959,"MU":7960,"PR":7961,"SV":7962,"SZ":7963,"font":7964,"farm":7965,"ki":7966,"êĸ":7967,"ĠResultSet":7968,"atial":7969,"edit":7970,"assertTyping":7971,"Concrete":7972,"ClassPathEntry":7973,"createNamedQuery":7974,"Destroy":7975,"ĠBootstrap":7976,"ĠTABLE":7977,"Combined":7978,"Ġensure":7979,"hasMore":7980,"statements":7981,"ĠSecond":7982,"InnerText":7983,"MIT":7984,"ferredSqlTypeCode":7985,"Ġqry":7986,"ĠEventSource":7987,"Vars":7988,"weekyear":7989,"ĠclassLoaderService":7990,"Ġmark":7991,"Removal":7992,"49":7993,"Db":7994,"GG":7995,"Ir":7996,"Lit":7997,"Payment":7998,"rist":7999,"ting":8000,"Äģ":8001,"Õ¶":8002,"getMapped":8003,"Rebind":8004,"Ġblock":8005,"ĠJta":8006,"ĠjdbcTypeCode":8007,"MonthDay":8008,"ĠmappedBy":8009,"ĠInvalid":8010,"ĠselectClause":8011,"--;":8012,"Ġrownumber":8013,"matcher":8014,"CascadeOne":8015,"ĠTheEntity":8016,"ExpandedState":8017,"''":8018,"38":8019,"Face":8020,"Ma":8021,"icted":8022,"option":8023,"software":8024,"getInt":8025,"getSelection":8026,"getBootstrap":8027,"assertExecuted":8028,"imiter":8029,"loader":8030,"ĠgetEntity":8031,"DataProvider":8032,"ĠtypeContributions":8033,"comment":8034,"âµĻ":8035,"ĠsqmRoot":8036,"ĠfirstName":8037,"transform":8038,"trah":8039,"Ġssrb":8040,"Replacement":8041,"weeks":8042,"UPDATE":8043,"ĠbasicType":8044,"transactionManager":8045,"Ġrelative":8046,"TestServiceAsync":8047,"Ġupper":8048,"did":8049,"lat":8050,"tmp":8051,"zi":8052,"lication":8053,"section":8054,"ĠtestUpdate":8055,"forFields":8056,"FieldWriter":8057,"toFormatter":8058,"START":8059,"NotSupported":8060,"aker":8061,"ANO":8062,"Ø§ÛĮ":8063,"ĠjoinColumn":8064,"ĠdoIn":8065,"Ġdispatch":8066,"Contributor":8067,"attributeMapping":8068,"wait":8069,"7356":8070,"levant":8071,"*,":8072,"Cross":8073,"TS":8074,"di":8075,"kit":8076,"Ġartifacts":8077,"atient":8078,"ali":8079,"getProxy":8080,"roach":8081,"Ġcre":8082,"ilt":8083,"rethrow":8084,"utability":8085,"009":8086,"Ġlang":8087,"MappingException":8088,"ĠAS":8089,"comm":8090,"FromText":8091,"ĠNO":8092,"Instantiable":8093,"à¥Ĥ":8094,"ðĳĦł":8095,"Delay":8096,"1111":8097,"dayOfWeek":8098,"à·Ģ":8099,"Ġ1234":8100,"ĠuserType":8101,"SqlSelections":8102,"assertAnnotationPresent":8103,"JsNameRef":8104,"ĠParameterMode":8105,"Budd":8106,"steve":8107,"getJpaMetamodel":8108,"Ġperform":8109,"ĠenclosingType":8110,"KW":8111,"MC":8112,"SD":8113,"ustr":8114,"Î¯":8115,"ĠUtil":8116,"Ġapi":8117,"inEntityManager":8118,"isTrue":8119,"(\"#":8120,"Ġcycle":8121,"Ġport":8122,"Prototype":8123,"Ġtester":8124,"struction":8125,"Ġlower":8126,"ResultBuilder":8127,"ĠBi":8128,"Ġgen":8129,"Refresh":8130,"SubPart":8131,"ClauseExpression":8132,"uda":8133,"áĢ®":8134,"ĠRULE":8135,"ĠidentifierMapping":8136,"UnknownFields":8137,"Ordinalized":8138,"BitSet":8139,"Needed":8140,"VIDER":8141,"PY":8142,"apu":8143,"fir":8144,"Ùĥ":8145,"escaped":8146,"()];":8147,"isColumn":8148,"Ġ\"#":8149,"sequence":8150,"imes":8151,"ume":8152,"Ġbound":8153,"Parsed":8154,"serialize":8155,"LocalMillis":8156,"Ġ')'":8157,"FunctionName":8158,"Prepar":8159,"comparator":8160,"ĠNULL":8161,"sourceAdd":8162,"Positional":8163,"irectory":8164,"ĠTemporal":8165,"getLocalMillis":8166,"ĠmonthOfYear":8167,"ĠCommon":8168,"assertCanAddAttribute":8169,"ferredSqlTypeCodeFor":8170,"-*/":8171,"AQ":8172,"Cookie":8173,"GEN":8174,"ZonedDateTime":8175,"batch":8176,"iet":8177,"mart":8178,"å°":8179,"Ġorders":8180,"getAs":8181,"ĠnewBuilder":8182,"Ġpage":8183,"RecognitionException":8184,"unmodifiable":8185,"Projection":8186,"ĠentityKey":8187,"irg":8188,"ColumnType":8189,"coming":8190,"Ġ'/":8191,"company":8192,"SqmParameter":8193,"buildSessionFactory":8194,"à°¾":8195,"ĠOs":8196,"LazyProperty":8197,"LazyInitializer":8198,"ModuleLoad":8199,"999":8200,"ĠRecord":8201,"partial":8202,"epCopy":8203,"ĠdayOfMonth":8204,"manyToOne":8205,"getFieldInNonEntity":8206,"ĠTIMESTAMP":8207,"Ġsuccess":8208,"44":8209,"LTR":8210,"LINE":8211,"URE":8212,"WK":8213,"messages":8214,"web":8215,"ĠðĳĦ":8216,"getModelPart":8217,"getTagName":8218,"ingMethod":8219,"forEntities":8220,"SetUp":8221,"FieldSet":8222,"avail":8223,"ĠMouse":8224,"ĠTyped":8225,"à¦ª":8226,"Instantiated":8227,"CONNE":8228,"Users":8229,"EmbeddedId":8230,"ĠTimeUnit":8231,"ĠtransactionCoordinator":8232,"Guard":8233,"Ġrequired":8234,"ĠPoint":8235,"400":8236,"LS":8237,"Wait":8238,"mall":8239,"êĹ":8240,"getDays":8241,"getSeconds":8242,"ingStrategy":8243,"peedTr":8244,"Ġbinary":8245,"Try":8246,"ExpressionPredicate":8247,"ResultTransformer":8248,"EventSink":8249,"ALIGN":8250,"Ġ?>)":8251,"Ġenable":8252,"Disk":8253,"SimpleExpression":8254,"Affect":8255,"à®°":8256,"à²¾":8257,"à§ģ":8258,"ynchronize":8259,"GenerationTarget":8260,"IdentityColumn":8261,"ĠFieldUtils":8262,"alesperson":8263,"ĠNoSuch":8264,"ĠCriteriaQuery":8265,"peedTracer":8266,"Bel":8267,"Dot":8268,"Five":8269,"cub":8270,"creationProcess":8271,"fill":8272,"Ã²":8273,"getMethods":8274,"oos":8275,"setTime":8276,"setCacheMode":8277,"ĠgetString":8278,"contract":8279,"ĠJO":8280,"Then":8281,"ĠisValid":8282,"Ġcoll":8283,"JsInterop":8284,"Comma":8285,"ĠEntityA":8286,"019":8287,"VALID":8288,"Ġtargets":8289,"150":8290,"Ġ{}\",":8291,"ĠRecognitionException":8292,"ĠĠĠĠĠĠĠĠĠ":8293,"Ġcalled":8294,"DevModeRequest":8295,"alesce":8296,"RowNumbering":8297,"*-{":8298,"419":8299,"Different":8300,"Human":8301,"cated":8302,"flags":8303,"hist":8304,"Õ¥":8305,"include":8306,"isNotEmpty":8307,"getListener":8308,"MapEntity":8309,"sel":8310,"olat":8311,"EntityNames":8312,"Tra":8313,"Ġlabeled":8314,"strument":8315,"ĠisEmpty":8316,"riterion":8317,"template":8318,"engine":8319,"à½´":8320,"ĠfieldType":8321,"00000":8322,"Ð¸Ðº":8323,"áŀŁ":8324,"getEntityPersister":8325,"Ġtranslate":8326,"Ø±ÛĮ":8327,"getSessionFactoryOptions":8328,"metadataSources":8329,"orrelatedRoot":8330,"OrderingParser":8331,"JAVA":8332,"âµ¢â´°":8333,"ĠJOIN":8334,"Cancel":8335,"Duplicate":8336,"OBJECT":8337,"VN":8338,"VO":8339,"dr":8340,"Ġpu":8341,"oni":8342,"att":8343,"getObject":8344,"ĠgetAttribute":8345,"ĠSorted":8346,"Ġ17":8347,"ĠtestHql":8348,"progress":8349,"Ġparts":8350,"Compiled":8351,"Ġdecode":8352,"Priv":8353,"external":8354,"Ġemployer":8355,"à¦®":8356,"ĠcolumnReference":8357,"jso":8358,"Copt":8359,"JMethodCall":8360,"ĠJpaCriteriaQuery":8361,"PROVIDER":8362,"Ġclone":8363,"fireEvent":8364,"äºŀ":8365,"Century":8366,"60":8367,"TN":8368,"UY":8369,"ds":8370,"ĠOneToMany":8371,"invalid":8372,"eno":8373,"getUser":8374,"identity":8375,"(\"\\\\":8376,"setType":8377,"setReadOnly":8378,"ĠgetContent":8379,"Ġdifferent":8380,"ĠtestType":8381,"Orphan":8382,"ROUND":8383,"Operand":8384,"LiteralFormatter":8385,"getJdbcEnvironment":8386,"Formulas":8387,"TIMEOUT":8388,"getRaw":8389,"BinaryName":8390,"MutationStrategy":8391,"Indent":8392,"packageName":8393,"ternativeContact":8394,"TemporalUnit":8395,"CopticChronology":8396,"({":8397,"LSE":8398,"Natural":8399,"diff":8400,"tz":8401,"Îµ":8402,"×¢":8403,"getGroup":8404,"stall":8405,"EntityTable":8406,"Already":8407,"Ġdefinition":8408,"Ġchunk":8409,"FromBits":8410,"DEN":8411,"SelectQuery":8412,"Requested":8413,"Checking":8414,"enterRule":8415,"streamReader":8416,"SafeUri":8417,"dayOfYear":8418,"Ð°Ð½Ð´":8419,"ĠUint":8420,"ĠTreeMap":8421,"ĠTableWith":8422,"Ġmatching":8423,"InputElement":8424,"cheduler":8425,"errors":8426,"Ġoperand":8427,"StoreMode":8428,"tags":8429,"exitRule":8430,"Converters":8431,"ENABLED":8432,"AMappedSuperclass":8433,"Duplic":8434,"Datagram":8435,"HE":8436,"OW":8437,"Ro":8438,"ZM":8439,"oser":8440,"ĠWriter":8441,"erce":8442,"getSelectable":8443,"Ġpc":8444,"cket":8445,"003":8446,"ĠsetParent":8447,"ference":8448,"Ġ22":8449,"uses":8450,"SourceMap":8451,"checkOpen":8452,"Ġforce":8453,"findAttributeMapping":8454,"à°¨":8455,"ATEGY":8456,"jdbcTypeRegistry":8457,"ĠStandardServiceRegistry":8458,"ĠPersistentAttribute":8459,"Dependency":8460,"ĠmanagedEntity":8461,"ExactArgumentCount":8462,"Ġmemento":8463,"available":8464,"80":8465,"CP":8466,"Eager":8467,"GM":8468,"Gss":8469,"LK":8470,"Scalar":8471,"symbol":8472,"Ġsom":8473,"estor":8474,"ĠgetTable":8475,"addColumn":8476,"Quot":8477,"ValueSource":8478,"ĠsetDescription":8479,"ĠentityEntry":8480,"ĠMAX":8481,"ĠAction":8482,"Pred":8483,"\\\">\\":8484,"Ġserialization":8485,"startNode":8486,"à®¾":8487,"ĠQuerySpec":8488,"QualifiedName":8489,"ĠoneToOne":8490,"STRATEGY":8491,"SERT":8492,"DoesNot":8493,"Ġformula":8494,"ĠsqlAstArguments":8495,"peedTracerLogger":8496,"030":8497,"Between":8498,"ION":8499,"members":8500,"vo":8501,"ĠError":8502,"()\");":8503,"getModule":8504,"getNumberOf":8505,"Ġsymbol":8506,"setExactArgumentCount":8507,"classes":8508,"ĠgetId":8509,"ĠgetSql":8510,"Ġinheritance":8511,"Tester":8512,"answer":8513,"contain":8514,"Ġemp":8515,"prev":8516,"014":8517,"Ġshow":8518,"theSocket":8519,"ĠTesting":8520,"CopyContext":8521,"Aggregated":8522,"CAPA":8523,"Ġ89":8524,"getJavaTypeRegistry":8525,"byId":8526,"runAsync":8527,"connectionProvider":8528,"Ġspan":8529,"ĠNativeQueryImplementor":8530,"&#":8531,"BIG":8532,"OL":8533,"SM":8534,"\\\")":8535,"gt":8536,"space":8537,"×ľ":8538,"erc":8539,"getBoolean":8540,"depth":8541,"ĠtestRemove":8542,"PropertyAccess":8543,"expr":8544,"ecause":8545,"Indexes":8546,"Popu":8547,"Previous":8548,"pressed":8549,"ificationVariable":8550,"áĪª":8551,"ĠstringType":8552,"MultiTable":8553,"<?,?":8554,"ĠDefaultRule":8555,"optimizer":8556,"4576":8557,"ĠuniqueKey":8558,"ĠLOG":8559,"SideEffects":8560,"46":8561,"Course":8562,"Zones":8563,"big":8564,"tuple":8565,"Ãģ":8566,"ĠConnectionProvider":8567,"InetAddress":8568,"agn":8569,"ĠgetPhysical":8570,"ValueLiteral":8571,"ForProperty":8572,"Ġreport":8573,"toInstant":8574,"ĠresultVariable":8575,"ĠBatch":8576,"Complex":8577,"Ġ32":8578,"persistenceContext":8579,"Ġstrings":8580,"ĠqueryOptions":8581,"TextArea":8582,"LoadQueryInfluencers":8583,"à½Ĥ":8584,"Ð¸ÐºÐ°":8585,"015":8586,"SerializableTypeOracle":8587,"deserialize":8588,"Edge":8589,"ĠMetadataBuildingContext":8590,"While":8591,"BatchSize":8592,"Ġgroups":8593,"ReadablePeriod":8594,"ickNames":8595,"Ġ/*-{":8596,"DoNot":8597,"counter":8598,"constraint":8599,"ĠtrustedAttribute":8600,"Flight":8601,"SPE":8602,"dummy":8603,"inu":8604,"anes":8605,"Ġ\")\";":8606,"reverse":8607,"assertNo":8608,"setA":8609,"uture":8610,"ĠgetJdbc":8611,"ĠScript":8612,"TransactionIs":8613,"ĠCall":8614,"UpdateStatement":8615,"ockopt":8616,"RootEntity":8617,"Shift":8618,"à½ĸ":8619,"âµİ":8620,"OffsetFetchClause":8621,"Ø§Ùħ":8622,"ĠsuperClass":8623,"Ġprimitive":8624,"Ġassemb":8625,"MOD":8626,"Times":8627,"AutoCommit":8628,"ĠSchemaExport":8629,"ixel":8630,"Latin":8631,"LogicalConnection":8632,"ĠAssertionFailure":8633,"POSITIVE":8634,"ĠfixedTime":8635,"ĠSTRING":8636,"martid":8637,"Baz":8638,"MQ":8639,"NS":8640,"XX":8641,"ĠQ":8642,"ĠStream":8643,"ĠAtomic":8644,"getMaximumValue":8645,"TypeBinding":8646,"ĠbootstrapContext":8647,"ivial":8648,"ĠSemantic":8649,"Ġtrim":8650,"Ġhref":8651,"RegExp":8652,"derlying":8653,"à¤¶":8654,"ĠAuthor":8655,"Interpolator":8656,"JsObject":8657,"FetchMode":8658,"Afrika":8659,"à²¨":8660,"SafeConstant":8661,"154":8662,"ÑĥÑĢ":8663,"Visiwa":8664,"ĠresourceName":8665,"ÙĬØ§":8666,"BACK":8667,"getNodeBuilder":8668,"ĠbeforeIndex":8669,"assertExecutedCount":8670,"Ġsommartid":8671,"Begin":8672,"Fallback":8673,"Lin":8674,"Presenter":8675,"Sing":8676,"])":8677,"xff":8678,"ÇĿ":8679,"ĠReflection":8680,"Ġvari":8681,"Ġcust":8682,"quoted":8683,"imer":8684,"Ġfil":8685,"calendar":8686,"ĠJField":8687,"Unicode":8688,"ArrayNative":8689,"ĠisInitialized":8690,"ongo":8691,"ĠApi":8692,"getClient":8693,"áĢĢ":8694,"ĠdoExtract":8695,"ComponentData":8696,"iko":8697,"Ġshift":8698,"MinimalRebuildCache":8699,"Ð¾Ð²":8700,"NamedId":8701,"Variant":8702,"RIPT":8703,"listenerList":8704,"Ġconverted":8705,"DomHandler":8706,"ALIAS":8707,"forEntitiesAtRevision":8708,"Lines":8709,"cpe":8710,"wise":8711,"æĸ":8712,"only":8713,"Ġviol":8714,"Ġ)\"":8715,"Ġbegin":8716,"Ġois":8717,"TestTreeLogger":8718,"ubl":8719,"PropertyPath":8720,"EventSource":8721,"extension":8722,"CacheKey":8723,"FetchTiming":8724,"BasicEntity":8725,"TargetException":8726,"áĢŃ":8727,"Delimited":8728,"3478":8729,"à®©":8730,"setParameterList":8731,"ĠServer":8732,"heet":8733,"DOUBLE":8734,"timeZone":8735,"Ġhead":8736,"moduleName":8737,"CITY":8738,"Expectations":8739,"Ġinvoke":8740,"GRA":8741,"getExpressionType":8742,"ddlTypeRegistry":8743,"034":8744,"GD":8745,"JStatement":8746,"JNode":8747,"Sibling":8748,"Wrong":8749,"lad":8750,"Ð¶":8751,"ĠYearMonth":8752,"onymous":8753,"getSelected":8754,"edMode":8755,"Ġclause":8756,"esture":8757,"setStyleName":8758,"addHandler":8759,"ĠSample":8760,"Ġstorage":8761,"ĠHINT":8762,"CollectionPart":8763,"Ġ'%":8764,"Ġcomparator":8765,"PredicateContext":8766,"à¸Ń":8767,"BooleanLiteral":8768,"oke":8769,"dispatch":8770,"mapped":8771,"LimitHandler":8772,"ApiChange":8773,"emantics":8774,"ĠnamedQuery":8775,"NotAuditedEntity":8776,"HttpServlet":8777,"(*)":8778,"CX":8779,"Floor":8780,"Now":8781,"SP":8782,"UK":8783,"tiness":8784,"za":8785,"Ã¹":8786,"ÑĦ":8787,"Ġro":8788,"Ġage":8789,"ĠOutputStream":8790,"era":8791,"erby":8792,"getM":8793,"getAlias":8794,"relevant":8795,"depend":8796,"istani":8797,"stop":8798,"unn":8799,"setFirst":8800,"ĠtestCase":8801,"Fire":8802,"005":8803,"Chain":8804,"Ġ27":8805,"ĠMIN":8806,"Ġglobal":8807,"Ġunmarshal":8808,"ĠNOT":8809,"olders":8810,"theString":8811,"ĠconvertTo":8812,"getIdentifierMapping":8813,"UiBinder":8814,"JaxbMapping":8815,"posit":8816,"getAttributeName":8817,"ĠLockModeType":8818,"ClickEvent":8819,"ÑĸÑı":8820,"JoinedGroup":8821,"ĠcontainsString":8822,"AUD":8823,"ĠdropTestData":8824,"ĠEnvers":8825,"Ġ'.'":8826,"riendly":8827,"addWrapFieldToCopy":8828,"CONNECTION":8829,"\"\\":8830,"AST":8831,"Eval":8832,"GH":8833,"IAN":8834,"LR":8835,"MN":8836,"Tail":8837,"car":8838,"lip":8839,"ued":8840,"enh":8841,"getConfiguration":8842,"assertFile":8843,"returnType":8844,"implement":8845,"Ġmore":8846,"endNode":8847,"ĠSize":8848,"Uni":8849,"appendHqlString":8850,"LOCAL":8851,"ĠjdbcTimeZone":8852,"ĠComparison":8853,"SuperType":8854,"Ġzip":8855,"ĠfirstResult":8856,"Callbacks":8857,"makeRef":8858,"84756":8859,"HandlingMode":8860,"Ġ\"]\"":8861,"Î¿Ï":8862,"ĠByteArrayOutputStream":8863,"EXPAN":8864,"298":8865,"BW":8866,"HM":8867,"MF":8868,"bc":8869,"cq":8870,"lt":8871,"wrapper":8872,"ĠIndexOutOfBoundsException":8873,"eting":8874,"inject":8875,"getPh":8876,"getWidth":8877,"getWeeks":8878,"Ġsr":8879,"reason":8880,"Cons":8881,"izes":8882,"002":8883,"ToLoad":8884,"Ġhost":8885,"ĠMenu":8886,"Ð°ÑĤ":8887,"ĠUnsupported":8888,"area":8889,"155":8890,"Blocks":8891,"updated":8892,"QuotedName":8893,"singletonList":8894,"àº²àº":8895,"RetrieveMode":8896,"cubating":8897,"Jane":8898,"Sam":8899,"pass":8900,"Ùİ":8901,"getList":8902,"Ġ\").":8903,"ĠflushMode":8904,"Reporter":8905,"agg":8906,"setData":8907,"Ġbecause":8908,"ĠnullPrecedence":8909,"ĠgetReferenced":8910,"Ġlambda":8911,"OfEntity":8912,"ERIC":8913,"nameMap":8914,"ServiceAsync":8915,"CacheHitCount":8916,"ĠanEntity":8917,"ĠjdbcValue":8918,"ĠCollectionPersister":8919,"ĠparamIndex":8920,"Ġseconds":8921,"Ġreflection":8922,"forEachSelectable":8923,"Ġquote":8924,"ĠPluralAttributeMapping":8925,"Ġstudents":8926,"getSecondLevelCache":8927,"ĠStaticJavaResource":8928,"Ġlanguage":8929,"EXPANDED":8930,"DST":8931,"Dml":8932,"NP":8933,"RW":8934,"SCHEMA":8935,"ape":8936,"database":8937,"none":8938,"ÌĢ":8939,"isClass":8940,"ider":8941,"essim":8942,"imap":8943,"una":8944,"street":8945,"FieldUtils":8946,"createStatement":8947,"appendAs":8948,"ĠCoin":8949,"ĠAd":8950,"ĠTask":8951,"LED":8952,"LENG":8953,"ResourceOracle":8954,"12124":8955,"ĠjdbcParameterBindings":8956,"LogData":8957,"Ġserializable":8958,"Ġbuilding":8959,"ĠJdbcEnvironment":8960,"9874":8961,"ĠfunctionContributions":8962,"Ø³Øª":8963,"áıĤ":8964,"srcWriter":8965,"delayTestFinishFor":8966,"SecurityException":8967,"LENGTH":8968,"Dat":8969,"Sent":8970,"done":8971,"optional":8972,"Ðĺ":8973,"Ø¢":8974,"ĠWith":8975,"ingHint":8976,"arge":8977,"ĠgetInstance":8978,"addLog":8979,"ialog":8980,"ĠCOP":8981,"ills":8982,"AddHandler":8983,"TreeMap":8984,"Validate":8985,"à°¯":8986,"SQLDialect":8987,"à¬¨":8988,"generic":8989,"Ġchecker":8990,"InnerHTML":8991,"Actual":8992,"Ġphones":8993,"Dependencies":8994,"ĠsortExpression":8995,"Handling":8996,"Ġcontained":8997,"ContainingTableExpression":8998,"ĠXppDom":8999,"Occurrence":9000,"ercion":9001,"ĠCOPTIC":9002,".$$_":9003,"BN":9004,"Msg":9005,"bSign":9006,"dig":9007,"Î»":9008,"á¹":9009,"åľ":9010,"inverse":9011,"isDefault":9012,"getZone":9013,"Ġsite":9014,"olation":9015,"Example":9016,"ableMethods":9017,"setTitle":9018,"ĠbSign":9019,"Ġbutton":9020,"Ġmother":9021,"utating":9022,"ClassCastException":9023,"TestInfo":9024,"toStandard":9025,"ĠClient":9026,"permutation":9027,"Ġ39":9028,"SqmCopyContext":9029,"javaType":9030,"argin":9031,"à®ª":9032,"7823":9033,"â´³":9034,"ĠbaseType":9035,"translator":9036,"translate":9037,"(?,":9038,"Identifiers":9039,"********":9040,"itespace":9041,"commended":9042,"Cycle":9043,"HEN":9044,"Padding":9045,"SN":9046,"dk":9047,"Ġicu":9048,"getContext":9049,"getExpressions":9050,"oring":9051,"storage":9052,"Ġdays":9053,"ForJavaType":9054,"FieldValue":9055,"ByPath":9056,"ĠnameCoder":9057,"SourceImpl":9058,"ParentEntity":9059,"fromSafeConstant":9060,"ĠSqmTreated":9061,"013":9062,"à¸´":9063,"Ġgeneric":9064,"789874":9065,"Ġreferences":9066,"Matches":9067,"áĬł":9068,"MutationOperation":9069,"Boxed":9070,"Relative":9071,"ĠresolvedTypes":9072,"Baseline":9073,"GATIVE":9074,"UnderTest":9075,"Triggered":9076,"cheduledCommand":9077,"requireNonNull":9078,"TransactionIsolator":9079,"12124789874":9080,"Lifecycle":9081,"ade":9082,"hand":9083,"Ð¤":9084,"ÑĪ":9085,"×ŀ":9086,"ĠðĲĲ":9087,"ĠStreamException":9088,"inated":9089,"alary":9090,"isPrimitive":9091,"another":9092,"arr":9093,"Inclusion":9094,"TypeIn":9095,"Ġpop":9096,"Ġflush":9097,"Ġfinish":9098,"setS":9099,"force":9100,"contribute":9101,"DateMidnight":9102,"createTemp":9103,"paren":9104,"ĠCo":9105,"atedType":9106,"ParameterType":9107,"WithCollection":9108,"FromCombined":9109,"Implements":9110,"checkExec":9111,"OnLocking":9112,"closure":9113,"Ġentries":9114,"ĠNUM":9115,"à½¡":9116,"ĠsqlSelection":9117,"StyleGenerator":9118,"2000":9119,"EditorDriver":9120,"DeleteStatement":9121,"txn":9122,"ĠfunctionName":9123,"CustomFieldSerializer":9124,"Ġcomponents":9125,"Contained":9126,"____":9127,"shouldGenerate":9128,"signature":9129,"Ġpkg":9130,"8298":9131,"BV":9132,"FJ":9133,"Grid":9134,"OTHER":9135,"Treat":9136,"ii":9137,"Ġqueue":9138,"etter":9139,"getTableName":9140,"edon":9141,"Parag":9142,"ĠtestFormat":9143,"Ġincoming":9144,"Ġjar":9145,"ElementException":9146,"legating":9147,"FunctionAs":9148,"Assumptions":9149,"ĠqueryEngine":9150,"ĠNaming":9151,"Ġsqls":9152,"LiteralContext":9153,"ĠDateTimeFormatter":9154,"ConverterDescriptor":9155,"ĠRel":9156,"lockOptions":9157,"Graphics":9158,"ĠentrySet":9159,"Ġreferencing":9160,"ĠorderBy":9161,"ĠSQLStatementInspector":9162,"Ġdetails":9163,"numberOf":9164,"145":9165,"029":9166,"ĠdomainParameterXref":9167,"PluralAttribute":9168,"mainder":9169,"DaysIn":9170,"NEGATIVE":9171,"yyyy":9172,"####":9173,"ĠformNames":9174,"JoinedSubclass":9175,"goodCode":9176,"namedDescriptorBuilder":9177,"decodeRequest":9178,"NavigableMap":9179,"Ġenhancement":9180,"NUMBER":9181,"ĠStatisticsImplementor":9182,"ĠMonthDay":9183,"ĠAfrika":9184,"ĠSelfRendering":9185,"EH":9186,"bn":9187,"fos":9188,"human":9189,"window":9190,"Ñį":9191,"ĠTr":9192,"getY":9193,"getContent":9194,"(\"_":9195,"Inject":9196,"istent":9197,"qualified":9198,"ĠHe":9199,"ModelExpressible":9200,"LoadEvent":9201,"IsSafeHtml":9202,"ĠVAR":9203,"Ġ106":9204,"ĠcollectionKey":9205,"àª¾":9206,"ATED":9207,"5678":9208,"jdbcValue":9209,"getRel":9210,"getPropertyName":9211,"ĠBasicValue":9212,"à§ĭ":9213,"OutputFile":9214,"OutputOption":9215,"aaaa":9216,"MetaModel":9217,"ManagedEntity":9218,"CompilationState":9219,"Ġqueries":9220,"MenuItem":9221,"getReferencedPathSource":9222,"SerializedSize":9223,"utabilityPlan":9224,";\").":9225,"HN":9226,"Syntax":9227,"]).":9228,"qcn":9229,"sle":9230,"ving":9231,"alance":9232,"getStatements":9233,"Ġtables":9234,"oles":9235,"Req":9236,"ObjectInputStream":9237,"ĠPRO":9238,"ĠButton":9239,"ĠDel":9240,"Ġmetamodel":9241,"Pop":9242,"getCustomer":9243,"ĠFiles":9244,"Subselect":9245,"REV":9246,"Asc":9247,"composite":9248,"104576":9249,"ĠdoBind":9250,"Ġitems":9251,"currentHashMap":9252,"à¨¨":9253,"Ġselector":9254,"DeleteCount":9255,"Ġleaf":9256,"fetchParent":9257,"98104576":9258,"SafeHtmlUtils":9259,"Ġretrieved":9260,"123456789":9261,"ĠsortOrder":9262,"students":9263,"ĠHierarchicalStreamWriter":9264,"Integral":9265,"ĠOptimizer":9266,"('.',":9267,"DELETE":9268,"'))":9269,"Bah":9270,"Bridge":9271,"DIS":9272,"HK":9273,"NU":9274,"Srid":9275,"Zoo":9276,"floor":9277,"ĠContract":9278,"alternativeContact":9279,"isreg":9280,"Ġ\"[":9281,"Ġseg":9282,"Ġscalar":9283,"elung":9284,"Progress":9285,"Ang":9286,"toCharArray":9287,"artin":9288,"ĠID":9289,"Submit":9290,"011":9291,"ĠOFF":9292,"JpaCriteriaQuery":9293,"descriptor":9294,"à·ĥ":9295,"QualifiedSourceName":9296,"canBe":9297,"SchemaName":9298,"getQuerySpec":9299,"getQueryEngine":9300,"Expectation":9301,"Ġtags":9302,"Polymorphic":9303,"Europa":9304,"ĠLinkedList":9305,"Breakdown":9306,"vmCreated":9307,"IPv":9308,"ondon":9309,"TRANSACTION":9310,"didChange":9311,"ublisher":9312,"delayTestFinishForRpc":9313,"121247898748298":9314,"981045763478":9315,"isregelung":9316,"'s":9317,"83":9318,"ACT":9319,"EU":9320,"Effective":9321,"MW":9322,"Sa":9323,"YT":9324,"focus":9325,"iField":9326,"tle":9327,"vi":9328,"ĠInterruptedException":9329,"InEmbeddable":9330,"seen":9331,"Representation":9332,"Ġinvocation":9333,"ĠPK":9334,"ĠPattern":9335,"ĠtheEntity":9336,"Implemented":9337,"SubGraph":9338,"coll":9339,"à½¨":9340,"Species":9341,"ĠJsExpression":9342,"151":9343,"MyEntity":9344,"obfus":9345,"managed":9346,"TopLevel":9347,"PrimaryTableReference":9348,"Ġencoding":9349,"RevisionsOfEntity":9350,"BasicTypeForJavaType":9351,"Ġclosed":9352,"Ġcontaining":9353,"ĠLevel":9354,"ampling":9355,"ĠBean":9356,"getSqlAstCreationState":9357,"98104576347813":9358,"HQL":9359,"Lik":9360,"NetworkInterface":9361,"PW":9362,"PLA":9363,"sun":9364,"tail":9365,"³¶":9366,"å³¶":9367,"onal":9368,"inate":9369,"env":9370,"isNullable":9371,"tricted":9372,"getEmbeddable":9373,"getLine":9374,"getMonths":9375,"Ġsend":9376,"Exits":9377,"Stub":9378,"setAttribute":9379,"Ġinject":9380,"Sex":9381,"createEntityManager":9382,"Ġjob":9383,"ventory":9384,"ĠCode":9385,"ERR":9386,"ReferenceBinding":9387,"HandlerRegistration":9388,"Ġatt":9389,"ĠNAME":9390,"âµį":9391,"InitializedObjects":9392,"ĠeventType":9393,"porary":9394,"SSAGE":9395,"à´¯":9396,"à´¾":9397,"à¨¸":9398,"567":9399,"AMETER":9400,"ipping":9401,"ĠPersistenceContext":9402,"USER":9403,"ĠUi":9404,"Ġteacher":9405,"SHOW":9406,"ĠSqlAstJoinType":9407,"MapsId":9408,"StoredProcedureParameter":9409,"Switch":9410,"tractionContext":9411,"getBootstrapContext":9412,"GENER":9413,"BZ":9414,"SJ":9415,"Send":9416,"paces":9417,"})":9418,"Ïĥ":9419,"ĠRevisionType":9420,"isOr":9421,"getMax":9422,"getParams":9423,"getQuotedName":9424,"ara":9425,"Included":9426,"Inlin":9427,"assertBuggy":9428,"Ġtd":9429,"setKey":9430,"acters":9431,"Ġbranch":9432,"ĠtestBasic":9433,"Unused":9434,"Ġwe":9435,"ĠBinary":9436,"Reflect":9437,"à¸µ":9438,"eventListener":9439,"ordered":9440,"aliases":9441,"143":9442,"ĠOrdering":9443,"AggregateFunction":9444,"DataPoints":9445,"ĠSafeStyles":9446,"SCRIPT":9447,"RPCTypeCheckFactory":9448,"ĠZoneOffset":9449,"ĠRPCTypeCheckFactory":9450,"Medium":9451,"Ġ]\\":9452,"getDeclaringClass":9453,"ĠOFFSET":9454,"QO":9455,"`\",":9456,"house":9457,"oa":9458,"ÑĨ":9459,"ĠForeignKey":9460,"isType":9461,"Ġ(_":9462,"StrongName":9463,"Ġ))":9464,"Ġtmp":9465,"Ġpw":9466,"Ġbig":9467,"ĠnullValue":9468,"ĠtestSimple":9469,"ĠtestMerge":9470,"ĠJA":9471,"ĠJAXB":9472,"Unload":9473,"Ġprovided":9474,"ĠentityGraph":9475,"existing":9476,"ĠCascade":9477,"RefEntity":9478,"ClauseType":9479,"à½Ģ":9480,"ĠsqlExpressionResolver":9481,"Ġserialized":9482,"streamWriter":9483,"tableReference":9484,"áŀļ":9485,"à²¯":9486,"ĠpersonId":9487,"Ġinterfaces":9488,"Ġprime":9489,"Ġprivate":9490,"ModuleDef":9491,"SequenceName":9492,"HasChild":9493,"ValuedMapping":9494,"getColumnSpan":9495,"ĠreferencedEntityName":9496,"MINUTE":9497,"BrowserChannel":9498,"Ġpopup":9499,"ĠpluralAttribute":9500,"794":9501,"DebugEnabled":9502,"ĠsqlAstCreationState":9503,"Ġnormaltid":9504,"MathContext":9505,"Ġlinker":9506,"integr":9507,"cumulator":9508,"ĠSqlAstNodeRenderingMode":9509,"COLLECTION":9510,"ĠFrame":9511,"assertNumberOfJoins":9512,"ĠversionsReader":9513,"ĠgetPhysicalAnnotation":9514,"AW":9515,"Cutover":9516,"Live":9517,"fe":9518,"}]\",":9519,"ĠERROR":9520,"isDebugEnabled":9521,"receive":9522,"Incubating":9523,"EnversService":9524,"ood":9525,"setP":9526,"Ġback":9527,"EntityDomainType":9528,"addIfNotNull":9529,"ĠtestUn":9530,"Ġthan":9531,"emon":9532,"Ġlayout":9533,"serialized":9534,"Ġprotected":9535,"Ġconn":9536,"ĠPRI":9537,"Nulls":9538,"Ġ}-*/":9539,"axId":9540,"ArgumentTypeResolver":9541,"nullable":9542,"ĠSqmPredicate":9543,"meta":9544,"LoadingState":9545,"à½±":9546,"Ð¸Ð»":9547,"áĢĽ":9548,"ĠCollectionHelper":9549,"Spatial":9550,"Modifier":9551,"virtual":9552,"RegionCodes":9553,"VEL":9554,"PackageName":9555,"Capability":9556,"Optimized":9557,"LastName":9558,"057":9559,"021":9560,"ĠEventType":9561,"SerializationStreamWriter":9562,"lands":9563,"Ordinalizer":9564,"ĠtreatAs":9565,"Ġupdated":9566,"Soyc":9567,"Organ":9568,"decimal":9569,"(!":9570,"RS":9571,"task":9572,"ĠIdentityHashMap":9573,"enversService":9574,"getDate":9575,"Ġsafe":9576,"retty":9577,"Recreate":9578,"Ġbit":9579,"Ġmc":9580,"Ġmutable":9581,"ours":9582,"ObjectOutputStream":9583,"forName":9584,"DateRange":9585,"ĠentityA":9586,"OrFormula":9587,"ĠCriteriaBuilder":9588,"Registrations":9589,"Ġdebug":9590,"MessageType":9591,"Substitution":9592,"Ġ4326":9593,"IntMax":9594,"owning":9595,"017":9596,"iki":9597,"Footer":9598,"SQLStatementInspector":9599,"ĠmetadataBuildingContext":9600,"Ġzero":9601,"ĠQueryParameter":9602,"insertable":9603,"035":9604,"Ġ\\\"\"":9605,"QUAL":9606,"ĠConfigurationHelper":9607,"TypeChecked":9608,"wasTriggered":9609,"Summary":9610,"ssrb":9611,"Ġindicators":9612,"Analyzer":9613,"JavaLangObject":9614,"CAPACITY":9615,"CTED":9616,"Criterion":9617,"Friendly":9618,"Sig":9619,"cancel":9620,"Ġàª":9621,"ene":9622,"isDirty":9623,"getYears":9624,"uring":9625,"rec":9626,"department":9627,"Ġtq":9628,"union":9629,"setVisibleRange":9630,"ĠSort":9631,"ĠsetType":9632,"OfCentury":9633,"ĠCan":9634,"Ġtool":9635,"Compatible":9636,"SqlStringGenerationContext":9637,"command":9638,"LEVEL":9639,"Substring":9640,"NativePreview":9641,"ĠparentId":9642,"Points":9643,"Ġsubsystem":9644,"CheckStyle":9645,"ĠcollectionBinding":9646,"BaseURL":9647,"Secondary":9648,"Ġgeneration":9649,"minimalRebuildCache":9650,"ðĲĲ¨":9651,"ĠParentEntity":9652,"ĠlocalName":9653,"originalDateTimeZone":9654,"getQueryOptions":9655,"emptyMap":9656,"ExpressibleJavaType":9657,"Ġvalidator":9658,"ĠIdentifierGenerator":9659,"chool":9660,"ĠTableGroupJoin":9661,"studentNumber":9662,"SafeStylesUtils":9663,"'\");":9664,"Correlation":9665,"DING":9666,"GJ":9667,"IMP":9668,"MAT":9669,"PRI":9670,"click":9671,"Ġact":9672,"Ġà°":9673,"getOther":9674,"getUsers":9675,"ableName":9676,"ĠScroll":9677,"export":9678,"Ġemployees":9679,"MESSAGE":9680,"OnAddHandler":9681,"à¦Ł":9682,"ĠjoinTable":9683,"áĥĿ":9684,"PeriodFormat":9685,"boss":9686,"áĬĴ":9687,"ConfigOptions":9688,"Ġmanies":9689,"ReadableInterval":9690,"84298":9691,"ClickHandler":9692,"ĠConfigurationService":9693,"7798104576347813":9694,"IllegalAccessException":9695,"ĠdefinedIn":9696,"ManagementTool":9697,"Surface":9698,"scroller":9699,"ĠSemanticException":9700,"12124789874829884298":9701,"'\\":9702,"=?":9703,"Holders":9704,"Mirror":9705,"datetime":9706,"uendInstant":9707,"åį":9708,"Ġà²":9709,"ĠÙħ":9710,"ĠOneToOne":9711,"ĠStrIntTestEntity":9712,"isInterface":9713,"getEntry":9714,"getLeft":9715,"getContainingTableExpression":9716,"(\"+":9717,"assertAll":9718,"puted":9719,"classLoader":9720,"ĠgetMappings":9721,"cos":9722,"FieldAdded":9723,"Ġwrit":9724,"ĠCast":9725,"AttributeOverride":9726,"CollectionUpdate":9727,"ZoneId":9728,"ResourceBase":9729,"OnDelete":9730,"ĠEntityEntry":9731,"Apply":9732,"CHANGE":9733,"getEntityMappingType":9734,"THEN":9735,"Ġdisassemble":9736,"MultiExpression":9737,"point":9738,"ĠdomainValue":9739,"Violations":9740,"SortedMap":9741,"ĠZoneId":9742,"ĠEntityManagerFactory":9743,"723":9744,"Center":9745,"Sant":9746,"cestor":9747,"li":9748,"since":9749,"uce":9750,"×ĺ":9751,"ÛĲ":9752,"isible":9753,"treat":9754,"getHeight":9755,"getOrigin":9756,"Ġnodes":9757,"recogn":9758,"Ġclean":9759,"Enclo":9760,"setHint":9761,"Ġmay":9762,"classForName":9763,"ClassNames":9764,"ĠgetWrapped":9765,"Ġdue":9766,"[]{\"":9767,"ĠaEntity":9768,"ĠClause":9769,"ĠPol":9770,"Nullability":9771,"ĠAuto":9772,"FetchStyle":9773,"AndFormulas":9774,"áĢ¯":9775,"mapKey":9776,"username":9777,"ĠJavaResourceBase":9778,"Endian":9779,"ĠfindMethod":9780,"PARAMETER":9781,"frame":9782,"CreationProcess":9783,"Splittable":9784,"DynamicInstantiation":9785,"VersionedNode":9786,"declared":9787,"Ġnormalize":9788,"CtClass":9789,"Dual":9790,"Lateral":9791,"London":9792,"Opcodes":9793,"Turk":9794,"Uid":9795,"oth":9796,"zz":9797,"Ġà¬":9798,"Ġà¨":9799,"getOperator":9800,"Ġfiles":9801,"agent":9802,"ĠgetServiceAsync":9803,"addImplicit":9804,"Ġopt":9805,"ĠSup":9806,"ĠSome":9807,"ĠtestNo":9808,"ĠtestRevision":9809,"FromLocal":9810,"ockroach":9811,"clock":9812,"ĠGE":9813,"Generators":9814,"áĥ£":9815,"ComponentProperty":9816,"Ġprev":9817,"maps":9818,"InsertStrategy":9819,"Executable":9820,"à®¯":9821,"Qualifiers":9822,"ĠsqmStatement":9823,"BarProxy":9824,"ĠparamType":9825,"Actions":9826,"ĠcriteriaExecutor":9827,"GeneratedMessage":9828,"ScrollPosition":9829,"Ġquantity":9830,"7890":9831,"ĠmanyToMany":9832,"JsniMethod":9833,"ĠsetCity":9834,"success":9835,"orrelationParent":9836,"Ġmultiple":9837,"rethrowException":9838,"84756794":9839,"vmCreatedSql":9840,"Dates":9841,"EV":9842,"FLO":9843,"Gesture":9844,"Hidden":9845,"iri":9846,"erialization":9847,"alk":9848,"alyz":9849,"getPerson":9850,"getLockMode":9851,"pection":9852,"Release":9853,"Concat":9854,"ĠgetValues":9855,"TestRunner":9856,"Ġ-=":9857,"ValueBinding":9858,"ĠsetB":9859,"Ġtrigger":9860,"Deserialize":9861,"Ġgot":9862,"longFromBits":9863,"Ġsubtrah":9864,"áĢ±":9865,"áŀĢ":9866,"áŀĦ":9867,"àº´":9868,"getJdbcTypeRegistry":9869,"ĠJdbcServices":9870,"CATION":9871,"Tags":9872,"ĠcacheMode":9873,"attributeName":9874,"Whitespace":9875,"Library":9876,"ArgumentsValidator":9877,"CompilerException":9878,"ĠrunAsync":9879,"ĠRootEntity":9880,"TypedNode":9881,"Converted":9882,"ĠDOMImpl":9883,"087798104576347813":9884,"soyc":9885,"Ctor":9886,"Ġrelational":9887,"Ġproblems":9888,"æĸ¯":9889,"65":9890,";\"":9891,"Destination":9892,"Gw":9893,"Ke":9894,"NR":9895,"WS":9896,"feature":9897,"joe":9898,"ose":9899,"ybase":9900,"{'":9901,"É¨":9902,"ÓĻ":9903,"ĠLob":9904,"isAbstract":9905,"getComp":9906,"getLogger":9907,"Ġsender":9908,"Recompile":9909,"qualify":9910,"Ġdummy":9911,"textui":9912,"Ġitr":9913,"RENT":9914,"ysicalName":9915,"ĠclassType":9916,"ĠLiteral":9917,"EnumMap":9918,"SecondaryTable":9919,"ĠbyteCount":9920,"JpaExpression":9921,"à¶ļ":9922,"HasChanged":9923,"instantiate":9924,"MutationTarget":9925,"ĠformatDateRange":9926,"pose":9927,"expressions":9928,"ĠbeanType":9929,"âµīâµı":9930,"getOffsetFromLocal":9931,"BYTES":9932,"TestServiceException":9933,"Ġboxed":9934,"Õ¡Õ¶":9935,"ĠConverterManager":9936,"InvariantType":9937,"<>()":9938,"AO":9939,"Bug":9940,"Rtl":9941,"Uk":9942,"ileg":9943,"Ê»":9944,"iss":9945,"getAttributes":9946,"getMutating":9947,"quences":9948,"Ġfm":9949,"addr":9950,"ĠSuper":9951,"ĠtestInstance":9952,"ortal":9953,"ĠentityMetamodel":9954,"irc":9955,"Ġchanged":9956,"ARD":9957,"BindableType":9958,"ailing":9959,"TIAL":9960,"Ġaddr":9961,"typeContributions":9962,"à¦¸":9963,"Continu":9964,"theDate":9965,"Ġinitialized":9966,"ĠSqlTuple":9967,"TIMEZONE":9968,"fileName":9969,"PARAM":9970,"BlockGuard":9971,"language":9972,"054":9973,"142":9974,"FailureExpected":9975,"ĠdomainModel":9976,"AAAEntity":9977,"capabilities":9978,"Ġmatches":9979,"Ġwidgets":9980,"ĠcustomType":9981,"ĠtagName":9982,"ExecutionOptions":9983,"animals":9984,"JOIN":9985,"Halfday":9986,"Emulation":9987,"JavaScriptException":9988,"ĠByteArrayInputStream":9989,"NoSuchMethodException":9990,"optimizerCtx":9991,"Likely":9992,"96":9993,"Fast":9994,"Fmt":9995,"HI":9996,"Hex":9997,"Kan":9998,"ORE":9999,"Semantics":10000,"TK":10001,"Too":10002,"high":10003,"kb":10004,"sn":10005,"ÐĴ":10006,"åĪ":10007,"Ġengine":10008,"getLogicalConnection":10009,"Ġsk":10010,"Ġsaved":10011,"related":10012,"Ġpad":10013,"setInvariantType":10014,"Ġoptional":10015,"Throws":10016,"Ġ25":10017,"usable":10018,"INSERT":10019,"ĠBlock":10020,"ĠpropertyType":10021,"ĠpropertyNames":10022,"Binders":10023,"Ġrule":10024,"ĠstrongName":10025,"ĠtableAlias":10026,"à¦ľ":10027,"SED":10028,"pair":10029,"ermination":10030,"áĥł":10031,"Ġdog":10032,"àºŃ":10033,"ĠtargetType":10034,"ĠComparator":10035,"DatabaseVersion":10036,"ĠcriteriaQuery":10037,"ĠMetadataImplementor":10038,"ÙĬÙĨ":10039,"originalLocale":10040,"SerializationPolicy":10041,"ĠconvertField":10042,"FINISH":10043,"POST":10044,"ÙīÙĬ":10045,"ĠSafeHtmlBuilder":10046,"MergedPatterns":10047,"HorizontalAlignment":10048,"getNonLazy":10049,"getRawType":10050,"pository":10051,"12124789874829884298087798104576347813":10052,"Az":10053,"AuxiliaryDatabaseObject":10054,"CLOB":10055,"Dimension":10056,"Hover":10057,"JVariable":10058,"Julian":10059,"OVER":10060,"ior":10061,"jprogram":10062,"lan":10063,"mask":10064,"rica":10065,"ĠPart":10066,"enabled":10067,"Ġ\"$":10068,"lice":10069,"teacher":10070,"Ġcreation":10071,"adi":10072,"quote":10073,"setUn":10074,"Ġbuggy":10075,"classType":10076,"ForRowNumbering":10077,"Ġ21":10078,"Ġ'_":10079,"ĠtableMapping":10080,"selector":10081,"getTypeOracle":10082,"LogLevel":10083,"ĠrootEntityDescriptor":10084,"sqlAst":10085,"HibernateCriteriaBuilder":10086,"à´¸":10087,"ÑģÐºÐ°":10088,"timeout":10089,"Ġphysical":10090,"Ġmatcher":10091,"Ġdirty":10092,"ĠDialectFeature":10093,"AddLogBranch":10094,"SecurityManager":10095,"conditions":10096,"override":10097,"ĠtemporalAccessor":10098,"ScopedBean":10099,"ASS":10100,"AIT":10101,"Virtual":10102,"_);":10103,"between":10104,"Ġ{};":10105,"getEditor":10106,"rough":10107,"Injection":10108,"Ġps":10109,"uncate":10110,"Provid":10111,"ToQuery":10112,"toPath":10113,"Ġjtd":10114,"achable":10115,"ByDefault":10116,"ĠCountry":10117,"acific":10118,"ufff":10119,"Press":10120,"Predicates":10121,"itions":10122,"TEN":10123,"Ġadditional":10124,"Ġ48":10125,"LockHint":10126,"ðĳĦ¬":10127,"à¸ģ":10128,"propertyHolder":10129,"ChangeListener":10130,"ĠInetAddress":10131,"srf":10132,"202":10133,"ĠrowId":10134,"ĠPersistenceUnit":10135,"2384":10136,"ictionary":10137,"ĠdomainResult":10138,"à¯ģ":10139,"áīµ":10140,"Updates":10141,"multiSelect":10142,"rolments":10143,"assembled":10144,"DependentBean":10145,"Recorder":10146,"unknownFields":10147,"lambdaInnerClass":10148,"ĠGregorianCalendar":10149,"ĠtenantIdentifier":10150,"Ġapplied":10151,"Î¯Î±":10152,"DENTI":10153,";}":10154,"JS":10155,"Mik":10156,"cue":10157,"culate":10158,"credit":10159,"ges":10160,"sia":10161,"ĠUN":10162,"ĠValidation":10163,"getFrom":10164,"inga":10165,"assertEvent":10166,"adapt":10167,"pring":10168,"ĠgetWidget":10169,"addTest":10170,"forRevisionsOfEntity":10171,"StateOrig":10172,"DataType":10173,"oneToOne":10174,"WithBidirectional":10175,"OneStateOrig":10176,"getCatalog":10177,"Ġ?>>":10178,"ĠFake":10179,"REG":10180,"\\\">":10181,"SizeAnd":10182,"ĠRuntime":10183,"Ġloading":10184,"Ġmappings":10185,"BeanInstance":10186,"InsertStatement":10187,"àª¸":10188,"theInt":10189,"ABC":10190,"columnNames":10191,"SIST":10192,"ĠÐļ":10193,"BinaryArithmetic":10194,"ĠJpaPredicate":10195,"Ġdetached":10196,"originalTimeZone":10197,"FOO":10198,"EEOneStateOrig":10199,"ExtensionContext":10200,"dlTransactionIsolator":10201,"ãĤ¢":10202,"Obfus":10203,"ĠrelAnno":10204,"Ġhours":10205,"Ġcommands":10206,"dstMap":10207,"TenantIdentifier":10208,"ĠAggregate":10209,"Buddy":10210,"ivially":10211,"isOrHasChild":10212,"Ġ}-*/;\",":10213,"ĠmaniesEEOneStateOrig":10214,"84756794987":10215,"SizeAndContent":10216,"DT":10217,"Purchase":10218,"QQ":10219,"TG":10220,"UG":10221,"cp":10222,"like":10223,"more":10224,"poll":10225,"atings":10226,"getSize":10227,"utuna":10228,"ĠgetSource":10229,"addRoot":10230,"Ġreset":10231,"Forward":10232,"Ġconcrete":10233,"extra":10234,"appendLiteral":10235,"ĠDATE":10236,"JsOverlay":10237,"Ġred":10238,"RefCursor":10239,"doWork":10240,"ĠonModuleLoad":10241,"containsValue":10242,"à®¾\");":10243,"Ġlockable":10244,"FIER":10245,"Ġlocales":10246,"CteCriteria":10247,"NEW":10248,"ĠtransactionManager":10249,"LinkedList":10250,"ĠnaturalIdMapping":10251,"ComparisonOperator":10252,"RuntimeModelCreationContext":10253,"ĠsupplementalInfo":10254,"ĠcompareTo":10255,"ĠDialectFeatureChecks":10256,"Correlated":10257,"Fact":10258,"RUN":10259,"Scan":10260,"UUID":10261,"pad":10262,"pager":10263,"ĠIndex":10264,"ĠCheck":10265,"getAccess":10266,"getSettings":10267,"icip":10268,"urity":10269,"rebind":10270,"Ġfun":10271,"setOwner":10272,"setVisible":10273,"Provided":10274,"ĠgetFactory":10275,"ĠgetThis":10276,"addResource":10277,"Idx":10278,"Ġdatetime":10279,"ĠvalueConverter":10280,"ĠJReferenceType":10281,"ParameterValue":10282,"ecurity":10283,"Ġexternal":10284,"Locked":10285,"VisitController":10286,"prepareStatement":10287,"ĠparentAccess":10288,"AndGet":10289,"ĠsubQuery":10290,"Ġ64":10291,"tableExpression":10292,"Dirtiness":10293,"formatter":10294,"Ġordered":10295,"ĠIncompatibleRemoteServiceException":10296,"ĠService":10297,"columnDefinition":10298,"ĠAny":10299,"ĠELSE":10300,"ĠparamTypes":10301,"ADD":10302,"RegionFactory":10303,"ÃŃn":10304,"Amerika":10305,"AggregateColumn":10306,"061":10307,"Doe":10308,"ajor":10309,"âĢĮ":10310,"MultipleCollection":10311,"FetchClauseType":10312,"Ġplus":10313,"2017":10314,"newlineOpt":10315,"å°¼":10316,"!\"":10317,"'>":10318,"({\"":10319,"Austr":10320,"HANA":10321,"Radio":10322,"Sc":10323,"ska":10324,"Î¼":10325,"Ġactive":10326,"ineno":10327,"Ġ=>":10328,"()\",":10329,"getJoinedGroup":10330,"relation":10331,"olom":10332,"unicode":10333,"setScale":10334,"EntityJoin":10335,"Ġds":10336,"Ġdig":10337,"Ġstmt":10338,"TableGenerator":10339,"ĠisNotEmpty":10340,"Ġwarn":10341,"DataRegion":10342,"ĉĉĉĉĉ":10343,")),":10344,"queryEngine":10345,"JsProgram":10346,"moveUp":10347,"DEP":10348,"MetadataBuilder":10349,"ĠEntityKey":10350,"ĠclassDescriptor":10351,"ĠsqlType":10352,"ĠfetchTiming":10353,"../":10354,"ĠWEEK":10355,"tableName":10356,"copyTo":10357,"getKeyboardSelectedRow":10358,"ĠoneToMany":10359,"Ġrefresh":10360,"QUO":10361,"weekOfWeekyear":10362,"getCollectionDescriptor":10363,"Ġdbexpected":10364,"Placeholder":10365,"Ġ'\\''":10366,"Multimap":10367,"andidates":10368,"äºļ":10369,"Written":10370,"Media":10371,"ĠSelectionQuery":10372,"Enumerated":10373,"FractionDigits":10374,"ĠgetForUpdateString":10375,"FEMALE":10376,"DelimitedFrom":10377,"ileged":10378,"LikelyRegionCodes":10379,"San":10380,"Total":10381,"ning":10382,"Ñĩ":10383,"×ĵ":10384,"Ġavailable":10385,"alia":10386,"isClosed":10387,"trl":10388,"getLong":10389,"getFields":10390,"annotated":10391,"Ġtwo":10392,"Ġbld":10393,"Ġbetween":10394,"EntityA":10395,"Ġmiddle":10396,"Prox":10397,"ĠtestDefault":10398,"Chrono":10399,"Ġintern":10400,"Ġconcat":10401,"Serialize":10402,"ChildEntity":10403,"GroupBuilder":10404,"moveDown":10405,"Ġforeign":10406,"ĠcolumnAlias":10407,"ĠSqmLiteral":10408,"ĠDateTimeField":10409,"à®Ł":10410,"Ġtransient":10411,"InterfaceType":10412,"ShortText":10413,"ÙĦØ§":10414,"ĠMappingMetamodel":10415,"Ġinsertable":10416,"ĠCollectionsTestServiceException":10417,"IndexedListJoinColumnBidirectionalRefEdEntity":10418,"Clone":10419,"ResolutionInfo":10420,"details":10421,"Inherited":10422,"ĠSelectStatement":10423,"ĠSTATE":10424,"enableFilter":10425,"Underlying":10426,"OwningEntity":10427,"ElementBuilderBase":10428,"normalize":10429,"getFromClauseAccess":10430,"ApplicationScopedBean":10431,"à¦¼à¦¾\");":10432,"ĠSortedSet":10433,"BQ":10434,"Bul":10435,"Card":10436,"MAR":10437,"Sensitive":10438,"TUR":10439,"lib":10440,"pol":10441,"sa":10442,"tb":10443,"tt":10444,"¦¬":10445,"Ù¹":10446,"isScript":10447,"isAfter":10448,"getStudent":10449,"peating":10450,"Street":10451,"TypeMap":10452,"verage":10453,"actly":10454,"ĠgetJdbcType":10455,"addS":10456,"ĠStringReader":10457,"props":10458,"OrInterface":10459,"ĠPerm":10460,"clob":10461,"Ġcompiler":10462,"Play":10463,"ĠtargetEntity":10464,"EmbeddableMappingType":10465,"FirstWeek":10466,"CriteriaParameter":10467,"saveOrUpdate":10468,"Ġ128":10469,"ĠPropertyPermission":10470,"versable":10471,"Accept":10472,"Ġbinder":10473,"ProcedureParameter":10474,"Marker":10475,"generateSqmExpression":10476,"UniqueConstraint":10477,"ĠLinker":10478,"ĠForeignCustomer":10479,"Accounts":10480,"GeomFromText":10481,"Background":10482,"getLocalName":10483,"Ġtokens":10484,"LinkedHashSet":10485,"FromClauseAccess":10486,"Ġignored":10487,"nae":10488,"ĠmergeFrom":10489,"resolvedType":10490,"ToEntityNameMap":10491,"ĠincrementSize":10492,"à½¼à¼ĭ":10493,"ĠDatabaseVersion":10494,"getExplicitAlias":10495,"WKT":10496,"ialogBox":10497,"WithBidirectionalManyToMany":10498,"Correct":10499,"EQUAL":10500,"Mother":10501,"Slo":10502,"bottom":10503,"blah":10504,"criteriaBuilder":10505,"¥¿":10506,"è¥¿":10507,"êĺ":10508,"ĠÃ":10509,"ĠRow":10510,"ino":10511,"inam":10512,"getMinimumValue":10513,"ores":10514,"pulate":10515,"edMessage":10516,"(\"(":10517,"Ġbsr":10518,"ObjectName":10519,"TimeZones":10520,"serialization":10521,"Ġprod":10522,"SqlExpression":10523,"ailAddresses":10524,"findEntityDescriptor":10525,"compilerContext":10526,"Fetched":10527,"ĠNev":10528,"ĠjdbcCoordinator":10529,"ðĳĦ³":10530,"àºģ":10531,"à®¤":10532,"à°²":10533,"Variations":10534,"SuperClass":10535,"ĠEMPTY":10536,"Timestamps":10537,"053":10538,"getParentElement":10539,"ValuedSimplePath":10540,"Windows":10541,"capabilityExchange":10542,"IGHT":10543,"ACTIVE":10544,"CHARS":10545,"OwnedEntity":10546,"localeData":10547,"ReturnTypeResolver":10548,"Ġusage":10549,"IncrementSize":10550,"ĠDomesticCustomer":10551,"PrinterParser":10552,"LinkerContext":10553,"StrictJpaCompliance":10554,"2011":10555,"Ġevt":10556,"Ġhello":10557,"~~~~~~~~":10558,"enclosingType":10559,"BootDescriptor":10560,"firmed":10561,"EventSinkOnAddHandler":10562,"Bos":10563,"JConstructor":10564,"KI":10565,"OK":10566,"cert":10567,"clause":10568,"Äį":10569,"ĠFormat":10570,"Ġ],":10571,"isTrace":10572,"isNegated":10573,"getStatement":10574,"getLiteral":10575,"getPosition":10576,"Ġ\"\\\\":10577,"Ġsave":10578,"Ġ(;":10579,"(\"\\\"":10580,"setAddress":10581,"setLength":10582,"Ġbid":10583,"ClassNotFoundException":10584,"Loc":10585,"Ġdirection":10586,"Arab":10587,"Ġsetup":10588,"ĠsetVersion":10589,"ĠDerby":10590,"getCell":10591,"Updateable":10592,"TreeSet":10593,"Ġalign":10594,"ĠLine":10595,"BasicValue":10596,"buildingContext":10597,"ĠVoid":10598,"single":10599,"à°ķ":10600,"Editing":10601,"theDouble":10602,"ĠJdbcParameter":10603,"Ġusername":10604,"ĠprocessingState":10605,"àŃĩ":10606,"ĠhqlExecutor":10607,"Ġmonths":10608,"ĠAssociation":10609,"LanguageTag":10610,"caughtException":10611,"Ø¬Ø²":10612,"Integrator":10613,"constructor":10614,"ĠdeclaringClass":10615,"sleep":10616,"isTraceEnabled":10617,"):":10618,"71":10619,"Push":10620,"cOrig":10621,"eer":10622,"page":10623,"rtn":10624,"Î¬":10625,"Øº":10626,"ìķ":10627,"ĠOffset":10628,"ĠProcedureCall":10629,"inc":10630,"getRevision":10631,"getUnknownFields":10632,"Ġ(%":10633,"Ġtup":10634,"setter":10635,"setHeight":10636,"ĠgetParent":10637,"Ġdi":10638,"ĠtestRe":10639,"plain":10640,"ĠsetS":10641,"Ġaffect":10642,"Ġ28":10643,"ĠMI":10644,"queryPart":10645,"TreeWalker":10646,"oundingMode":10647,"getScroll":10648,"ORITY":10649,"subMap":10650,"copyAttribute":10651,"à¬¸":10652,"àª¯":10653,"àª²":10654,"getNum":10655,"áĬ«":10656,"7678":10657,"Acme":10658,"Ġaddresses":10659,"Ð²Ðµ":10660,"ĠpersistentField":10661,"à¯į\");":10662,"Ġrenderer":10663,"Orders":10664,"UnknownFieldSet":10665,"Exports":10666,"MenuBar":10667,"isInstanceOf":10668,"ÑģÑĤÐ°Ð½":10669,"SubQueryPredicate":10670,"ĠsortedSet":10671,"COMMIT":10672,"Ġ\"_\"":10673,"parsedMessage":10674,"ĠeeOne":10675,"CodedInputStream":10676,"FieldAccessorTable":10677,"relevantEntity":10678,"ĠOrderingParser":10679,"Continuation":10680,"1212478987482988429808779810457634781384756794987":10681,"JPrimitiveType":10682,"MajorVersion":10683,"hide":10684,"mer":10685,"nickName":10686,"ĠInstance":10687,"ĠConstants":10688,"ĠManyToMany":10689,"onical":10690,"allocate":10691,"(\");":10692,"Ġcat":10693,"assertDeleteCount":10694,"omit":10695,"NameCoder":10696,"setInt":10697,"QueryMemento":10698,"Ġparty":10699,"EventBus":10700,"Initiator":10701,"getCopy":10702,"findMethod":10703,"ROLL":10704,"Visited":10705,"ĠNANO":10706,"ĠsqlException":10707,"AuditStrategy":10708,"AndReset":10709,"removeAll":10710,"ĠindexOf":10711,"ĠsuperType":10712,"pensive":10713,"ĠloadLikelyRegionCodes":10714,"Starting":10715,"criminated":10716,"replacement":10717,"HourOfDay":10718,"HandExpression":10719,"CompositeId":10720,"MutablePeriod":10721,"moduleDef":10722,"MouseDownEvent":10723,"à¹Į":10724,"LanguageParser":10725,"ÐµÐ½ÑĤ":10726,"getJdbcTypeCount":10727,"Ġmarshal":10728,"ĠGeomTest":10729,"COMMA":10730,"SRID":10731,"ĠTobag":10732,"KnownDir":10733,"emoized":10734,"Ilhas":10735,"ĠTypedArrays":10736,"Linux":10737,"DaysInFirstWeek":10738,"EAR":10739,"Follow":10740,"JTA":10741,"JGenericType":10742,"RP":10743,"VU":10744,"jakarta":10745,"rpc":10746,"ĠArtifactSet":10747,"eto":10748,"ati":10749,"aln":10750,"isAttached":10751,"getInstant":10752,"getExpr":10753,"getOriginal":10754,"ittle":10755,"assertConstraintValidator":10756,"ifo":10757,"chronology":10758,"chunk":10759,"ĠtestNull":10760,"emulate":10761,"Deferred":10762,"OfHalfday":10763,"ĠJUnit":10764,"Ġjjs":10765,"ĠentityMapping":10766,"ĠBuffer":10767,"ĠTR":10768,"encoding":10769,"checkReadOnly":10770,"ĠFutuna":10771,"++);":10772,"Fetches":10773,"SqmPredicate":10774,"LockTimeout":10775,"ĠUnknown":10776,"aziness":10777,"Supert":10778,"à®®":10779,"à°¸":10780,"Ġminutes":10781,"ReadOnlyObjects":10782,"ĠAnnotationDescriptor":10783,"JTypeParameter":10784,"ĠFetchTiming":10785,"âĢĵ":10786,"finishTestAndReset":10787,"Ġassignments":10788,"Ġsteve":10789,"ĠSocketException":10790,"Ġ/*-{\",":10791,"ReflectHelper":10792,")\").":10793,",_":10794,"Pacific":10795,"TV":10796,"[[],":10797,"files":10798,"sers":10799,"×¡":10800,"isi":10801,"isPresent":10802,"getID":10803,"getAttributeMapping":10804,"getOp":10805,"getInternalName":10806,"itude":10807,"arrow":10808,"Ġcs":10809,"Ġcoin":10810,"estimate":10811,"setH":10812,"ĠgetSessionFactory":10813,"QueryParam":10814,"Department":10815,"Unserializable":10816,"Ġjprogram":10817,"ither":10818,"ĠresultClass":10819,"Regex":10820,"à¤¹":10821,"ĠtoOne":10822,"ĠcreateReader":10823,"ParserException":10824,"Ġadded":10825,"MEDI":10826,"ĠqueryName":10827,"AsSafeHtml":10828,"CacheEntry":10829,"LoadAccess":10830,"readInt":10831,"renad":10832,"ĠonBrowserEvent":10833,"amped":10834,"registerCopy":10835,"registerStoredProcedureParameter":10836,"ĠcollectionType":10837,"otherEntity":10838,"ParamTestClass":10839,"à²ķ":10840,"SafeSet":10841,"ĠparameterType":10842,"sessionFactoryScope":10843,"getNavigableRole":10844,"TupleQuery":10845,"ÑģÐº":10846,"heel":10847,"getSqlExpressionResolver":10848,"transfer":10849,"ÑĥÐ´":10850,"Addition":10851,"ModifiedFlag":10852,"SelectableMapping":10853,"KeysFactory":10854,"WrapWith":10855,"Ġyears":10856,"ĠJMethodCall":10857,"Ġrequires":10858,"SelfRendering":10859,"domainParameterXref":10860,"RpcToken":10861,"subject":10862,"ĠXmlFriendly":10863,"Ġenclosing":10864,"ĠSelectableMapping":10865,"Ceiling":10866,"Ġcreator":10867,"AndFormulasSource":10868,"/>\");":10869,"Aware":10870,"EZ":10871,"must":10872,"zero":10873,"Ãª":10874,"Ä±":10875,"ÛĨ":10876,"ĠNot":10877,"alone":10878,"getManies":10879,"MapJoin":10880,"sec":10881,"Exporter":10882,"Ġmo":10883,"Ġmissing":10884,"ĠsetTitle":10885,"Ġidentity":10886,"ByClause":10887,"acklist":10888,"Serial":10889,"ĠPlace":10890,"perform":10891,"ignature":10892,"Alter":10893,"ĠdeepCopy":10894,"Comments":10895,"ĠexpectedType":10896,"Subtype":10897,"\\\"/>\\":10898,"Ġenv":10899,"AndClear":10900,"OperationGroup":10901,"lockMode":10902,"BeanRegistry":10903,"áŀ¼":10904,"ParamTypes":10905,"à¬ķ":10906,"getResultSet":10907,"NODE":10908,"Ġwhich":10909,"Ø³ÙĪ":10910,"ScrollableResults":10911,"Timer":10912,"icket":10913,"DiscriminatorValue":10914,"ClassLoaderService":10915,"ðĲĳĬ":10916,"Ð°ÑĢÑĭ":10917,"getDifference":10918,"StorageAccess":10919,"Ġtxn":10920,"ĠbatchSize":10921,"InitializationException":10922,"Membership":10923,"binarySearch":10924,"KYO":10925,"WildcardType":10926,"JtaPlatformImpl":10927,"ĠGwtLocale":10928,"idiUtils":10929,"ĠModuleDef":10930,"IdentityColumnSupport":10931,"WrapWithKnownDir":10932,"Fd":10933,"FUNCTION":10934,"Jam":10935,"Wheel":10936,"gender":10937,"ipe":10938,"kw":10939,"Ð¨":10940,"ism":10941,"getRef":10942,"Ġcmd":10943,"ints":10944,"Ġdto":10945,"ĠtestFor":10946,"Collation":10947,"prod":10948,"ather":10949,"TransactionManager":10950,"AnEntity":10951,"tool":10952,"TableSection":10953,"newHashSet":10954,"achers":10955,"ĠCat":10956,"ĠCLOSE":10957,"Nullness":10958,"à¤«":10959,"nameTo":10960,"dateTime":10961,"ĠtoType":10962,"SqlType":10963,"ReferenceData":10964,"Ġrtn":10965,"compiled":10966,"SelectionProperty":10967,"Ġshared":10968,"COUNT":10969,"Ġ999":10970,"ĠJdbcOperation":10971,"Ð°Ð·":10972,"Ġassumption":10973,"ResultsMetadata":10974,"ĠÐľ":10975,"CAPE":10976,"poch":10977,"divide":10978,"ãĥ³":10979,"ĠstyleName":10980,"getCurrentClauseStack":10981,"Clamped":10982,"ĠConvert":10983,"ĠEmbeddableMappingType":10984,"OPTI":10985,"ĠpluralForms":10986,"Ð¼ÐµÑĢ":10987,"ĠBytecode":10988,"OrderByClause":10989,"ĠJSONException":10990,"Ġsfb":10991,"ĠgetQueryOptions":10992,"NUMERIC":10993,"Preparer":10994,"ĠgetWrappedField":10995,"ĠMILLIS":10996,"Fin":10997,"Ljava":10998,"RestartWebServer":10999,"Vat":11000,"WORD":11001,"YPE":11002,"ze":11003,"Ðł":11004,"ĠGenerator":11005,"ĠStylesBuilder":11006,"alysis":11007,"ases":11008,"getA":11009,"getDocument":11010,"getShort":11011,"getVisible":11012,"Repository":11013,"setNumber":11014,"Ġbu":11015,"ĠgetIndex":11016,"Ġdc":11017,"ToAny":11018,"fering":11019,"Three":11020,"Unwrap":11021,"parts":11022,"INCT":11023,"AttributeJoin":11024,"Ġtheir":11025,"ĠTYPE":11026,"ocused":11027,"Generics":11028,"FromEntity":11029,"inea":11030,"Subtypes":11031,"DefaultValue":11032,"orea":11033,"ĠkeyProvider":11034,"fieldType":11035,"Special":11036,"BindingProperty":11037,"NoProxy":11038,"ReturnableType":11039,"áŀĵ":11040,"à°¾\");":11041,"ĠOP":11042,"Ġparameterized":11043,"orderColumns":11044,"Ð°Ð²":11045,"ImageResource":11046,"ĠPropertyData":11047,"joined":11048,"AsyncCallback":11049,"FACTOR":11050,"renderer":11051,"ickup":11052,"ĠactionList":11053,"flict":11054,"ĠlineNumber":11055,"Escap":11056,"connectLog":11057,"Ġvarchar":11058,"Ú¯ÙĪ":11059,"ĠoptimizerCtx":11060,"Pairs":11061,"ĠgwtSetUp":11062,"addAttributeNodes":11063,"APP":11064,"persistentClass":11065,"MATERI":11066,"ortalLogger":11067,"._":11068,"Hide":11069,"SOR":11070,"SUB":11071,"df":11072,"lb":11073,"Ġ];":11074,"ĠToOneAttributeMapping":11075,"inid":11076,"ased":11077,"()]);":11078,"getOracle":11079,"getTab":11080,"Ġclob":11081,"TypeVariable":11082,"stable":11083,"Ġfont":11084,"Ġfqcn":11085,"ĠgetPre":11086,"ĠgetEntityName":11087,"Ġdistance":11088,"entityPersister":11089,"ToMap":11090,"procedure":11091,"createTupleQuery":11092,"ElementCollection":11093,"STAT":11094,"FromCompiler":11095,"ĠEntityType":11096,"JavaTypeClass":11097,"Ġobjects":11098,"ReadExpression":11099,"SimpleBarProxy":11100,"cause":11101,"Connections":11102,"methods":11103,"currentThread":11104,"ĠlongVal":11105,"â´¼":11106,"disable":11107,"Ġcallable":11108,"ValidatorFactory":11109,"ÑĥÐ±":11110,"aterThan":11111,"hourOfHalfday":11112,"à±į\");":11113,"flat":11114,"Ġencode":11115,"áŁī":11116,"Backref":11117,"Relational":11118,"Ġregistered":11119,"ĠmanagedCtClass":11120,"ĠIntStream":11121,"ĠaggregateColumn":11122,"Ġqualifier":11123,"ConversionInfo":11124,"ĠVALUES":11125,"DateFormatSymbols":11126,"à¸²à¸":11127,"IncrementalRecompile":11128,"sfb":11129,"SPAM":11130,"CrossJoin":11131,"oserFactory":11132,"But":11133,"Fab":11134,"Kongo":11135,"bab":11136,"efined":11137,"×¤":11138,"Ġent":11139,"isRoot":11140,"getState":11141,"getPersister":11142,"getVisibleRange":11143,"getDomainModel":11144,"getEras":11145,"getPrimaryTableReference":11146,"roken":11147,"Ġso":11148,"IncompatibleRemoteServiceException":11149,"setCacheable":11150,"ValueChange":11151,"ĠsetText":11152,"uba":11153,"Ġrect":11154,"Ġcontributor":11155,"ĠPER":11156,"NullString":11157,"Emulate":11158,"shift":11159,"ĠcreateData":11160,"LEN":11161,"ĠEntityDomainType":11162,"TextHelper":11163,"items":11164,"EnumSet":11165,"CaseSearchedExpression":11166,"à²¾\");":11167,"Ġstatements":11168,"àªķ":11169,"àª¾\");":11170,"HibernateProxy":11171,"à´±":11172,"RevisionEntity":11173,"FragmentId":11174,"à·Ķ":11175,"ĠSessionImplementor":11176,"irectionalTextHelper":11177,"MOUSE":11178,"Marshal":11179,"1972":11180,"ĠstreamWriter":11181,"UMN":11182,"simpleFooRequest":11183,"ĠZONE":11184,"uggestion":11185,"Escaped":11186,"PersistentAttributeInterceptable":11187,"rolment":11188,"ĠcatalogName":11189,"ichTextArea":11190,"SingularAttribute":11191,"Antig":11192,"selectableMapping":11193,"Ġrestrictions":11194,"traverseRelation":11195,"PATTERN":11196,"vancedEntity":11197,"getFullPath":11198,"sumedEvents":11199,"DatagramChannel":11200,"<?,?>":11201,"Border":11202,"Ear":11203,"Laziness":11204,"SX":11205,"UAL":11206,"WHERE":11207,"×ĳ":11208,"getMonth":11209,"getItems":11210,"getTitle":11211,"ark":11212,"Ġ\"`":11213,"uel":11214,"InetSocketAddress":11215,"Exclude":11216,"ĠpCheck":11217,"ĠSybase":11218,"ĠStringWriter":11219,"StatelessSession":11220,"ĠJan":11221,"SessionServices":11222,"irth":11223,"PathName":11224,"STORE":11225,"JsOutputOption":11226,"Namespaces":11227,"ArgumentContext":11228,"ĠqueryForProperty":11229,"DES":11230,"failure":11231,"Selectables":11232,"ROUP":11233,"Ð¸ÑĢ":11234,"TargetType":11235,"ĠfetchBuilder":11236,"Minus":11237,"ServiceRegistryImplementor":11238,"à²¸":11239,"ĠInheritance":11240,"ideo":11241,"Determination":11242,"SequenceGenerator":11243,"Ġinstantiation":11244,"Blocking":11245,"áĬĵ":11246,"ĠcacheRegion":11247,"Capable":11248,"Ġminus":11249,"ĠEntityOfLists":11250,"Domin":11251,"PROP":11252,"âĢĭ":11253,"ĠPluralAttribute":11254,"ĠstrategySelector":11255,"Built":11256,"FkOptimization":11257,"ĠjsniMethod":11258,"CLU":11259,"ĠSELECT":11260,"Step":11261,"publisher":11262,"à½ºà¼ĭ":11263,"ĠHelper":11264,"setMaxResults":11265,"Launch":11266,"ALIZED":11267,"ĠJAKARTA":11268,"DENTIFIER":11269,"êĺĭ":11270,"ĠLineItem":11271,"ĠTobago":11272,"JUnit":11273,"Random":11274,"lon":11275,"merged":11276,"pack":11277,"sym":11278,"writ":11279,"Ðŀ":11280,"ĠStrategy":11281,"Ġknown":11282,"leaf":11283,"InQuery":11284,"ooled":11285,"ibut":11286,"ĠgetFilter":11287,"ĠtestEmpty":11288,"QueryOptions":11289,"android":11290,"BuilderTest":11291,"Ġ2000":11292,"ĠBad":11293,"à¤ĩ":11294,"ddhist":11295,"illi":11296,"Addr":11297,"Ġseen":11298,"printStackTrace":11299,"AsLong":11300,"à¦¤":11301,"closed":11302,"ĠcolumnTypeName":11303,"CESS":11304,"getSort":11305,"ĠattributeMappings":11306,"áĪĭ":11307,"Ġaccum":11308,"HasBar":11309,"ĠsecondaryTable":11310,"TOKYO":11311,"frica":11312,"ParameterizedQualifiedSourceName":11313,"BASE":11314,"Mismatch":11315,"ConnectionProviderImpl":11316,"JsoImpl":11317,"ĠbootDescriptor":11318,"ToEntityAttribute":11319,"intoString":11320,"Packet":11321,"ç¾¤":11322,"Delayed":11323,"voice":11324,"Ġviolations":11325,"STATUS":11326,".%":11327,"57":11328,"58":11329,"509":11330,"Distance":11331,"ILD":11332,"SAX":11333,"Was":11334,"spring":11335,"yg":11336,"{@":11337,"ĠLog":11338,"ĠResponse":11339,"asWidget":11340,"getG":11341,"Ġsynchronization":11342,"essThan":11343,"Ġcurr":11344,"Ġtid":11345,"setWidth":11346,"Ġbool":11347,"Ġda":11348,"ObjectException":11349,"DatePicker":11350,"project":11351,"Answ":11352,"toDateTime":11353,"ArrayOf":11354,"newBuilder":11355,"Ġword":11356,"ĠwrapperOptions":11357,"à¤¦":11358,"querySpec":11359,"JdbcConnectionAccess":11360,"AnnotationDescriptor":11361,"SqmSelectStatement":11362,"ĠGender":11363,"Readers":11364,"áĢĻ":11365,"ĠrootTableGroup":11366,"ðĳĦ®":11367,"Returning":11368,"devMode":11369,"writeInt":11370,"javac":11371,"interfaces":11372,"ĠparameterName":11373,"Tokens":11374,"ĠcheckSerialization":11375,"ĠarrayType":11376,"getElementType":11377,"MemberType":11378,"WorkDir":11379,"Ġuuid":11380,"Imports":11381,"ivery":11382,"FINEST":11383,"HostedMode":11384,"ĠjpaMetamodel":11385,"ĠSECOND":11386,"Ġdefine":11387,"PropertyValueException":11388,"ĠOracleDialect":11389,"www":11390,"à½´à¼ĭ":11391,"SerializableTypeOracleBuilder":11392,"ĠBlockScope":11393,"43":11394,"FFIX":11395,"JSO":11396,"Pag":11397,"Sv":11398,"]))":11399,"curr":11400,"half":11401,"iChronology":11402,"ku":11403,"nodes":11404,"nano":11405,"ven":11406,"ĠContainer":11407,"ĠIndexed":11408,"ĠOffsetDateTime":11409,"ĠStackTraceElement":11410,"getMap":11411,"getNumber":11412,"getDuration":11413,"getKind":11414,"thers":11415,"rea":11416,"unexpected":11417,"erscore":11418,"addProperty":11419,"ĠSpeedTracerLogger":11420,"TestCase":11421,"QueryWalker":11422,"Undefined":11423,"Ġlob":11424,"ĠBuild":11425,"à¤£":11426,"Ġdepth":11427,"ArgFunctionAs":11428,"OnError":11429,"CacheMissCount":11430,"ĠNor":11431,"linker":11432,"Ġsuperclass":11433,"ðĳĦ§":11434,"ComponentType":11435,"Contracts":11436,"ĠcollectionPersister":11437,"BigLong":11438,"ĠLongStream":11439,"áĪį":11440,"ðĲĲ¼":11441,"ConstraintDescriptor":11442,"Ð°Ðº":11443,"Modification":11444,"ValidatorFor":11445,"ĠQueryLiteral":11446,"áĭŃ":11447,"Collectors":11448,"ĠidentifierGenerator":11449,"CompositeType":11450,"áİł":11451,"Updatable":11452,"ImmutableType":11453,"====":11454,"DirectionEstimator":11455,"varchar":11456,"InstantiationException":11457,"Perform":11458,"ĠIterable":11459,"bindingProperty":11460,"copyOfRange":11461,"ĠceManies":11462,"getHuman":11463,"SUFFIX":11464,"Ġ3660":11465,"entral":11466,"runtimeModelCreationContext":11467,"ĠCompilationUnit":11468,"NotSupportedException":11469,"áĢŃáĢ¯":11470,"OccurrenceInQuery":11471,"SurfaceData":11472,"ìķĦ":11473,"63":11474,":\"":11475,"BIT":11476,"Dummy":11477,"Small":11478,"Ur":11479,"cr":11480,"global":11481,"nt":11482,"Ûģ":11483,"ĠEmbedded":11484,"alCode":11485,"getRegion":11486,"getOutput":11487,"getBaseType":11488,"Ġ\"?":11489,"tho":11490,"stmt":11491,"ĠtestInsert":11492,"ĠtestAssert":11493,"employees":11494,"ValueParameter":11495,"ĠsetFirst":11496,"toSource":11497,"Ġip":11498,"ByKey":11499,"MethodCall":11500,"Ġhand":11501,"ĠHql":11502,"percent":11503,"SourceFile":11504,"extended":11505,"shake":11506,"aryTables":11507,"Ġgrand":11508,"REE":11509,"findSubPart":11510,"lower":11511,"SqmFrom":11512,"SqmPathSource":11513,"ployment":11514,"StandardImpl":11515,"ĠjdbcParameter":11516,"subtract":11517,"TableGroupProducer":11518,"ĠWeb":11519,"à¨ķ":11520,"ĠInetSocketAddress":11521,"ĠsqmParameter":11522,"ĠServlet":11523,"ĠBasicTestEntity":11524,"ĠBasicAttributeMapping":11525,"canvas":11526,"Capt":11527,"Extends":11528,"Ġchars":11529,"Expos":11530,"EXT":11531,"ĠAnnotationFactory":11532,"ACC":11533,"roundHalf":11534,"ĠloadedChild":11535,"ĠMutableInterval":11536,"OOD":11537,"CREMENT":11538,"SelfReference":11539,"SemanticQueryWalker":11540,"ðĳĦ´\");":11541,"embedded":11542,"JSONObject":11543,"ĠDiscriminator":11544,"ĠprocedureName":11545,"laps":11546,"Steve":11547,"assertNumberOfOccurrenceInQuery":11548,"Ġnegated":11549,"origin":11550,"olatte":11551,"Ġassemble":11552,"okeStyle":11553,"ÑĦÑĢÐ¸":11554,"Ġaffected":11555,"Les":11556,"Pad":11557,"Tx":11558,"home":11559,"txt":11560,"uv":11561,"Ã»":11562,"æĭ":11563,"Ġ$$_":11564,"asi":11565,"isNative":11566,"isParameterized":11567,"getFoo":11568,"getDomain":11569,"getLockOptions":11570,"getUnderlying":11571,"received":11572,"repeat":11573,"Replacer":11574,"Ġbad":11575,"Ġmed":11576,"Ġmater":11577,"utdown":11578,"ĠSET":11579,"ansa":11580,"Ancestor":11581,"Ġjakarta":11582,"Ġcons":11583,"ĠClick":11584,"CollectionMapper":11585,"superClass":11586,"Ġ'\\\\":11587,"regex":11588,"ALF":11589,"getClazz":11590,"ĠexpectedXml":11591,"OptionsImpl":11592,"ĠSqmFrom":11593,"AndSet":11594,"Specified":11595,"áĢħ":11596,"ĠJsni":11597,"ATCH":11598,"NoCascadeOne":11599,"IsNull":11600,"ĠWeek":11601,"áŀĶ":11602,"Ð¾Ñģ":11603,"Ð¾Ð¼":11604,"StatisticsEnabled":11605,"binder":11606,"Ġ__":11607,"marshallingContext":11608,"fetched":11609,"ĠbindValue":11610,"áĭµ":11611,"ManyToOneSelfReference":11612,"ÙħØ§ÙĦ":11613,"runPass":11614,"à³į\");":11615,"SHORT":11616,"à«ĭ":11617,"updatable":11618,"00000008":11619,",?,?":11620,"LoggableString":11621,"getWidgetIndex":11622,"Ġ\":\"":11623,"MappingModelCreationProcess":11624,"iveness":11625,"Packages":11626,"Enumeration":11627,"MulIdEntity":11628,"ĠminuteOfHour":11629,"LICIT":11630,"isColumnPresent":11631,"åĪ©":11632,"ufffd":11633,";&#":11634,"Bang":11635,"Cat":11636,"Dock":11637,"Loop":11638,"_,":11639,"dynamic":11640,"jjs":11641,"Ã´":11642,"×Ĵ":11643,"ĠGenerated":11644,"trusted":11645,"getTableReference":11646,"getEntities":11647,"Ġsample":11648,"(\".*":11649,"ĠcorrelatedRoot":11650,"NameAnd":11651,"setString":11652,"setMessage":11653,"igr":11654,"ĠSecurity":11655,"ĠtestList":11656,"ĠtestCan":11657,"008":11658,"ĠvalueMapping":11659,"consumer":11660,"ForValue":11661,"ĠJBinaryOperator":11662,"ĠCON":11663,"ĠCockroach":11664,"MethodBinding":11665,"AttributeType":11666,"CollectionEntry":11667,"ĠDatagram":11668,"Ġdeque":11669,"FunctionFactory":11670,"LockString":11671,"ĠArrayHelper":11672,"ĠSqmRoot":11673,"Configurations":11674,"vide":11675,"ĠsqlSelections":11676,"longVal":11677,"linked":11678,"ReadWrite":11679,"ĠJsArray":11680,"à¸¢":11681,"áŀ¢":11682,"ĠtargetClass":11683,"ĠmetadataBuilder":11684,"reflection":11685,"ĠJavaScript":11686,"Calc":11687,"transport":11688,"InternalFrame":11689,"ĠChildWithBidirectionalManyToMany":11690,"ĠconvertToEntityAttribute":11691,"QUENCE":11692,"ĠYEAR":11693,"Ġpossible":11694,"Fonts":11695,"Suggestions":11696,"ĠEmployer":11697,"ovina":11698,"InvocationTargetException":11699,"getResourceRegistry":11700,"Summarization":11701,"Ġpeople":11702,"declaringClass":11703,"getSelectionExpression":11704,"Ġfilename":11705,"áĥ£áĥ":11706,"($":11707,"Casc":11708,"JParameterizedType":11709,"Mad":11710,"dest":11711,"fk":11712,"pg":11713,"Ò¯":11714,"×§":11715,"ĠLogger":11716,"lee":11717,"asz":11718,"getter":11719,"getConnection":11720,"getLimitHandler":11721,"getExpressibleJavaType":11722,"itted":11723,"anInt":11724,"Ġcud":11725,"retrieve":11726,"Ġbits":11727,"Ġbottom":11728,"EntityData":11729,"ĠĠĠĠĠĠ":11730,"Ġmask":11731,"Ġdot":11732,"ĠtestClass":11733,"ĠtestData":11734,"ĠtestNon":11735,"riends":11736,"TableMapping":11737,"ColumnSort":11738,"ĠCached":11739,"perm":11740,"ĠMod":11741,"Within":11742,"ociate":11743,"Compound":11744,"JsNative":11745,"getCategoriesWithDesc":11746,"ĠexpectedInitializedObjects":11747,"RootClass":11748,"ĠSqmQueryImplementor":11749,"SelectionEvent":11750,"ĠGu":11751,"áĢĲ":11752,"Ġimplied":11753,"ErrorReporter":11754,"stringType":11755,"áŀł":11756,"à´¨":11757,"ViewData":11758,"disabled":11759,"ĠhasSize":11760,"mappedBy":11761,"getSqlType":11762,"ldr":11763,"canUse":11764,"Comparable":11765,"ĠAudited":11766,"AutoClose":11767,"RunWith":11768,"millisOfDay":11769,"QUAR":11770,"ĠTemporaryTable":11771,"groups":11772,"ĠSqlAstTranslator":11773,"Ġuste":11774,"PropNamedId":11775,"dirty":11776,"ĠAttributeConverter":11777,"Permutations":11778,"ĠcompanyDto":11779,"Ġcontents":11780,"ĠBarb":11781,"ParsingTestEntity":11782,"ROWS":11783,"contained":11784,"DoNotRunWith":11785,"MEDIATE":11786,"CW":11787,"CLI":11788,"Jap":11789,"Mater":11790,"\\\");":11791,"mts":11792,"middle":11793,"ĠExtended":11794,"alest":11795,"ena":11796,"trict":11797,"trunc":11798,"getModel":11799,"getPost":11800,"ĠgetParameter":11801,"ĠgetReader":11802,"ĠgetTarget":11803,"ĠgetSorted":11804,"IdPropertyName":11805,"ĠSw":11806,"TestUtils":11807,"avg":11808,"Translation":11809,"Ġhigh":11810,"ĠBu":11811,"CollectionRecreate":11812,"Interner":11813,"opp":11814,"ĠexpectedReadOnlyObjects":11815,"ĠFru":11816,"RESOURCE":11817,"SqmExpressible":11818,"Ġunits":11819,"Outside":11820,"grand":11821,"SelectionHandler":11822,"readOnly":11823,"Ġsubtype":11824,"ðĳĦ¥":11825,"ĠVirg":11826,"Ð¾Ð¿":11827,"à¬Ĩ":11828,"NamedTableReference":11829,"jsUtils":11830,"('\"":11831,"LazyAttribute":11832,"1582":11833,"MIL":11834,"ĠChildEntity":11835,"648":11836,"SqlAstCreationState":11837,"áİµ":11838,"referencing":11839,"ĠreferencedEntity":11840,"Ġencoded":11841,"Ġspecification":11842,"SkipLocked":11843,"Ġnever":11844,"ĠdiscriminatorValue":11845,"NavigableRole":11846,"OrderedSet":11847,"Ġenhanced":11848,"JAKARTA":11849,"idental":11850,"DomainModelScope":11851,"UnaryOperator":11852,"Micros":11853,"Affected":11854,"Quoting":11855,"commendedJdbcType":11856,"Enclosing":11857,"ĠBuffered":11858,"getErasedType":11859,"ĠFruit":11860,"(()":11861,")*":11862,"53":11863,"Di":11864,"Datetime":11865,"DatagramSocket":11866,"Farm":11867,"Gine":11868,"]]":11869,"awt":11870,"aÅĭ":11871,"bi":11872,"sink":11873,"uced":11874,"á»":11875,"ä¸":11876,"ĠArgument":11877,"Ġà¶":11878,"ĠArchive":11879,"onBrowserEvent":11880,"()\"":11881,"isConnected":11882,"getMin":11883,"getAuditReader":11884,"ars":11885,"assertDebugId":11886,"Ġfn":11887,"Ġfmt":11888,"setPerson":11889,"EntityProxy":11890,"iving":11891,"ĠgetOffset":11892,"ĠgetBuildingContext":11893,"Ġocc":11894,"Ġproto":11895,"OrBuilder":11896,"MethodId":11897,"Email":11898,"ĠMONTH":11899,"ignore":11900,"StatementRanges":11901,"Grouping":11902,"FileType":11903,"LongEmul":11904,"UpdateClause":11905,"AsStream":11906,"ĠkeySet":11907,"DayOfYear":11908,"CEND":11909,"ĠGrenad":11910,"StandardOffset":11911,"ĠsubType":11912,"SimpleNaturalId":11913,"NoWrap":11914,"ðĳĦĩ":11915,"Ġservlet":11916,"CaseStrategy":11917,"VALUES":11918,"ĠSQLServer":11919,"NotFoundAction":11920,"Ġ\"'\"":11921,"ĠAuditReader":11922,"ĠEventListener":11923,"ĠSessionFactoryBuilder":11924,"WrapperOptions":11925,"Advice":11926,"works":11927,"ĠNativeEvent":11928,"download":11929,"Biowning":11930,"lazySession":11931,"ĠhintName":11932,"âµīâµĶ":11933,"getSuperClass":11934,"TestingImpl":11935,"ĠAssertionError":11936,"getFirstChildElement":11937,"reqs":11938,"resultSetMapping":11939,"getPhones":11940,"BeanInstanceProducer":11941,"').":11942,"(<":11943,"=*,":11944,"Fake":11945,"HALF":11946,"NON":11947,"Rules":11948,"bits":11949,"jector":11950,"uc":11951,"Ð£":11952,"ĠParameters":11953,"ĠCondition":11954,"etitor":11955,"getArguments":11956,"ito":11957,"(\"$":11958,"quantity":11959,"olume":11960,"setTarget":11961,"ClassInfo":11962,"IdEntity":11963,"ĠtestSelect":11964,"ĠJTS":11965,"Seq":11966,"ArrayEquals":11967,"createElement":11968,"newValue":11969,"ByType":11970,"ĠCSS":11971,"MethodCreator":11972,"ĠMari":11973,"ocity":11974,"ĠpropertyValue":11975,"encoded":11976,"complete":11977,"Pojo":11978,"TIES":11979,"Ġorm":11980,"ĠtableInformation":11981,"AsProxy":11982,"à¦ĩ":11983,"ListenerWrapper":11984,"rootEntityDescriptor":11985,"ĠSqmFunction":11986,"SelectionPolicy":11987,"eried":11988,"olog":11989,"StandardFunction":11990,"ĠattributeSource":11991,"Ġyet":11992,"javax":11993,"MetamodelClass":11994,"ĠdataSource":11995,"JMethodBody":11996,"Matchers":11997,"LineItem":11998,"ĠÐ¡":11999,"ĠlocaleData":12000,"DatabaseColumn":12001,"Optimize":12002,"Visibility":12003,"Ġ\"'\");":12004,"ughtworks":12005,"ĠapplySqlSelections":12006,"ĠMappingModelExpressible":12007,"processSql":12008,"Password":12009,"Divide":12010,"Stylesheet":12011,"GenericClass":12012,"Lenient":12013,"ukasz":12014,"ILING":12015,"cssTree":12016,"SKIP":12017,"CALL":12018,"getComponentType":12019,"getStartMillis":12020,"ĠunwrapType":12021,"SampleMaps":12022,"ĠfromClauseAccess":12023,"uryOfEra":12024,"ĠinverseJoinColumns":12025,"Decorator":12026,"ĠtreatTargetType":12027,"CodedOutputStream":12028,"ndiName":12029,"MULTICAST":12030,"assertFileExists":12031,"createTempFile":12032,"IntegralDataType":12033,"SpatialFunction":12034,"ĠsubtrahendInstant":12035,"inidad":12036,"IntegralDataTypeHolder":12037,"Far":12038,"Folder":12039,"HAND":12040,"SING":12041,"Synchronize":12042,"ded":12043,"direction":12044,"ef":12045,"ga":12046,"iInstant":12047,"ÖĤ":12048,"Úª":12049,"Ġut":12050,"ĠON":12051,"Ġast":12052,"ĠEnhancement":12053,"erialized":12054,"getMetamodel":12055,"getEmbedded":12056,"getQualifier":12057,"getLanguage":12058,"getSelections":12059,"getParameterizedQualifiedSourceName":12060,"orter":12061,"ingEvent":12062,"Ġnature":12063,"Ġ(?":12064,"Ġcd":12065,"Ġtyped":12066,"Received":12067,"Stand":12068,"Ġbaz":12069,"ĠgetText":12070,"Ġlateral":12071,"failed":12072,"Ġrecursive":12073,"Ġreceived":12074,"toText":12075,"Ġwa":12076,"cessary":12077,"ĠClob":12078,"ĠPrimary":12079,"ĠObjectOutputStream":12080,"Ġ'('":12081,"ĠaddDomHandler":12082,"REN":12083,"getTransactionManager":12084,"BasicAttributeMapping":12085,"LoadCount":12086,"Ð¸Ð¹":12087,"Ø§Ø¦":12088,"Ð½Ð´":12089,"ðĳĦª":12090,"ificate":12091,"aintColor":12092,"HtmlUnit":12093,"UserTransaction":12094,"à®²":12095,"getJdbcJavaType":12096,"ĠSqlStringGenerationContext":12097,"eventBus":12098,"áĪĬ":12099,"ÃŃa":12100,"AbstractResource":12101,"ĠcacheKey":12102,"CustomType":12103,"Ġlocalized":12104,"Marshall":12105,"Ð»Ð°Ð½Ð´":12106,"ĠJoinColumn":12107,"ĠMockHasData":12108,"Ġprocessing":12109,"ESCAPE":12110,"Queued":12111,"ĠMathContext":12112,"ComplianceEnabled":12113,"ARRLEN":12114,"LeafType":12115,"Î¹Îº":12116,"ĠyogiExpected":12117,"ĠprocedureCall":12118,"ĠAmerika":12119,"Ġowning":12120,"ĠAutoBean":12121,"FLOAT":12122,"alyze":12123,"thoughtworks":12124,"'>\");":12125,"ADED":12126,"JRunAsync":12127,"Mor":12128,"cD":12129,"fallback":12130,"mce":12131,"pers":12132,"same":12133,"zh":12134,"Ã¸":12135,"å¤":12136,"ĠRegExp":12137,"()'":12138,"isIn":12139,"getJ":12140,"getBind":12141,"getScope":12142,"getPrefix":12143,"getTop":12144,"ulated":12145,"Ġcourse":12146,"Ġtoo":12147,"olated":12148,"elocity":12149,"Stale":12150,"setY":12151,"setChild":12152,"setUser":12153,"EntityOfBasics":12154,"ĠgetFunctionDescriptor":12155,"Ġdirectory":12156,"ĠSO":12157,"Quantity":12158,"QueryBuilder":12159,"Ġlib":12160,"KeyColumn":12161,"ĠJohn":12162,"Ġremote":12163,"ByAlias":12164,"ĠHANA":12165,"iaDB":12166,"ĠpropertyAuditingData":12167,"ARED":12168,"ĠcreateTestData":12169,"ĠexpectedParameterTypes":12170,"SubEntity":12171,"doesNot":12172,"ĠEntityB":12173,"Ġunion":12174,"getSymbol":12175,"AndCompare":12176,"ConverterManager":12177,"ĠjdbcValues":12178,"Ġmaps":12179,"à²²":12180,"setParameterTypes":12181,"JpaPredicate":12182,"EditorWith":12183,"versions":12184,"jdbcParameterBindings":12185,"IfEmpty":12186,"Ġ127":12187,"Conditions":12188,"ĠMetadataBuilder":12189,"áıį":12190,"SqlAstTranslatorFactory":12191,"Clients":12192,"ĠDoubleStream":12193,"DirtyTracking":12194,"Splitter":12195,"ExecutionCount":12196,"ĠauditReader":12197,"CfgNode":12198,"ĠSAXParseException":12199,"Estimate":12200,"Latn":12201,"NATIVE":12202,"DerivedJoin":12203,"CURSOR":12204,"ĠalternativeContacts":12205,"AssertionError":12206,"RealClassType":12207,"enclosing":12208,"ĠBYTES":12209,"ĠJsNameRef":12210,"ĠinheritanceState":12211,"Pit":12212,"Pending":12213,"Xsrf":12214,"eget":12215,"gor":12216,"ggle":12217,"hes":12218,"ko":12219,"lizer":12220,"menu":12221,"saved":12222,"ÐĶ":12223,"Ġà´":12224,"getInterceptor":12225,"getSubclass":12226,"getGetter":12227,"getMaximum":12228,"icast":12229,"arable":12230,"ĠcScale":12231,"Ġcorrect":12232,"assertIs":12233,"Exist":12234,"EntitySource":12235,"Ġnullable":12236,"ClassPath":12237,"ListJoin":12238,"ListSignature":12239,"stances":12240,"Ġtrace":12241,"createStoredProcedureQuery":12242,"ĠisSame":12243,"ĠentityMappingType":12244,"INCREMENT":12245,"StatementLogger":12246,"typemodel":12247,"ANT":12248,"Ġattempt":12249,"angle":12250,"ĠUnmarshallingContext":12251,"Ġcompiled":12252,"à¥Ī":12253,"Ġcompl":12254,"nextToken":12255,"ĠRoundingMode":12256,"ErrorHandler":12257,"Decoder":12258,"ĠWindow":12259,"ĠCollectionPart":12260,"ÐµÐ·":12261,"Startup":12262,"DomainPath":12263,"getJdbcMappings":12264,"withChronology":12265,"NamedParameter":12266,"Ġtransport":12267,"Suppressed":12268,"Aggreg":12269,"à¶½":12270,"Multiply":12271,"joinType":12272,"ĠFileDescriptor":12273,"dtd":12274,"errn":12275,"ĠreadResolve":12276,"manuel":12277,"ImplicitNamingStrategy":12278,"=\\\"{":12279,"Ignored":12280,"getParents":12281,"Toolkit":12282,"Ġoverridden":12283,"tracev":12284,"extracting":12285,"Printed":12286,"ollar":12287,"à©ĩ":12288,"à¥Ģ\");":12289,"CatalogName":12290,"ĠcompileSnippet":12291,"ĠgetTestSrid":12292,"amples":12293,"ĠIslands":12294,"RollbackOnly":12295,"buggyCode":12296,"Ġmembership":12297,"agnost":12298,"ĠconvertToDatabaseColumn":12299,"ĠenhancementContext":12300,"ĠDelete":12301,"Ascending":12302,"HANADialect":12303,"clauseStack":12304,"Ġtuples":12305,"UnserializableBase":12306,"QUARTER":12307,"52":12308,"878":12309,"=%":12310,"DW":12311,"Den":12312,"Fn":12313,"HINT":12314,"Sunk":12315,"\\\";":12316,"ele":12317,"hal":12318,"sam":12319,"ĠMan":12320,"Ġáĥ":12321,"Ġ.*":12322,"onClose":12323,"inline":12324,"getHTML":12325,"getIndexed":12326,"itel":12327,"three":12328,"StringConverter":12329,"Ġ)[":12330,"Inventory":12331,"adix":12332,"ches":12333,"setBody":12334,"Ġbrowser":12335,"Ġbaos":12336,"ĠgetException":12337,"ĠgetMaximumValue":12338,"ListContext":12339,"addWhere":12340,"ĠtestDelete":12341,"ValueOf":12342,"ĠJProgram":12343,"problem":12344,"SessionContext":12345,"Ġjohn":12346,"TableData":12347,"Ġher":12348,"Employer":12349,"assertThrows":12350,"à¦¡":12351,"Inspection":12352,"\\\">\");":12353,"TextBox":12354,"ĠSqmSelectStatement":12355,"Ð¸ÑĤ":12356,"Literals":12357,"LOADED":12358,"Ġcommit":12359,"ĠJsFunction":12360,"Disable":12361,"Ġpreferred":12362,"functionCounter":12363,"à¸¥":12364,"à¬²":12365,"ÙĪØ³":12366,"PrefixOperation":12367,"OwnerField":12368,"à§Ģ":12369,"matching":12370,"áĬŃ":12371,"ĠFileInputStream":12372,"JdbcTypeIndicators":12373,"ĠsecondOfMinute":12374,"Accumulator":12375,"White":12376,"CompositeKey":12377,"Passed":12378,"ĠPrimitive":12379,"à±Ĩ":12380,"àŃģ":12381,"workMethod":12382,"Ø¨ÛĮ":12383,"getEnrolments":12384,"systemDefault":12385,"getNodeName":12386,"define":12387,"ĠwhenFragments":12388,"âµĵâµı":12389,"287":12390,"Heading":12391,"ationalized":12392,"IMMEDIATE":12393,"Ġcollector":12394,"ĠInternalCompilerException":12395,"ĠpageSize":12396,"HttpServletRequest":12397,"eventListenerGroup":12398,"ĠPRIORITY":12399,"MILLI":12400,"Difference":12401,"JVM":12402,"Mac":12403,"PUT":12404,"Power":12405,"Papu":12406,"Roles":12407,"Sud":12408,"SCO":12409,"Scanner":12410,"Teacher":12411,"cu":12412,"gu":12413,"zeg":12414,"Ġil":12415,"ĠInsert":12416,"ĠStack":12417,"ĠEnhancer":12418,"aster":12419,"isEnum":12420,"getOr":12421,"getPredicate":12422,"edAs":12423,"std":12424,"setElement":12425,"setHTML":12426,"ĠtestBad":12427,"Timeval":12428,"ĠvalueUpdater":12429,"strings":12430,"toList":12431,"UncaughtException":12432,"newMergedPatterns":12433,"Ġhistory":12434,"JoinPredicate":12435,"astSessionServices":12436,"SubType":12437,"Once":12438,"ĠLimit":12439,"ĠGMT":12440,"Continue":12441,"áĢĦ":12442,"NoMillis":12443,"ISION":12444,"ĠsourceName":12445,"validator":12446,"à¨²":12447,"ĠÐŀ":12448,"ĠShared":12449,"SafeHtmlBuilder":12450,"ForeignKeys":12451,"ĠcopyFrom":12452,"ĠcomponentType":12453,"getColumnIterator":12454,"SqlAstWalker":12455,"ThreadPolicy":12456,"à±ģ":12457,"Owners":12458,"Ġencoder":12459,"áŁģ":12460,"srcMap":12461,"QualifierSupport":12462,"PerClass":12463,"ViolationException":12464,"ĠinitialValue":12465,"ĠLinkedHashSet":12466,"labels":12467,"Filename":12468,"pluralForms":12469,"Õ«Õ":12470,"Normalizer":12471,"OverlayFunction":12472,"NoSuchElementException":12473,"UIObjectTest":12474,"ĠJtaPlatform":12475,"closurePanel":12476,"ĠNamingException":12477,"versableResolver":12478,"ĠNevis":12479,"FACTORY":12480,"'));":12481,"/\"":12482,"BAR":12483,"Dictionary":12484,"Every":12485,"ITIAL":12486,"Ms":12487,"Ops":12488,"hid":12489,"rt":12490,"son":12491,"wice":12492,"zija":12493,"Ûĩ":12494,"Ġâµı":12495,"ĠNotAudited":12496,"getLazy":12497,"getSetter":12498,"(\":":12499,"Inches":12500,"olk":12501,"Const":12502,"setReference":12503,"izations":12504,"igu":12505,"ĠgetInterpreter":12506,"emf":12507,"ValueChangeEvent":12508,"ĠsetPerson":12509,"Ġli":12510,"Orm":12511,"ĠBlob":12512,"NullObject":12513,"ONENT":12514,"testDetermination":12515,"Ġdepartment":12516,"JsBinaryOperation":12517,"LongValue":12518,"ĠcreateUint":12519,"RefColl":12520,"CachePutCount":12521,"ĠSqmSelectionQuery":12522,"DialectResolutionInfo":12523,"âµ¡":12524,"ĠsubMap":12525,"Retain":12526,"AllWKT":12527,"ĠMaps":12528,"currentState":12529,"withLocale":12530,"áĪĽ":12531,"ðĲĲ»":12532,"Weekyear":12533,"ĠmappingType":12534,"ÑĥÑĤ":12535,"Fully":12536,"ĠAbstractHANADialect":12537,"AAAA":12538,"áİ¢":12539,"áī³":12540,"BrowserEvents":12541,"ĠNodeBuilder":12542,"Ġpoint":12543,"ĠmanagedType":12544,"BootstrapServiceRegistry":12545,"ComparisonPredicate":12546,"ĠcontractVariation":12547,"ĠprepareTestData":12548,"baos":12549,"ĠMultiple":12550,"createdOn":12551,"åħĭ":12552,"ĠcreateNativeSQLStatementAllWKT":12553,"CustomSqlDml":12554,"SelectQueryPlan":12555,"HexString":12556,"Provides":12557,"ĠOPEN":12558,"ĠBarbuda":12559,"RefCollEntity":12560,"ĠcreateNativeSQLStatementAllWKTParams":12561,"CustomSqlDmlType":12562,"Gavin":12563,"IDENTIFIER":12564,"JE":12565,"NClob":12566,"Pres":12567,"Pager":12568,"Ren":12569,"WAIT":12570,"aNumber":12571,"coder":12572,"pId":12573,"}\\":12574,"ĠEntry":12575,"ĠOR":12576,"ĠQualified":12577,"ĠâĢĵ":12578,"isor":12579,"isGenericType":12580,"getAll":12581,"getInitializer":12582,"Ġsec":12583,"ĠcOrig":12584,"Ġcandidate":12585,"TypeElement":12586,"Reason":12587,"EntityOf":12588,"Ġmixed":12589,"ĠSplit":12590,"ĠtestMap":12591,"Ġ--":12592,"employer":12593,"ValueEditor":12594,"ĠsetString":12595,"conn":12596,"servlet":12597,"Ġcontribute":12598,"ĠentityInstance":12599,"PathPrefixSet":12600,"Ġhide":12601,"ssss":12602,"ship":12603,"ALECT":12604,"Possible":12605,"checkEmpty":12606,"PreUpdate":12607,"ANCE":12608,"TextOutput":12609,"IdentifierHelper":12610,"ĠSqmExpressible":12611,"Ġpersistence":12612,"loadClass":12613,"ðĳĦ£":12614,"ĠpreparedStatement":12615,"ĠXClass":12616,"ĠsourceDocument":12617,"ĠCollectionClassification":12618,"3456":12619,"à®µ":12620,"ĠstartElement":12621,"Positions":12622,"elementType":12623,"columnName":12624,"TokenStream":12625,"áĪĿ":12626,"getKeyDescriptor":12627,"ĠÐĵ":12628,"resolveTableReference":12629,"','":12630,"DatabaseMetaData":12631,"ĠminimalRebuildCache":12632,"Ġ\"'\",":12633,"ĠcopyCache":12634,"getPrecision":12635,"AuditedEntity":12636,"ToolingHint":12637,"PostInsert":12638,"Selectors":12639,"CascadeDelete":12640,"Ġdelimiter":12641,"abcdef":12642,"ĠenumType":12643,"compilationMetrics":12644,"Redirect":12645,"RoundingMode":12646,"Ġdependencies":12647,"Ġapplication":12648,"Ġ3661":12649,"essimistic":12650,"Datas":12651,"ittleEndian":12652,"gorith":12653,"Ab":12654,"Audio":12655,"RST":12656,"distinct":12657,"spliterator":12658,"something":12659,"Ã¯":12660,"ĠResult":12661,"ĠØ§":12662,"ĠÐ°ÑĢ":12663,"ĠGeneratorContext":12664,"isLeap":12665,"Ġcr":12666,"ado":12667,"store":12668,"setF":12669,"Trinidad":12670,"IdGenerator":12671,"Ġdynamic":12672,"imeType":12673,"ĠJConstructor":12674,"ĠJob":12675,"ivePred":12676,"PropertyOracle":12677,"appendValue":12678,"ĠHOUR":12679,"à¤·":12680,"à¤ħ":12681,"ernary":12682,"ĠMal":12683,"Ġ'-":12684,"MessageInterpolator":12685,"FromElement":12686,"getCategory":12687,"ĠaddHandler":12688,"ZoneOffset":12689,"ManyToAny":12690,"Ġunderlying":12691,"Versions":12692,"à½Ħ":12693,"readAll":12694,"UnitTestTreeLogger":12695,"RowElement":12696,"getScale":12697,"anceled":12698,"áĢ¡":12699,"ATING":12700,"Aliasing":12701,"ĠvaluesConsumer":12702,"CaseSimpleExpression":12703,"userAgent":12704,"oldier":12705,"áŀĺ":12706,"sourceMap":12707,"ĠoutputStream":12708,"personId":12709,"ĠoffsetExpression":12710,"Modifiers":12711,"getRight":12712,"à¶Ń":12713,"MultiValued":12714,"SubclassEntity":12715,"bitAccount":12716,"ĠcacheAccess":12717,"ĠuserAgent":12718,"LastModified":12719,"TATION":12720,"áĭ°":12721,"Configured":12722,"debuggee":12723,"àµĭ":12724,"CteContainer":12725,"WindowFunctions":12726,"MutableInterval":12727,"ĠsimpleEntity":12728,"Ġvalidation":12729,"Ġconstruct":12730,"flip":12731,"SHARED":12732,"Ø¨Ø§":12733,"CompilerEventType":12734,"detach":12735,"ithmeticExpression":12736,"ĠJaxbEntity":12737,"ĠNamedTableReference":12738,".*\"));":12739,"Exactly":12740,"getOffsetHeight":12741,"configurationValues":12742,"getRoots":12743,"GroupsMetadata":12744,"Malformed":12745,"negative":12746,"LikePredicate":12747,"ĠPersistenceException":12748,"áĢ¸\");":12749,"CompiledClass":12750,"getFromTypeMap":12751,"adaptivePred":12752,"TURN":12753,"LazinessInterceptor":12754,"Performance":12755,"AsProxyLazinessInterceptor":12756,"DWP":12757,"itelist":12758,"adaptivePredict":12759,"929":12760,"GO":12761,"lers":12762,"mate":12763,"missing":12764,"sockopt":12765,"å·":12766,"ĠConstructor":12767,"ĠNamespace":12768,"ĠForeignKeyDescriptor":12769,"ľáĥ":12770,"install":12771,"getBasicTypeForJavaType":12772,"Ġctrl":12773,"assertArrayEquals":12774,"Ġflow":12775,"Ġeq":12776,"setDisplay":12777,"IdTestEntity":12778,"ĠtestCollection":12779,"ToInt":12780,"ToCreate":12781,"Delegating":12782,"ForClass":12783,"Ġreceive":12784,"Ansi":12785,"Attempt":12786,"MethodIds":12787,"mother":12788,"STRI":12789,"EventReader":12790,"superclass":12791,"Ġdelay":12792,"clinit":12793,"getCode":12794,"++,":12795,"ĠEntityIdentifierMapping":12796,"SqmFunction":12797,"Ġannot":12798,"ĠSqmPathSource":12799,"ĠSqmCorrelated":12800,"ĠparentTableGroup":12801,"removeFrom":12802,"Aliased":12803,"ðĳĦŁ":12804,"BooleanExpressionPredicate":12805,"initializer":12806,"getJdbcValue":12807,"1189":12808,"ĠsqmFrom":12809,"LazyLoading":12810,"targets":12811,"à¶¸":12812,"FIRST":12813,"ĠjsProgram":12814,"getSqlExceptionHelper":12815,"Ġexecution":12816,"Ġdoesn":12817,"àµ»":12818,"ĠAuditCriterion":12819,"Batches":12820,"ĠconfigValues":12821,"ãĥ¼":12822,"PluralAttributeSource":12823,"àŃĭ":12824,"finishedMessage":12825,"MouseWheel":12826,"ĠconverterLookup":12827,"ĠDurationField":12828,"ĠbasicTypeRegistry":12829,"à©ĭ":12830,"ThisRef":12831,"floatValue":12832,"getOffsetWidth":12833,"STICS":12834,"ÐľÐ°Ð»":12835,"ĠNameCoder":12836,"ĠsystemId":12837,"revisionInfo":12838,"ĠunknownFields":12839,"presentationStrategy":12840,"ĠGraphSemantic":12841,"PATH":12842,"Showing":12843,"getEndMillis":12844,"VOKE":12845,"dispatchEvent":12846,"Ø³ØªØ§ÙĨ":12847,"NativePreviewHandler":12848,"ĠPermutation":12849,"APPLE":12850,"ittedArtifact":12851,"112":12852,"87":12853,"92":12854,"AIN":12855,"Cookies":12856,"Ge":12857,"House":12858,"Ku":12859,"OLD":12860,"Xsd":12861,"_-":12862,"fn":12863,"flag":12864,"gres":12865,"men":12866,"Ñħ":12867,"Ġ.":12868,"ĠÕ":12869,"Ġes":12870,"Ġoid":12871,"ĠEmpty":12872,"etary":12873,"getArgs":12874,"Ġscan":12875,"abstract":12876,"TypeInfo":12877,"TypeDeclaration":12878,"elm":12879,"Ġpack":12880,"Ġpair":12881,"Ġpadding":12882,"Recogn":12883,"une":12884,"Stamp":12885,"setFieldIn":12886,"Ġbag":12887,"Trivially":12888,"ListBox":12889,"tryCreate":12890,"ĠtestCreate":12891,"Ġinferred":12892,"QueryExecutionContext":12893,"ValueChangeHandler":12894,"SetEntity":12895,"createEntityGraph":12896,"ĠisHtml":12897,"Ġweb":12898,"DesignTime":12899,"Ġhis":12900,"mouse":12901,"ĠMAIN":12902,"allet":12903,"Ð°Ñģ":12904,"Ġemulate":12905,"JdbcParameterBindings":12906,"listOf":12907,"DEL":12908,"ResourceGenerator":12909,"CacheDir":12910,"à¦ļ":12911,"Offsets":12912,"ORK":12913,"Africa":12914,"SerializedType":12915,"ĠloadQueryInfluencers":12916,"writeString":12917,"BeanManager":12918,"Started":12919,"HibernateFlushMode":12920,"NamedStoredProcedureQuery":12921,"ategor":12922,"à¨Ĩ":12923,"Ġdisabled":12924,"JpaWindow":12925,"ĠJdbcTypeRegistry":12926,"ĠAnchor":12927,"getNodes":12928,"jdbcTypeCode":12929,"AuditReaderImplementor":12930,"populate":12931,"AssociationType":12932,"AssociationKey":12933,"Ġresolution":12934,"Varchar":12935,"Ġxmlns":12936,"IndexedListJoinColumnBidirectionalRefIngEntity":12937,"Ġpolicy":12938,"ĠEmbeddableAggregate":12939,"STATI":12940,"Ġtokenizer":12941,"735":12942,"2922":12943,"SimpleFooRequest":12944,"ĠdiscriminatorMapping":12945,"transactionCoordinator":12946,"Ġspaces":12947,"ĠJSONObject":12948,"VARBINARY":12949,"Ġattrs":12950,"Ġrequire":12951,"FragmentsRequested":12952,"BEAN":12953,"CacheableItem":12954,"setCurrentMillisSystem":12955,"COLUMN":12956,"ĠescapeChar":12957,"CURRENT":12958,"avingClause":12959,"Privileged":12960,"áĥĿáĥ":12961,"ĠNANOSECOND":12962,"ClampedArray":12963,"flatMap":12964,"ygon":12965,"ProvidesKey":12966,"å·´":12967,"SerializedTypeViolationException":12968,"-\"":12969,"110":12970,"90":12971,"Ben":12972,"Epoch":12973,"Sal":12974,"Sync":12975,"Vehicle":12976,"cv":12977,"job":12978,"pow":12979,"rchase":12980,"ses":12981,"ually":12982,"ĠOrigin":12983,"ĠReflectHelper":12984,"alHistory":12985,"always":12986,"iska":12987,"getNamespace":12988,"getLeap":12989,"orElse":12990,"Ġ\")\"":12991,"Ġsince":12992,"Ġ('":12993,"Ġcldr":12994,"Incompatible":12995,"assertFragmentsRequested":12996,"uni":12997,"Ġ170":12998,"ansion":12999,"ĠvalueOf":13000,"SetJoin":13001,"Ġexist":13002,"Ġexpressible":13003,"Ġtranchenmodell":13004,"ĠisTerminal":13005,"ĠCount":13006,"MethodVisitor":13007,"Ġhierarchy":13008,"Ġloc":13009,"ResultAssembler":13010,"STE":13011,"ĠDog":13012,"ParserTester":13013,"Preconditions":13014,"DEPRE":13015,"edicalHistory":13016,"aff":13017,"ANY":13018,"Ġant":13019,"ĠHibernateCriteriaBuilder":13020,"à½Į":13021,"codePoint":13022,"getScript":13023,"removeChild":13024,"IsValid":13025,"ĠparseTree":13026,"MinorVersion":13027,"àºµ":13028,"à®ļ":13029,"withType":13030,"Ġtransfer":13031,"ĠwithLocalMillis":13032,"columnType":13033,"reflect":13034,"RevisionNumbers":13035,"áĪ«":13036,"ĠfirstStatement":13037,"IfNeeded":13038,"à¶´":13039,"DownHandler":13040,"Equality":13041,"9876":13042,"JdbcTypeCode":13043,"Acc":13044,"\"}},":13045,"getQueryPart":13046,"ĠextractRevisionNumbers":13047,"EXCE":13048,"viewer":13049,"ĠcteStatement":13050,"MinuteOfHour":13051,"ĠhbmClass":13052,"Books":13053,"ĠroleName":13054,"basicTypeRegistry":13055,"ĠLazyEntity":13056,"realClass":13057,"ĠDynamicFetchBuilder":13058,"ĠpartialPath":13059,"registration":13060,"Ġdependent":13061,"relative":13062,"Õ¸ÖĤ":13063,"operation":13064,"ĠintegrationSettings":13065,"Ġ3600":13066,"self":13067,"anese":13068,"ĠApiChange":13069,"ĠComparisonOperator":13070,"edonia":13071,"onald":13072,"ÙīÙĬÛķ":13073,"Antigua":13074,"ÑĦÑĢÐ¸ÐºÐ°":13075,"æĭī":13076,"Madag":13077,"HANDL":13078,"ĠPrimaryKey":13079,"STATISTICS":13080,"Home":13081,"Px":13082,"PTION":13083,"Pixel":13084,"Tur":13085,"mk":13086,"å²":13087,"Ġ^":13088,"Ġite":13089,"ĠÐ¸":13090,"ĠÙĪ":13091,"inferredData":13092,"getTr":13093,"getVariations":13094,"arib":13095,"Ġsess":13096,"remaining":13097,"Ġvehicle":13098,"StringValue":13099,"ador":13100,"ĠnewBar":13101,"ooser":13102,"upper":13103,"uta":13104,"uting":13105,"ĠgetTag":13106,"ListEntity":13107,"added":13108,"ĠtestNot":13109,"forPattern":13110,"Ġlc":13111,"produ":13112,"Sequences":13113,"Through":13114,"Ġcontrib":13115,"Ġwait":13116,"ĠCap":13117,"ĠCore":13118,"PathPrefix":13119,"INF":13120,"à¤¼":13121,"ĠASS":13122,"ĠAND":13123,"Notification":13124,"ĠObjectInputStream":13125,"ufact":13126,"illy":13127,"ĠcreateTest":13128,"ĠcreateDomainResult":13129,"Ġrm":13130,"dog":13131,"logical":13132,"logError":13133,"SqmStatement":13134,"Ġanchor":13135,"paint":13136,"AuditExpression":13137,"ORIAN":13138,"ĠWHEN":13139,"à¸ķ":13140,"ĠendInstant":13141,"à°Ĥ":13142,"à²µ":13143,"columnReference":13144,"ĠselectStatement":13145,"mappings":13146,"ĠQueryException":13147,"PERSIST":13148,"ÙĦÛĮ":13149,"manies":13150,"SchemaManagementTool":13151,"ĠerrorManager":13152,"modelPart":13153,"divid":13154,"CteTable":13155,"ĠselectionModel":13156,"ĠassertTyping":13157,"OtherEntity":13158,"745":13159,"Ġquoted":13160,"Ú©Ø§":13161,"Ġusers":13162,"###":13163,"enums":13164,"getParameterTypes":13165,"ymorphism":13166,"[],[]":13167,"definedIn":13168,"MappingModelExpressible":13169,"slash":13170,"Allowed":13171,"Duplicates":13172,"amplingOrder":13173,"GENERATE":13174,"integration":13175,"Organization":13176,"REGORIAN":13177,"[[],[],[]":13178,"gorithm":13179,"/>":13180,"47":13181,"Mixed":13182,"Publisher":13183,"Slow":13184,"SÃ£o":13185,"aCollection":13186,"hav":13187,"iant":13188,"mi":13189,"qnameMap":13190,"uuid":13191,"Ûĭ":13192,"ĠReader":13193,"ĠCharset":13194,"entries":13195,"async":13196,"isJsNative":13197,"tros":13198,"getAssociated":13199,"getActual":13200,"getNoProxy":13201,"aning":13202,"Ġsrid":13203,"ConcurrentHashMap":13204,"setTop":13205,"prite":13206,"Prod":13207,"ĠgetRe":13208,"ĠgetAnnotation":13209,"ĠgetSelect":13210,"ĠgetTypeConfiguration":13211,"ĠSpec":13212,"ĠtestParse":13213,"could":13214,"avings":13215,"ToLong":13216,"ĠsetAccess":13217,"createAggregate":13218,"perly":13219,"EventHandler":13220,"WithDefault":13221,"Always":13222,"testAdd":13223,"cls":13224,"PreDestroy":13225,"printTo":13226,"Initializers":13227,"FetchQueue":13228,"ĠkeyCol":13229,"EmptyList":13230,"ENTRY":13231,"getSup":13232,"Characters":13233,"ATIN":13234,"buildPartial":13235,"Ġfetches":13236,"Ġasc":13237,"à°Ł":13238,"validation":13239,"à¬ª":13240,"à¬®":13241,"àª®":13242,"ĠOUT":13243,"Ġregex":13244,"ĠwithMillis":13245,"ĠparamName":13246,"Ð°Ð³":13247,"Building":13248,"Ġformatted":13249,"ĠreadObject":13250,"HandOperand":13251,"Edges":13252,"bySimpleNaturalId":13253,"ambod":13254,"MOVE":13255,"runTest":13256,"à¯Ĩ":13257,
[...]
