{"!":0,"\"":1,"#":2,"$":3,"%":4,"&":5,"'":6,"(":7,")":8,"*":9,"+":10,",":11,"-":12,".":13,"/":14,"0":15,"1":16,"2":17,"3":18,"4":19,"5":20,"6":21,"7":22,"8":23,"9":24,":":25,";":26,"<":27,"=":28,">":29,"?":30,"@":31,"A":32,"B":33,"C":34,"D":35,"E":36,"F":37,"G":38,"H":39,"I":40,"J":41,"K":42,"L":43,"M":44,"N":45,"O":46,"P":47,"Q":48,"R":49,"S":50,"T":51,"U":52,"V":53,"W":54,"X":55,"Y":56,"Z":57,"[":58,"\\":59,"]":60,"^":61,"_":62,"`":63,"a":64,"b":65,"c":66,"d":67,"e":68,"f":69,"g":70,"h":71,"i":72,"j":73,"k":74,"l":75,"m":76,"n":77,"o":78,"p":79,"q":80,"r":81,"s":82,"t":83,"u":84,"v":85,"w":86,"x":87,"y":88,"z":89,"{":90,"|":91,"}":92,"~":93,"¡":94,"¢":95,"£":96,"¤":97,"¥":98,"¦":99,"§":100,"¨":101,"©":102,"ª":103,"«":104,"¬":105,"®":106,"¯":107,"°":108,"±":109,"²":110,"³":111,"´":112,"µ":113,"¶":114,"·":115,"¸":116,"¹":117,"º":118,"»":119,"¼":120,"½":121,"¾":122,"¿":123,"À":124,"Á":125,"Â":126,"Ã":127,"Ä":128,"Å":129,"Æ":130,"Ç":131,"È":132,"É":133,"Ê":134,"Ë":135,"Ì":136,"Í":137,"Î":138,"Ï":139,"Ð":140,"Ñ":141,"Ò":142,"Ó":143,"Ô":144,"Õ":145,"Ö":146,"×":147,"Ø":148,"Ù":149,"Ú":150,"Û":151,"Ü":152,"Ý":153,"Þ":154,"ß":155,"à":156,"á":157,"â":158,"ã":159,"ä":160,"å":161,"æ":162,"ç":163,"è":164,"é":165,"ê":166,"ë":167,"ì":168,"í":169,"î":170,"ï":171,"ð":172,"ñ":173,"ò":174,"ó":175,"ô":176,"õ":177,"ö":178,"÷":179,"ø":180,"ù":181,"ú":182,"û":183,"ü":184,"ý":185,"þ":186,"ÿ":187,"Ā":188,"ā":189,"Ă":190,"ă":191,"Ą":192,"ą":193,"Ć":194,"ć":195,"Ĉ":196,"ĉ":197,"Ċ":198,"ċ":199,"Č":200,"č":201,"Ď":202,"ď":203,"Đ":204,"đ":205,"Ē":206,"ē":207,"Ĕ":208,"ĕ":209,"Ė":210,"ė":211,"Ę":212,"ę":213,"Ě":214,"ě":215,"Ĝ":216,"ĝ":217,"Ğ":218,"ğ":219,"Ġ":220,"ġ":221,"Ģ":222,"ģ":223,"Ĥ":224,"ĥ":225,"Ħ":226,"ħ":227,"Ĩ":228,"ĩ":229,"Ī":230,"ī":231,"Ĭ":232,"ĭ":233,"Į":234,"į":235,"İ":236,"ı":237,"Ĳ":238,"ĳ":239,"Ĵ":240,"ĵ":241,"Ķ":242,"ķ":243,"ĸ":244,"Ĺ":245,"ĺ":246,"Ļ":247,"ļ":248,"Ľ":249,"ľ":250,"Ŀ":251,"ŀ":252,"Ł":253,"ł":254,"Ń":255,"čĊ":256,"er":257,");":258,"et":259,"on":260,"in":261,"es":262,"at":263,"al":264,"en":265,"ion":266,"Ġ{":267,"le":268,"as":269,"Ġ=":270,"()":271,"is":272,"tr":273,"ct":274,"get":275,"it":276,"or":277,"am":278,"pu":279,"ic":280,"an":281,"id":282,"ing":283,"ar":284,"ass":285,"ent":286,"ur":287,"ed":288,"ro":289,"Ġ\"":290,"pe":291,"Ġn":292,"ap":293,"Ġs":294,"Ġ);":295,"ate":296,"ĠĠ":297,"ert":298,"th":299,"ce":300,"re":301,"lic":302,"ul":303,"ess":304,"blic":305,"public":306,"Ġ(":307,"();":308,"Str":309,"te":310,"Ġv":311,"\",":312,"(\"":313,"Ġc":314,"ype":315,"Map":316,"ame":317,"String":318,"Ġ)":319,"pt":320,"de":321,"il":322,"ew":323,"ue":324,"In":325,"assert":326,"est":327,"ret":328,"urn":329,"ab":330,"Type":331,"ad":332,"ist":333,"lass":334,"if":335,"return":336,"\");":337,"ity":338,"Ġt":339,"qu":340,"ch":341,"se":342,"oid":343,"ol":344,"ession":345,"Ex":346,"ment":347,"Ġvoid":348,"el":349,"able":350,"im":351,"put":352,"ction":353,"En":354,"Ġnew":355,"om":356,"Ġp":357,"ull":358,"Name":359,"st":360,"ver":361,"Ġf":362,"ames":363,"ation":364,"Re":365,"int":366,"Ġe":367,"().":368,"lo":369,"ption":370,"Con":371,"un":372,"this":373,"qual":374,"ag":375,"alue":376,"names":377,"inal":378,"namesMap":379,"quals":380,"um":381,"ers":382,"ild":383,"oo":384,"up":385,"xt":386,"ult":387,"Ent":388,"St":389,"set":390,"rid":391,"act":392,"pr":393,"Ġb":394,"ect":395,"Over":396,"Entity":397,"Overrid":398,"ode":399,"iz":400,"Ġnull":401,"Equals":402,"Override":403,"ig":404,"ck":405,"assertEquals":406,"final":407,"ception":408,"Par":409,"od":410,"Exception":411,"ĠĠĠĠ":412,"Ġm":413,"ot":414,"ut":415,"class":416,"ay":417,"Pro":418,"Class":419,"ib":420,"Tr":421,"end":422,"iv":423,"Ġget":424,"List":425,"ery":426,"bj":427,"res":428,"add":429,"Lo":430,"Id":431,"try":432,"Ġo":433,"ter":434,"Ġd":435,"uild":436,"ĠS":437,"Ġ1":438,"Ġ+":439,"ĠString":440,"bject":441,"Ġtest":442,"our":443,"row":444,"co":445,"());":446,"ory":447,"Fi":448,"Col":449,"Qu":450,"ey":451,"pert":452,"Ġin":453,"pl":454,"lement":455,"Test":456,"Ġ*":457,"Ar":458,"Ġ0":459,"text":460,"ial":461,"ime":462,"ata":463,"eld":464,"Ġ-":465,"av":466,"Object":467,"ans":468,"Res":469,"entity":470,"00":471,"actory":472,"perty":473,"Ġth":474,"stan":475,"reate":476,"Ch":477,"To":478,"Query":479,"(),":480,"));":481,"em":482,"cted":483,"ger":484,"uilder":485,"for":486,"Factory":487,"ator":488,"ql":489,"Man":490,"ri":491,"app":492,"ute":493,"Ġ!":494,"Met":495,"cope":496,"ource":497,"Value":498,"lection":499,"Ġst":500,"iter":501,"and":502,"Ġset":503,"ind":504,"Ġ==":505,"Ġl":506,"Trans":507,"Time":508,"action":509,"ize":510,"rom":511,"De":512,"State":513,"umn":514,"Of":515,"ase":516,"lean":517,"omp":518,"Mapp":519,"Ġvalue":520,"trib":521,"ub":522,"hod":523,"ener":524,"Builder":525,"age":526,"fa":527,"oolean":528,"ray":529,"Ġres":530,"Set":531,"con":532,"Key":533,"For":534,"[]":535,"alse":536,"str":537,"fer":538,"Im":539,"cal":540,"Date":541,"ĠJ":542,"Field":543,"session":544,"ersist":545,"pro":546,"Ġex":547,"Se":548,"ath":549,"Ġre":550,"Context":551,"cri":552,"Transaction":553,"Ġa":554,"Th":555,"ort":556,"Mapping":557,"oun":558,"ager":559,"atch":560,"ser":561,"Ġ<":562,"pression":563,"An":564,"Ġ!=":565,"to":566,"tribute":567,"Un":568,"Ġi":569,"Session":570,"At":571,"Array":572,"amet":573,"Ġtr":574,"create":575,"Ġsession":576,"Ġj":577,"ava":578,"Manager":579,"Ġint":580,"Ġpro":581,"par":582,"Ġcon":583,"Table":584,"ain":585,"new":586,"vent":587,"ive":588,"lect":589,"ach":590,"Ġid":591,"Ġ->":592,"Ġis":593,"ence":594,"ith":595,"stance":596,"oin":597,"Ġw":598,"uper":599,"Ġentity":600,"ne":601,"cess":602,"ong":603,"Property":604,"cript":605,"ir":606,"ex":607,"Or":608,"append":609,"ĠĠĠ":610,"Expression":611,"Ġ).":612,"By":613,"dex":614,"Column":615,"ivate":616,"riter":617,"Element":618,"Ġ2":619,"db":620,"Ġpar":621,"Ġname":622,"else":623,"ameter":624,"isit":625,"ĠC":626,"<?":627,"rows":628,"private":629,"dbc":630,"Path":631,"Des":632,"Method":633,"ifi":634,"Ġresult":635,"Ġh":636,"atic":637,"ĠH":638,"Data":639,"ss":640,"ow":641,"us":642,"Ġ:":643,"ack":644,"Ser":645,"ĠP":646,"Reg":647,"ĉĉ":648,"Ġlo":649,"ializ":650,"der":651,"Mode":652,"Result":653,"IN":654,"one":655,"ĠB":656,"tem":657,"ber":658,"not":659,"Ġtype":660,"Inte":661,"Null":662,"qm":663,"DateTime":664,"à¤":665,"Ġthis":666,"ite":667,"ER":668,"Attribute":669,").":670,"Collection":671,"Integer":672,"ia":673,"eam":674,"of":675,"ument":676,"mo":677,"pected":678,"Ġfalse":679,"ader":680,"ated":681,"per":682,"os":683,"name":684,"eck":685,"Em":686,"ve":687,"Ġboolean":688,"ount":689,"eng":690,"unction":691,"vic":692,"ST":693,"gger":694,"criptor":695,"roup":696,"Parameter":697,"alu":698,"ern":699,"fault":700,"ength":701,"True":702,"Ġstatic":703,"fi":704,"ĠM":705,"ign":706,"ac":707,"ge":708,"port":709,"mat":710,"Ġthe":711,"ĠA":712,"Descriptor":713,"etch":714,"Regis":715,"Event":716,"assertTrue":717,"essage":718,"size":719,"ies":720,"date":721,"Ġthrows":722,"Statement":723,"ple":724,"umber":725,"erson":726,"With":727,"dit":728,"la":729,"ler":730,"tected":731,"vice":732,"ĠT":733,"ust":734,"oc":735,"Ġtrue":736,"use":737,"Ġ}":738,"art":739,"Source":740,"yp":741,"Not":742,"Up":743,"Ġto":744,"all":745,"uration":746,"Ġinstance":747,"Al":748,"protected":749,"ative":750,"ĠD":751,"ĠObject":752,"throw":753,"gy":754,"ccess":755,"<?>":756,"key":757,"))":758,"alues":759,"Local":760,"ak":761,"super":762,"ee":763,"ON":764,"Comp":765,"tain":766,"test":767,"query":768,"Registry":769,"Child":770,"stant":771,"plement":772,"ete":773,"Group":774,"ptions":775,"Ġcol":776,"ibern":777,"ibernate":778,"inTransaction":779,"Refer":780,"fig":781,"ure":782,"leg":783,"ache":784,"ml":785,"Ġde":786,"ctx":787,"uf":788,"Join":789,"fo":790,"Java":791,"ec":792,"Ġch":793,"adata":794,"Ġscope":795,"Inter":796,"Sql":797,"Ġ3":798,"Arg":799,"case":800,"Count":801,"ash":802,"Node":803,"cl":804,"ifier":805,"ypes":806,"createQuery":807,"value":808,"Pr":809,"andler":810,"dd":811,"ext":812,"ax":813,"Ġproperty":814,"getName":815,"ĠI":816,"ition":817,"urr":818,"enc":819,"com":820,"notation":821,"arget":822,"ace":823,"\")":824,"assertTh":825,"Stream":826,"Ġ'":827,"Part":828,"Js":829,"File":830,"Ġinstanceof":831,"assertThat":832,"ree":833,"Number":834,"ast":835,"ialect":836,"ustom":837,"out":838,"&&":839,"Index":840,"Ġx":841,"Gener":842,"ings":843,"Message":844,"SessionFactory":845,"AR":846,"oot":847,"ill":848,"Ġmet":849,"vert":850,"length":851,"Ġfrom":852,"ear":853,"ly":854,"From":855,"Long":856,"Com":857,"sh":858,"Ġcreate":859,"ress":860,"ine":861,"Bind":862,"ner":863,"reg":864,"riteria":865,"ary":866,"persist":867,"Impl":868,"AL":869,"asic":870,"entifier":871,"Po":872,"TE":873,"imple":874,"Implement":875,"scope":876,"Ġar":877,"Reference":878,"())":879,"ias":880,"Init":881,"her":882,"Ġlist":883,"Scope":884,"Ġr":885,"ink":886,"fset":887,"Parser":888,"ard":889,"Ġg":890,"uct":891,"op":892,"Access":893,"Ġcatch":894,"Format":895,"rap":896,"Ð°":897,"Service":898,"alid":899,"Add":900,"tract":901,"ron":902,"ule":903,"equals":904,"\";":905,"ht":906,"ile":907,"ther":908,"ord":909,"Function":910,"Ġstr":911,"One":912,"getC":913,"LE":914,"ail":915,"Ġof":916,"Update":917,"TI":918,"Ġctx":919,"check":920,"eg":921,"Ġadd":922,"Tree":923,"Pre":924,"Ġ?":925,"Implementor":926,"Parent":927,"Info":928,"wt":929,"from":930,"Ġelse":931,"Persist":932,"move":933,"Entry":934,"upport":935,"Ġem":936,"cept":937,"Jdbc":938,"urrent":939,"Handler":940,"type":941,"list":942,"ug":943,"figuration":944,"tern":945,"Ġse":946,"ME":947,"Ġor":948,"yn":949,"Ġtable":950,"Ass":951,"Ġexpected":952,"ĠF":953,"Ref":954,"Ġ&&":955,"ersion":956,"Ġal":957,"Code":958,"Sub":959,"Zone":960,"Ġnot":961,"udit":962,"Ġfor":963,"Names":964,"do":965,"illis":966,"Argument":967,"Ġ),":968,"Ġquery":969,"getId":970,"Ġfinal":971,"print":972,"quest":973,"RE":974,"ĠčĊ":975,"ys":976,"Ġvisit":977,"Default":978,"As":979,"Be":980,"Initializ":981,"Native":982,"Annotation":983,"cond":984,"pty":985,"unt":986,"Logger":987,"),":988,"select":989,"yle":990,"find":991,"uble":992,"comp":993,"Ġ4":994,"DE":995,"entityManager":996,"imal":997,"++":998,"Metadata":999,"onent":1000,"log":1001,"edic":1002,"Resource":1003,"fail":1004,"On":1005,"tes":1006,"yte":1007,"Options":1008,"boolean":1009,"ange":1010,"lause":1011,"ock":1012,"Cache":1013,"ound":1014,"à¦":1015,"ror":1016,"ip":1017,"Item":1018,"low":1019,"af":1020,"ĠEntity":1021,"reation":1022,"Ġreturn":1023,"Ins":1024,"Select":1025,"Listener":1026,"Fetch":1027,"AN":1028,"null":1029,"col":1030,"Root":1031,"ender":1032,"False":1033,"RO":1034,"12":1035,"Many":1036,"Ġ|":1037,"Instance":1038,"onth":1039,"edicate":1040,"SE":1041,"root":1042,"ural":1043,"Ġat":1044,"legal":1045,"Types":1046,"getTransaction":1047,"Reader":1048,"rite":1049,"Wid":1050,"Ġcontext":1051,"Ġext":1052,"\\\"":1053,"llegal":1054,"pec":1055,"Sqm":1056,"clo":1057,"Lock":1058,"ore":1059,"assertFalse":1060,"Clause":1061,"ang":1062,"Ġkey":1063,"ends":1064,"verter":1065,"Ġen":1066,"Ġclass":1067,"Ġpublic":1068,"form":1069,"odel":1070,"Ġun":1071,"del":1072,"Ġcolumn":1073,"</":1074,"Text":1075,"Int":1076,"Oper":1077,"Visit":1078,"tains":1079,"iteral":1080,"ces":1081,"};":1082,"Order":1083,"Identifier":1084,"Values":1085,"**":1086,"Ġan":1087,"Ġmethod":1088,"ĠArray":1089,"Ġif":1090,"back":1091,"Ġfi":1092,"QL":1093,"Ġ{@":1094,"10":1095,"pa":1096,"ĠSqm":1097,"bed":1098,"\"));":1099,"pre":1100,"result":1101,"Ġ>":1102,"ĠUn":1103,"Ġ@":1104,"Size":1105,"Ut":1106,"toString":1107,"Model":1108,"Request":1109,"osition":1110,"sion":1111,"own":1112,"lear":1113,"Configuration":1114,"Out":1115,"cale":1116,"gr":1117,"ĠHibernate":1118,"SessionFactoryScope":1119,"Er":1120,"fin":1121,"Sh":1122,"goo":1123,"Version":1124,"Bytes":1125,"qlParser":1126,"ustomer":1127,"az":1128,"JavaType":1129,"bedd":1130,"ĠL":1131,"Ġparent":1132,"reak":1133,"met":1134,"ĠĠĠĠĠĠĠ":1135,"Day":1136,"xy":1137,"ĠN":1138,"mit":1139,"Dialect":1140,"attern":1141,"ision":1142,"omain":1143,"CE":1144,"Locale":1145,"Millis":1146,"Basic":1147,"ister":1148,"here":1149,"Selection":1150,"Ġbe":1151,"Load":1152,"Ġarg":1153,"vid":1154,"à½":1155,"ight":1156,"read":1157,"fix":1158,"ll":1159,"ared":1160,"âµ":1161,"NotNull":1162,"Util":1163,"ution":1164,"plic":1165,"nection":1166,"gwt":1167,"ategy":1168,"Point":1169,"getType":1170,"ĠentityManager":1171,"eri":1172,"ics":1173,"ced":1174,"Ġcomp":1175,"Ġsql":1176,"ouble":1177,"ĠG":1178,"amed":1179,"code":1180,"que":1181,"void":1182,"Offset":1183,"Empty":1184,">();":1185,"ĠList":1186,"Ġobject":1187,"Ġfield":1188,"ren":1189,"Ġextends":1190,"0000":1191,"ire":1192,"HH":1193,"gle":1194,"ystem":1195,"Unit":1196,"Stat":1197,"Ð¸":1198,"Style":1199,"item":1200,"are":1201,"Ø§":1202,"andard":1203,"plo":1204,"Audit":1205,"EN":1206,"raph":1207,"Year":1208,"olo":1209,"uffer":1210,"Call":1211,"::":1212,"Compl":1213,"ploy":1214,"long":1215,"Ġon":1216,"avig":1217,"ified":1218,"tml":1219,"Enum":1220,"link":1221,"Writer":1222,"ĠException":1223,"perties":1224,"erm":1225,"ources":1226,"google":1227,"Row":1228,"Literal":1229,"getS":1230,"Constr":1231,"EntityManager":1232,"exec":1233,"ient":1234,"Hel":1235,"LO":1236,"avigable":1237,"atement":1238,"ology":1239,"delete":1240,"Ġpersist":1241,"axb":1242,"ical":1243,"ronology":1244,"Ġ*/":1245,"uld":1246,"contains":1247,"Standard":1248,"odule":1249,"field":1250,"ant":1251,"/**":1252,"And":1253,"ĠDateTime":1254,"Address":1255,"beg":1256,"imit":1257,"Converter":1258,"Ġjdbc":1259,"Predicate":1260,"Generator":1261,"Read":1262,"Ġsub":1263,"OR":1264,"remove":1265,"fore":1266,"ook":1267,"((":1268,"ould":1269,"pect":1270,"expected":1271,"Spec":1272,"Ret":1273,"ud":1274,"close":1275,"plicit":1276,"ocument":1277,"Ġelement":1278,"Log":1279,"ML":1280,"Ð½":1281,"Char":1282,"ilter":1283,"ell":1284,"Initialized":1285,"ply":1286,"anel":1287,"vider":1288,"ĠClass":1289,"Fr":1290,"Widget":1291,"acle":1292,"Instant":1293,"Cont":1294,"sub":1295,"Target":1296,">\\":1297,"Le":1298,"place":1299,"All":1300,"01":1301,"Ġ5":1302,"sum":1303,"ance":1304,"Ġindex":1305,"clear":1306,"press":1307,"ln":1308,"ave":1309,"break":1310,"amp":1311,"áĢ":1312,"à¥":1313,"Ġcom":1314,"Ġjoin":1315,"lem":1316,"chem":1317,"UR":1318,"true":1319,"Ġsuper":1320,"afe":1321,"Ġ(!":1322,"Ġattribute":1323,"Ġ||":1324,"Ġroot":1325,"Ġchild":1326,"];":1327,"mote":1328,"iew":1329,"Ap":1330,"Resol":1331,"has":1332,"wner":1333,"Strategy":1334,"uite":1335,"putStream":1336,"áĥ":1337,"ĠJs":1338,"eriod":1339,"Pl":1340,"Proxy":1341,"AT":1342,"Dis":1343,"param":1344,"Chronology":1345,"Binding":1346,"println":1347,"Ġim":1348,"build":1349,"Ġ6":1350,"next":1351,"Ġevent":1352,"chema":1353,"utation":1354,"Sett":1355,"ÑĢ":1356,"Valid":1357,"assertNotNull":1358,"200":1359,"ĠSet":1360,"sw":1361,"ashMap":1362,"opy":1363,"Helper":1364,"logger":1365,"upported":1366,"commit":1367,"Simple":1368,"ArgumentException":1369,"llegalArgumentException":1370,"rapp":1371,"Alias":1372,"TableGroup":1373,"ID":1374,"Ġy":1375,"load":1376,"utable":1377,"Byte":1378,"foo":1379,"ari":1380,"catch":1381,"ized":1382,"Operation":1383,"ĠR":1384,"stract":1385,"ible":1386,"TreeLogger":1387,"irst":1388,"No":1389,"Af":1390,"inator":1391,"Ġ[":1392,"lock":1393,"ken":1394,"apply":1395,"ĳĦ":1396,"istics":1397,"Ġdo":1398,"gram":1399,"ðĳĦ":1400,"iginal":1401,"visit":1402,"Return":1403,"Serializ":1404,"register":1405,"Is":1406,"abled":1407,"ush":1408,"por":1409,"avigablePath":1410,"cription":1411,"Error":1412,"dev":1413,"execute":1414,"olve":1415,"Person":1416,"loat":1417,"legate":1418,"Check":1419,"vision":1420,"Dec":1421,"ToOne":1422,"Persister":1423,"Ġvalues":1424,"Ġser":1425,"ĠInteger":1426,"Embedd":1427,"Month":1428,"PA":1429,"bm":1430,"Decl":1431,"Component":1432,"utes":1433,"ake":1434,"ific":1435,"riteriaBuilder":1436,"Provider":1437,"pen":1438,"aint":1439,"Ġmap":1440,"Ġpre":1441,"azy":1442,"ik":1443,"ĠX":1444,"Ġload":1445,"lush":1446,"Html":1447,"Sup":1448,"byte":1449,"quence":1450,"Ġjava":1451,"eek":1452,"IS":1453,"Contract":1454,">(":1455,"ĠV":1456,"older":1457,"ptim":1458,"sing":1459,"Ġ10":1460,"Ġparse":1461,"face":1462,"ca":1463,"Ġfetch":1464,"Oracle":1465,"Ġcollection":1466,"User":1467,"ĉĉĉ":1468,"enter":1469,"ĠTh":1470,"ĠsessionFactory":1471,"ameters":1472,"UT":1473,"index":1474,"Process":1475,"Columns":1476,"TY":1477,"..":1478,"function":1479,"ableTo":1480,"Ġas":1481,"Ġmapp":1482,"roll":1483,"UE":1484,"tainer":1485,"OException":1486,"ost":1487,"ClassType":1488,"pon":1489,"ual":1490,"FieldType":1491,"Tem":1492,"imest":1493,"duct":1494,"ique":1495,"agment":1496,"imestamp":1497,"arn":1498,"write":1499,"Base":1500,"Ġsource":1501,"Ast":1502,"uple":1503,"Script":1504,"amodel":1505,"Foo":1506,"CH":1507,"map":1508,"les":1509,"start":1510,"vel":1511,"Ġsh":1512,"ĠPerson":1513,"Same":1514,"string":1515,"ĠArrayList":1516,"throws":1517,"Del":1518,"ployee":1519,"CO":1520,"Utils":1521,"ponse":1522,"ðĲ":1523,"untime":1524,"char":1525,"Min":1526,"java":1527,"Ġother":1528,"ĠW":1529,"à¸":1530,"Ġby":1531,"count":1532,"Panel":1533,"stream":1534,"Loader":1535,"ature":1536,"Bean":1537,"Insert":1538,"Exec":1539,"Case":1540,"ulti":1541,"cop":1542,"});":1543,"val":1544,"Complete":1545,"},":1546,"default":1547,"arg":1548,"ServiceRegistry":1549,"any":1550,"table":1551,"Ġ((":1552,"data":1553,"ĠCollection":1554,"ackage":1555,"TestEntity":1556,"ox":1557,"iation":1558,"Pattern":1559,"ToMany":1560,"Properties":1561,"false":1562,"ĠsetId":1563,"Decimal":1564,"\").":1565,"Ġitem":1566,"HqlParser":1567,"Metamodel":1568,"iterator":1569,"accept":1570,"other":1571,"Ġdata":1572,"Second":1573,"Boolean":1574,"Ġend":1575,"atural":1576,"SS":1577,"Double":1578,"user":1579,"Visitor":1580,"34":1581,"rim":1582,"Ðµ":1583,"old":1584,"its":1585,"áŀ":1586,"parse":1587,"parent":1588,"Dir":1589,"Ġgener":1590,"àº":1591,"laz":1592,"Start":1593,"à®":1594,"init":1595,"Ġbuild":1596,"Ġwhere":1597,"Connection":1598,"Param":1599,"Ġstart":1600,"Children":1601,"ome":1602,"getClass":1603,"reationState":1604,"Buffer":1605,"Graph":1606,"executeUpdate":1607,"source":1608,"Position":1609,"getEntity":1610,"The":1611,"à°":1612,"bstract":1613,"Big":1614,"ĠMap":1615,"After":1616,"method":1617,"red":1618,"à²":1619,"Get":1620,"ialize":1621,"SQL":1622,"Warn":1623,"Fields":1624,"Ð¾":1625,"ification":1626,"VAL":1627,"valid":1628,"copy":1629,"à¬":1630,"Ġallow":1631,"isInitialized":1632,"sql":1633,"Ġstatement":1634,"Domain":1635,"TH":1636,"Ġdate":1637,"Ġdefault":1638,"ĠBig":1639,"àª":1640,"getJdbc":1641,"Edit":1642,"Each":1643,"abel":1644,"current":1645,"Ġtarget":1646,"doIn":1647,"Hibernate":1648,"assertNull":1649,"000":1650,"child":1651,"atab":1652,"Ġbyte":1653,"with":1654,"Only":1655,"Document":1656,"CompleteException":1657,"atabase":1658,"play":1659,"Ġstat":1660,"ableToCompleteException":1661,"Named":1662,"ync":1663,"Ġoptions":1664,"ÛĮ":1665,"()));":1666,"Ġtrans":1667,"izer":1668,"Ġnode":1669,"Parse":1670,"Ġ9":1671,"ility":1672,"enced":1673,"io":1674,"Non":1675,"ĠO":1676,"Ġperson":1677,"greg":1678,"ft":1679,"setParameter":1680,"irection":1681,"Ġlong":1682,"ÙĨ":1683,"Iter":1684,"ateg":1685,"TimeZone":1686,"sumer":1687,"hs":1688,"Assert":1689,"ÙĪ":1690,"Ġentry":1691,"aturalId":1692,"Suppress":1693,"the":1694,"System":1695,"78":1696,"ork":1697,"format":1698,"getResult":1699,"property":1700,"ody":1701,"Ġmetadata":1702,"MA":1703,"ingle":1704,"buf":1705,"ify":1706,"ui":1707,"getValue":1708,"TR":1709,"Warnings":1710,"AttributeMapping":1711,"Ġinit":1712,"ok":1713,"à´":1714,"lected":1715,"Sp":1716,"Ġtree":1717,"og":1718,"Qual":1719,"Ġrefer":1720,"CT":1721,"]);":1722,"ceptor":1723,"++)":1724,"Defin":1725,"Ġreg":1726,"uctor":1727,"à¨":1728,"orre":1729,"inter":1730,"Ġallowed":1731,"Sign":1732,"be":1733,"PE":1734,"ask":1735,"ATE":1736,"poral":1737,"arch":1738,"Ġresults":1739,"Stack":1740,"Embeddable":1741,"rst":1742,"sert":1743,"11":1744,"notated":1745,"UL":1746,"mb":1747,"Enabled":1748,"â´":1749,"Ġdialect":1750,"Ġorder":1751,"ĠTest":1752,"VALUE":1753,"bug":1754,"First":1755,"rapper":1756,"min":1757,"Before":1758,"ved":1759,"Settings":1760,"Change":1761,"Ġlock":1762,"du":1763,"Safe":1764,"Ġ%":1765,"Ġdes":1766,"rowable":1767,"Statistics":1768,"SuppressWarnings":1769,"Clo":1770,"inary":1771,"Ġpath":1772,"lazz":1773,"Ġdis":1774,"ĠComp":1775,"Formatter":1776,"Duration":1777,"Ġwith":1778,"begin":1779,"56":1780,"AME":1781,"ĠIn":1782,"Ġ/**":1783,"odes":1784,"Ġsqm":1785,"eign":1786,"Constant":1787,"wh":1788,"ĠUnableToCompleteException":1789,"Copy":1790,"Ġlistener":1791,"Prefix":1792,"ocket":1793,"NameMap":1794,"ember":1795,"Ġthat":1796,"View":1797,"Ġout":1798,"erge":1799,"element":1800,"Parameters":1801,"hibernate":1802,"sed":1803,"year":1804,"ĠSer":1805,"He":1806,"Ġparameter":1807,"setName":1808,"Ġbuilder":1809,"appendSql":1810,"AB":1811,"ached":1812,"JClassType":1813,"day":1814,"Ø±":1815,"Ġinter":1816,"Jpa":1817,"UN":1818,"column":1819,"Editor":1820,"<>(":1821,"Holder":1822,"word":1823,"crim":1824,"viceRegistry":1825,"ingState":1826,"Rule":1827,"js":1828,"sr":1829,"('":1830,"ish":1831,"pector":1832,"Token":1833,"20":1834,"ĠIOException":1835,"Ġpr":1836,"bar":1837,"Arrays":1838,"STAN":1839,"cre":1840,"isEmpty":1841,"ref":1842,"Ġlogger":1843,"ĠLong":1844,"des":1845,"Interface":1846,"uto":1847,"Period":1848,"ide":1849,"Vari":1850,"Ġer":1851,"tributes":1852,"croll":1853,"herit":1854,"getResultList":1855,"ff":1856,"ashSet":1857,"local":1858,"ph":1859,"ability":1860,"ĠSql":1861,"Revision":1862,"aKey":1863,"Super":1864,"Ġz":1865,"ann":1866,"event":1867,"dis":1868,"Form":1869,"ample":1870,"ĠJdbc":1871,"]\",":1872,"ING":1873,"NO":1874,"led":1875,"Ġ20":1876,"order":1877,"],":1878,"áĪ":1879,"ðĲĲ":1880,"Lazy":1881,"osite":1882,"Fragment":1883,"ker":1884,"sessionFactory":1885,"ĠAn":1886,"Assign":1887,"Ġselect":1888,"Ġalias":1889,"writer":1890,"JPA":1891,"ingContext":1892,"ĠE":1893,"ities":1894,"ĠSQL":1895,"supported":1896,"Ġopen":1897,"person":1898,"ension":1899,"Inspector":1900,"Container":1901,"LA":1902,"Filter":1903,"ashCode":1904,"TION":1905,"Co":1906,"MP":1907,"replace":1908,"Resolver":1909,"Det":1910,"Mapper":1911,"compare":1912,"HHH":1913,"Delete":1914,"Ġexpression":1915,"Bar":1916,"ĠType":1917,"INSTAN":1918,"Ġparam":1919,"SI":1920,">)":1921,"Ġ30":1922,"gregate":1923,"Constraint":1924,"Ġtime":1925,"criminator":1926,"TIME":1927,"update":1928,"Ġoffset":1929,"Criteria":1930,"Ġcall":1931,"Ð°Ð":1932,"Ġcurrent":1933,"gn":1934,"getKey":1935,"iraKey":1936,"Consumer":1937,"pare":1938,"Expected":1939,"ĠSets":1940,"nown":1941,"Hbm":1942,"Remote":1943,"Length":1944,"orm":1945,"ĠJava":1946,"gener":1947,"NativeQuery":1948,"bind":1949,"INSTANCE":1950,"udent":1951,"sb":1952,"Ġnative":1953,"30":1954,"Employee":1955,"actual":1956,"Module":1957,"resent":1958,"mand":1959,"save":1960,"MappingType":1961,"Ġpersister":1962,"End":1963,"no":1964,"15":1965,"itch":1966,"--":1967,"ĠHqlParser":1968,"dition":1969,"Build":1970,"ĠentityName":1971,"version":1972,"ociation":1973,"valueOf":1974,"ency":1975,"getN":1976,"Ġfirst":1977,"Tuple":1978,"aw":1979,"(-":1980,"JMethod":1981,"ole":1982,"Proto":1983,"Sequence":1984,"OfDay":1985,"ÑĤ":1986,"Ġmessage":1987,"TableReference":1988,"Response":1989,"Ġoriginal":1990,"URL":1991,"jdbc":1992,"ier":1993,"aredSession":1994,"Week":1995,"cord":1996,"prec":1997,"Ag":1998,"Ġcheck":1999,"Ġfind":2000,">\");":2001,"pend":2002,"finally":2003,"Ġstring":2004,"].":2005,"Match":2006,"pace":2007,"Max":2008,"Ġhas":2009,"à·":2010,"Interceptor":2011,"ĠIllegalArgumentException":2012,"Content":2013,"Constructor":2014,"Description":2015,"Hour":2016,"Mod":2017,"Level":2018,"If":2019,"Ġsize":2020,"Persistent":2021,"getInstance":2022,"beginTransaction":2023,"Su":2024,"cont":2025,"ategory":2026,"chron":2027,"AuditReader":2028,"vir":2029,"Iterator":2030,"axbHbm":2031,"getR":2032,"aredSessionContract":2033,"Float":2034,"Ġtext":2035,"Definition":2036,"AD":2037,"Owner":2038,"Image":2039,"<>();":2040,"Found":2041,"aged":2042,"line":2043,"eners":2044,"ĠSimple":2045,"LI":2046,"ĠĠĠĠĠčĊ":2047,"context":2048,"Ġinstant":2049,"values":2050,"Ġrow":2051,"RI":2052,"Ġobj":2053,"ĠSession":2054,"endar":2055,"ssue":2056,"Ġshould":2057,"annel":2058,"target":2059,"getProperty":2060,"ĠBasic":2061,"Fail":2062,"Ġdp":2063,"{\"":2064,"Issue":2065,"last":2066,"ty":2067,"Suite":2068,"à¶":2069,"Ġass":2070,"Results":2071,"Ġmapping":2072,"Region":2073,"Collect":2074,">>":2075,"alias":2076,"eignKey":2077,"Down":2078,"ForIssue":2079,"Cal":2080,"TestForIssue":2081,"ka":2082,"IllegalArgumentException":2083,"Ġ_":2084,"builder":2085,"mapp":2086,"Ġarray":2087,"cedure":2088,"Methods":2089,"aredSessionContractImplementor":2090,"TER":2091,"NAME":2092,"Ġac":2093,"Line":2094,"ations":2095,"ĠÐ":2096,"ates":2097,"lient":2098,"EntityName":2099,"à¼":2100,"EntityManagerFactory":2101,"known":2102,"ton":2103,"Multi":2104,"à§":2105,"acter":2106,"entityManagerFactory":2107,"Equal":2108,"flush":2109,"plit":2110,"Ġ12":2111,"ĠProperty":2112,"ĠopenSession":2113,"FI":2114,"asList":2115,"join":2116,"ouse":2117,"cur":2118,"org":2119,"resolve":2120,"ÃŃ":2121,"array":2122,"ilation":2123,"Ġowner":2124,"orted":2125,"Binder":2126,"Ñģ":2127,"sg":2128,"geom":2129,"verse":2130,"ipp":2131,"CK":2132,"Ġresolve":2133,"Validator":2134,"TypeRegistry":2135,"indow":2136,"file":2137,"Cell":2138,"PAR":2139,"he":2140,"HashMap":2141,"Range":2142,"ĠDate":2143,"river":2144,"Ġjs":2145,"plate":2146,"CON":2147,"und":2148,"DO":2149,"Ġrev":2150,"Contact":2151,"Block":2152,"ĠQuery":2153,"Ġversion":2154,"remote":2155,"Ġcount":2156,"Ġvisitor":2157,"Has":2158,"let":2159,"entry":2160,"Ġ{}":2161,"assertSame":2162,"iler":2163,"lob":2164,"',":2165,"viron":2166,"getSql":2167,"vironment":2168,"Ġle":2169,"switch":2170,"Customer":2171,"ry":2172,"99":2173,"ĠContext":2174,"CA":2175,"Socket":2176,"Tag":2177,"fg":2178,"ĠPersist":2179,"getElement":2180,"Timestamp":2181,"utton":2182,"emb":2183,"shell":2184,"Ġ7":2185,"vail":2186,"vailable":2187,"doInJPA":2188,"à¤¾":2189,"Ġimplement":2190,"ĠStandard":2191,"ĠpropertyName":2192,"reationContext":2193,"match":2194,"ModelPart":2195,"wrap":2196,"Abstract":2197,"ĠjavaType":2198,"ested":2199,"LockMode":2200,"InputStream":2201,"Intern":2202,"Ġ&":2203,"uth":2204,"first":2205,"SO":2206,"Classes":2207,"TEST":2208,"itle":2209,"Ġfactory":2210,"Ġbase":2211,"ClassName":2212,"Subclass":2213,"ont":2214,"Ġdelegate":2215,"trans":2216,"EntryPoint":2217,"bo":2218,"ni":2219,"Ġno":2220,"HT":2221,"Selected":2222,"Environment":2223,"Perm":2224,"Ġfile":2225,"ĠgetAuditReader":2226,";\",":2227,"bit":2228,"áĬ":2229,"tx":2230,"Ġmake":2231,"Coord":2232,"XML":2233,"Ġold":2234,"VE":2235,"instant":2236,"ages":2237,"remoteui":2238,"ĠLocal":2239,"while":2240,"Sn":2241,"ĠFile":2242,"ĠtableGroup":2243,"ie":2244,"static":2245,"Sources":2246,"32":2247,"Ġlocale":2248,"upports":2249,"Initializer":2250,"ause":2251,"dt":2252,"statement":2253,"imitive":2254,"Ġlog":2255,"mar":2256,"ayout":2257,"Ġwh":2258,"Ġand":2259,"ĠK":2260,"My":2261,"Qualified":2262,"ables":2263,"Ph":2264,"Database":2265,"US":2266,"ĠSe":2267,"UTC":2268,"cade":2269,"ob":2270,"Ġlength":2271,"JoinColumn":2272,"Binary":2273,"itor":2274,"OfYear":2275,"ating":2276,"vers":2277,"76":2278,"ld":2279,"Ġannotation":2280,"fetch":2281,"ĠaNumber":2282,"Inner":2283,"ynchron":2284,"Mutation":2285,"path":2286,"WT":2287,"Async":2288,"Ġ\",":2289,"App":2290,"MessageProto":2291,"RemoteMessageProto":2292,"Action":2293,"Ġcache":2294,"Mappings":2295,"Ġover":2296,"ascade":2297,"Xml":2298,"Ġed":2299,"Link":2300,"atal":2301,"ĠsetName":2302,"ĠJpa":2303,"98":2304,"ector":2305,"anch":2306,"Bid":2307,"GE":2308,"Present":2309,"Ġcriteria":2310,"à¼ĭ":2311,"Ðº":2312,"JdbcType":2313,"can":2314,"Ġ8":2315,"LOG":2316,"pret":2317,"err":2318,"double":2319,"SourceInfo":2320,"urrency":2321,"Ġformat":2322,"utions":2323,"Package":2324,"Ġsecond":2325,"Product":2326,"getSessionFactory":2327,"FA":2328,"xml":2329,"isting":2330,"NotFound":2331,"Bindings":2332,"node":2333,"program":2334,"crement":2335,"Cap":2336,"ĠSh":2337,"Keyword":2338,"Short":2339,"Ġfoo":2340,"ĠArrays":2341,"Cre":2342,"Ġuser":2343,"Internal":2344,"PER":2345,"Ġmin":2346,"utor":2347,"Ġargument":2348,"Callback":2349,"Coordinator":2350,"tration":2351,"MI":2352,"\"),":2353,"Contrib":2354,"ĠSQLException":2355,"ences":2356,"...":2357,"idget":2358,"xstream":2359,"lator":2360,"Ext":2361,"Character":2362,"Optim":2363,"Ġclazz":2364,"Ġ40":2365,"Ġactual":2366,"ĠStringBuilder":2367,"Can":2368,"Ġexec":2369,"getMessage":2370,"à¥į":2371,"Ã¡":2372,"formation":2373,"Status":2374,"ization":2375,"functionFactory":2376,"Ñĥ":2377,"ya":2378,"Attributes":2379,"Ac":2380,"Ġnames":2381,"Render":2382,"\"}":2383,"ONE":2384,"Bound":2385,"Partial":2386,"ĠserviceRegistry":2387,"second":2388,"atalog":2389,"Ġread":2390,"Hand":2391,"ymb":2392,"my":2393,"Ġtem":2394,"rl":2395,"Constants":2396,"ialization":2397,"collection":2398,"Limit":2399,"setState":2400,"info":2401,"TestSuite":2402,"Annotated":2403,"Scale":2404,"ifact":2405,"proto":2406,"Ġaccess":2407,"OutputStream":2408,"ict":2409,"url":2410,"ferred":2411,"Output":2412,"irect":2413,"ymbol":2414,"}.":2415,"ÙĦ":2416,"enceContext":2417,"Create":2418,"OperationException":2419,"Width":2420,"ĠHibernateException":2421,"orrect":2422,"Last":2423,"TA":2424,"Declared":2425,"\".":2426,"ĠcriteriaBuilder":2427,"Mapped":2428,"Next":2429,"Ġq":2430,"23":2431,"Mock":2432,"Ġ\".":2433,"JavaResource":2434,"Box":2435,"Vis":2436,"Ġappend":2437,"attribute":2438,"Ġ+=":2439,"Ġlast":2440,"lang":2441,"ĠRe":2442,"Ġelem":2443,"cer":2444,"rop":2445,"Generated":2446,"suite":2447,"Ġchar":2448,"':":2449,"Args":2450,"Operator":2451,"SafeHtml":2452,"lag":2453,"amic":2454,"ableType":2455,"tra":2456,"Ġfunction":2457,"ScriptObject":2458,"Ġnumber":2459,"ForeignKey":2460,"vailableSettings":2461,"Stor":2462,"Ġunit":2463,"Orig":2464,"\\\\":2465,"ABLE":2466,"sure":2467,"man":2468,"ts":2469,"Ġbind":2470,"ĠĠĠĠĠĠĠĠ":2471,"BigInteger":2472,"áĭ":2473,"Procedure":2474,"lural":2475,"AY":2476,"ps":2477,"Ġcode":2478,"uggy":2479,"Ed":2480,"Schema":2481,"supportedOperationException":2482,"Ġposition":2483,"lation":2484,"ĠBigInteger":2485,"Act":2486,"TableName":2487,"Chang":2488,"precated":2489,"Custom":2490,"getJavaType":2491,"wn":2492,"TypeName":2493,"Am":2494,"ian":2495,"checked":2496,"substring":2497,"Server":2498,"Ġstats":2499,"localctx":2500,"ta":2501,"TO":2502,"month":2503,"Ġ\"'":2504,"Ġdet":2505,"by":2506,"ught":2507,"ments":2508,"DateTimeFieldType":2509,"Ġaddress":2510,"ResultSet":2511,"KE":2512,"Body":2513,"Ġargs":2514,"untimeException":2515,"cation":2516,"iate":2517,"Command":2518,"imary":2519,"Role":2520,"unique":2521,"Implicit":2522,"insert":2523,"CreationState":2524,"Me":2525,"ails":2526,"irectional":2527,"Write":2528,"Ġcan":2529,"Superclass":2530,"Ġapply":2531,"registerKeyword":2532,"aa":2533,"ject":2534,"Ġ;":2535,"AX":2536,"jiraKey":2537,"amb":2538,"parator":2539,"protobuf":2540,"Ġcustomer":2541,"Extract":2542,"Config":2543,"address":2544,"ManyToMany":2545,"05":2546,"hashCode":2547,"wer":2548,"ynamic":2549,"number":2550,"Current":2551,"Hint":2552,"aybe":2553,"ĠHashMap":2554,"imum":2555,"ater":2556,"iled":2557,"Ġcopy":2558,"ays":2559,"Compar":2560,"strap":2561,"Ġconnection":2562,"Url":2563,"aming":2564,"SourceName":2565,"Api":2566,"14":2567,"Ð²":2568,"ootstrap":2569,"Label":2570,"kip":2571,"Ġtypes":2572,"po":2573,"getPre":2574,"02":2575,"Option":2576,"Ġcomponent":2577,"uthor":2578,"ByteArray":2579,"Setting":2580,"Variable":2581,"03":2582,"GER":2583,"options":2584,"ere":2585,"â´°":2586,"ippet":2587,"Ø³":2588,"debug":2589,"Support":2590,"TypeCode":2591,"yc":2592,"Ġone":2593,"listener":2594,"ĠChild":2595,"Collector":2596,"Ġcb":2597,"ĠParent":2598,"Ġexception":2599,"Condition":2600,"ĠMetadata":2601,"Ġlocal":2602,"ManyToOne":2603,"vok":2604,"Ð°Ð½":2605,"MO":2606,"rapped":2607,"Ġdoes":2608,"àµ":2609,"uman":2610,"ServiceRegistryBuilder":2611,"ĠBigDecimal":2612,"=\\\"":2613,"Entities":2614,"Ġresource":2615,"NT":2616,"Ġ{\",":2617,"ĠBoolean":2618,"ĠAudit":2619,"Ùħ":2620,"Mar":2621,"pc":2622,"ÙĬ":2623,"áı":2624,"Ġref":2625,"merge":2626,"Snippet":2627,"ĠU":2628,"Ġpersistent":2629,"iction":2630,"Ġidentifier":2631,"render":2632,"ReadOnly":2633,"||":2634,"original":2635,"Ġerror":2636,"Wh":2637,"ied":2638,"ÉĽ":2639,"Ġhave":2640,"ĠMapping":2641,"Lib":2642,"Resources":2643,"Full":2644,"etry":2645,"hour":2646,"Ð»":2647,"StringBuilder":2648,"Ġ\"<":2649,"Static":2650,"ormal":2651,"64":2652,"Pos":2653,"Ġ</":2654,"Ġremove":2655,"model":2656,"types":2657,"ialized":2658,"mt":2659,"Ign":2660,"ĠEvent":2661,"ROR":2662,"div":2663,"iles":2664,"Primitive":2665,"Ġconfiguration":2666,"input":2667,"ERROR":2668,"ED":2669,"Information":2670,"alued":2671,"Ġman":2672,"ĠHashSet":2673,"Cast":2674,"ULT":2675,"16":2676,"eries":2677,"cte":2678,"Remove":2679,"isAssign":2680,"cell":2681,"Audited":2682,"ĠPeriod":2683,"Serialization":2684,"Ġab":2685,"StateException":2686,"<?>)":2687,"getQuery":2688,"à¤°":2689,"MM":2690,"Ġ>=":2691,"Css":2692,"19":2693,"Deprecated":2694,"Ġ'\"":2695,"run":2696,"Contributions":2697,"FO":2698,"mutable":2699,"client":2700,"Association":2701,"ProcessingState":2702,"Basics":2703,"unchecked":2704,"Ġresol":2705,"à¤¿":2706,"Declar":2707,"eom":2708,"Ġdt":2709,"PropertyName":2710,"Composite":2711,"BuildingContext":2712,"getDefault":2713,"Failure":2714,"Ġit":2715,"Serializable":2716,"ĠJoin":2717,"ĠMock":2718,"Throwable":2719,"Batch":2720,"NaturalId":2721,"Cte":2722,"Ġsb":2723,"annotation":2724,"OneToMany":2725,"Ġ[*":2726,"poralType":2727,"_.":2728,"base":2729,"ermine":2730,"BigDecimal":2731,"time":2732,"Gwt":2733,"getParent":2734,"Ġmodule":2735,"Ġthrow":2736,"Ġconfig":2737,"correct":2738,"Ġhe":2739,"setId":2740,"Ġinfo":2741,"Scroll":2742,"Tim":2743,"Enh":2744,"Ġgroup":2745,"ĠendVisit":2746,"bitField":2747,"pres":2748,"empty":2749,"Valued":2750,"Ġdomain":2751,"oder":2752,"EE":2753,"addTestSuite":2754,"cate":2755,"yles":2756,"ĠIN":2757,"Top":2758,"Ġnext":2759,"ableFrom":2760,"IT":2761,"getAnnotation":2762,"Ġreader":2763,"ĠSessionFactory":2764,"AS":2765,"Num":2766,"NavigablePath":2767,"Wrapper":2768,"make":2769,"Ġprocess":2770,"setProperty":2771,"Ġconvert":2772,"Ġstream":2773,"Readable":2774,"MAX":2775,"box":2776,"Exp":2777,"acker":2778,"Ġimplementation":2779,"New":2780,"Ġte":2781,"Ġprodu":2782,"vices":2783,"ĠEntityOf":2784,"pressible":2785,"Ġgenerate":2786,"ingleResult":2787,"DB":2788,"à¯":2789,"stat":2790,"Art":2791,"Plan":2792,"getColumn":2793,"FAULT":2794,"='":2795,"Ñı":2796,"generate":2797,"getChild":2798,"ollow":2799,"Member":2800,"bs":2801,"Window":2802,"Program":2803,"Ġextract":2804,"iol":2805,"Ing":2806,"ĠExpression":2807,"ĠNumber":2808,"Def":2809,"process":2810,"04":2811,"Pass":2812,"verify":2813,"STR":2814,"ĠAvailableSettings":2815,"enu":2816,"Interval":2817,"Generation":2818,"Ġrender":2819,"Ġfr":2820,"EX":2821,"Open":2822,"inherit":2823,"Ġ<<":2824,"Ġhandler":2825,"Ad":2826,"Tool":2827,"ĠAbstract":2828,"Arguments":2829,"yped":2830,"ranch":2831,"licy":2832,"ĠcreationState":2833,"Ġequals":2834,"Specification":2835,"Auto":2836,"Expr":2837,"Registration":2838,"Ġoverrid":2839,"Work":2840,"where":2841,"ĠclassName":2842,"Template":2843,"Modified":2844,"IC":2845,"used":2846,"TYPE":2847,"core":2848,"Button":2849,"essages":2850,"(\"<":2851,"ernal":2852,"OT":2853,"HTML":2854,"llegalStateException":2855,"inue":2856,"over":2857,"ick":2858,"metadata":2859,"Appender":2860,"ĠnavigablePath":2861,"ROM":2862,"getMillis":2863,"Services":2864,"Us":2865,"Ð´":2866,"rowser":2867,"AA":2868,"Mutable":2869,"Rel":2870,"Ġaction":2871,"ĠOrder":2872,"Unique":2873,"ĠThrowable":2874,"Post":2875,"offset":2876,"SqlAst":2877,"cap":2878,"Div":2879,"idd":2880,"ES":2881,"EntityManagerFactoryScope":2882,"view":2883,"ãĥ":2884,"xed":2885,"à³":2886,"utionContext":2887,"CODE":2888,"ParseTree":2889,"Aggregate":2890,"06":2891,"part":2892,"Ġwriter":2893,"Run":2894,"Transform":2895,"pareStatement":2896,"NotFoundException":2897,"isAssignableFrom":2898,"Ġexit":2899,"123":2900,"Doc":2901,"OF":2902,"84":2903,"millis":2904,"Ġssr":2905,"compareTo":2906,"ĠAnnotation":2907,"lick":2908,"ula":2909,"Ġwrite":2910,"getSingleResult":2911,"SON":2912,"Var":2913,"rono":2914,"Visible":2915,"Joins":2916,"alker":2917,"board":2918,"wo":2919,"Ġenter":2920,"Thread":2921,"Bits":2922,"IG":2923,"Ġ\\\"":2924,"Val":2925,"áİ":2926,"ĠPr":2927,"fields":2928,"Ġmax":2929,"UM":2930,"Ġinsert":2931,"Layout":2932,"ĠEmployee":2933,"ĠCustomer":2934,"Plural":2935,"ORM":2936,"Ġselection":2937,"Discriminator":2938,"ĠPersistent":2939,"Bidirectional":2940,"Ġ/":2941,"isEqual":2942,"refer":2943,"Ġembedd":2944,"Viewer":2945,"AC":2946,"unk":2947,"Objects":2948,"à±":2949,"ani":2950,"Embedded":2951,"Supported":2952,"ious":2953,"Ġreferenced":2954,"lace":2955,"(_":2956,"IOException":2957,"MIN":2958,"Sort":2959,"Produ":2960,"thing":2961,"ison":2962,"Translator":2963,"Ġassert":2964,"ĠXML":2965,"13":2966,"ged":2967,"Trace":2968,"Ġ19":2969,"Meta":2970,"ĠCollections":2971,"Artifact":2972,"iated":2973,"Primary":2974,"Left":2975,"ializable":2976,"icalName":2977,"object":2978,"Ġstate":2979,"Collections":2980,"Pointer":2981,"Ġreference":2982,"Signature":2983,"Lang":2984,"Ã©":2985,"addSnippet":2986,"Managed":2987,"triction":2988,"ĠresultList":2989,"ĠTree":2990,"ET":2991,"eb":2992,"vious":2993,"cision":2994,"Ġret":2995,"ero":2996,"Ġsimple":2997,"Selectable":2998,"ĠtypeConfiguration":2999,"\"))":3000,"Dom":3001,"ice":3002,"<?,":3003,"aryTable":3004,"ĠUnsupportedOperationException":3005,"()).":3006,"References":3007,"Driver":3008,"getField":3009,"Student":3010,"Ġlhs":3011,"');":3012,"Ġcont":3013,"ierarch":3014,"Replace":3015,"Ignore":3016,"Expressions":3017,"ĠTable":3018,"getIdentifier":3019,"áī":3020,"ĠMy":3021,"Height":3022,"Flush":3023,"Ġ[%":3024,">()":3025,"getStatistics":3026,"Queries":3027,"ĠJaxbHbm":3028,"Ġph":3029,"Record":3030,"DateTimeZone":3031,"COND":3032,"Expressible":3033,"Keys":3034,"Ġprogram":3035,"JsType":3036,"Ġvalid":3037,"ists":3038,"Referenced":3039,"àŃ":3040,"ĠLocale":3041,"round":3042,"Ġexisting":3043,"Ġconstr":3044,"CHAR":3045,"Que":3046,"Ġk":3047,"Search":3048,"CriteriaQuery":3049,"Creator":3050,"LockOptions":3051,"rollback":3052,"shot":3053,"Ġmatch":3054,"')":3055,".\",":3056,"vlet":3057,"ĠBuilder":3058,"apshot":3059,"ClassLoader":3060,"ĠColumn":3061,"Client":3062,"Ġfilter":3063,"OfMonth":3064,"fr":3065,"uage":3066,"Styles":3067,"ĠUser":3068,"ane":3069,"QU":3070,"Dig":3071,"Ġinput":3072,"getSession":3073,"Ġloaded":3074,"call":3075,"Upd":3076,"Bo":3077,"atform":3078,"Ids":3079,"Frame":3080,"Wrap":3081,"Input":3082,"Explicit":3083,"Requ":3084,"Use":3085,"DataPoint":3086,"inheritDoc":3087,"doInHibernate":3088,"Accessor":3089,"ðĲĳ":3090,"Executor":3091,"LECT":3092,"Any":3093,"Ġmodel":3094,"Naming":3095,"Calendar":3096,"ived":3097,"Ġ100":3098,"BU":3099,"cast":3100,"finish":3101,"ffect":3102,"Ġfollow":3103,"Ġpart":3104,"continue":3105,"parameter":3106,"oft":3107,"Own":3108,"addAll":3109,"Ui":3110,"Ġmsg":3111,"Ġproduced":3112,"istory":3113,"ired":3114,"NullPointer":3115,"NullPointerException":3116,"PRO":3117,"ingMode":3118,"eat":3119,"delegate":3120,"ĠMath":3121,"Close":3122,"Other":3123,"ĠElement":3124,"Ġfound":3125,"Ġmod":3126,"à¤¨":3127,"RefEd":3128,"Params":3129,"Ġaccept":3130,"Elem":3131,"Vector":3132,"Ġproperties":3133,"ike":3134,"(?":3135,"Display":3136,"Ġu":3137,"ĠRuntimeException":3138,"uniqueResult":3139,"Ġ[*]\",":3140,"expression":3141,"uffix":3142,"RefIng":3143,")));":3144,"JType":3145,"ise":3146,"ude":3147,"¾\");":3148,"Struct":3149,"ched":3150,"impl":3151,"Identity":3152,"ĠMutable":3153,"da":3154,"nect":3155,"tp":3156,"()[":3157,"Neg":3158,"ja":3159,"Contain":3160,"ĠentityDescriptor":3161,"Ġare":3162,"work":3163,"Ġstatistics":3164,"fl":3165,"sWith":3166,"td":3167,"max":3168,"erged":3169,"Details":3170,"SER":3171,"Ġurl":3172,"Import":3173,"ular":3174,"emant":3175,"Compilation":3176,"Policy":3177,"ĠEnum":3178,"Aria":3179,"Channel":3180,"Ġstyle":3181,"Generic":3182,"mod":3183,"tries":3184,"Ord":3185,"mapping":3186,"DD":3187,"Ġenc":3188,"getChildren":3189,"LL":3190,"Ġupdate":3191,"<?>>":3192,"Delegate":3193,"Jaxb":3194,"hn":3195,"ission":3196,"HashSet":3197,"OM":3198,"Depend":3199,"SharedSessionContractImplementor":3200,"Ġleft":3201,"Øª":3202,"74":3203,"ions":3204,"Ġrevision":3205,"week":3206,"Platform":3207,"Changed":3208,"lay":3209,"inish":3210,"__":3211,"rit":3212,"error":3213,"Eng":3214,"locale":3215,"Ġoptim":3216,"Immutable":3217,"VER":3218,"handler":3219,"ĠĠĠĠĠ":3220,"Ġxml":3221,"++;":3222,"ĠSharedSessionContractImplementor":3223,"eds":3224,"SH":3225,"1234":3226,"2004":3227,"ĠFetch":3228,"Producer":3229,"mento":3230,"andle":3231,"ĠTem":3232,"AnnotatedClass":3233,"Do":3234,"ĠIdentifier":3235,"cache":3236,"ountry":3237,"Ġbean":3238,"ReturnType":3239,"Ġoper":3240,"ĠDouble":3241,"OO":3242,"Parameterized":3243,"should":3244,"edType":3245,"ones":3246,"Success":3247,"MapKey":3248,"hasNext":3249,"Direct":3250,"PC":3251,"Ø¨":3252,"isEqualTo":3253,"acy":3254,"ohn":3255,"Ind":3256,"YearMonth":3257,"push":3258,"singType":3259,"ma":3260,"Span":3261,"JaxbHbm":3262,"MT":3263,"group":3264,"aggregate":3265,"72":3266,"simple":3267,"à«":3268,"Ġ++":3269,"forEach":3270,"patch":3271,"pos":3272,"Invalid":3273,"Nodes":3274,"sp":3275,"keys":3276,"Ġschema":3277,"Ġ!(":3278,"getCriteriaBuilder":3279,"TIVE":3280,"getTypeConfiguration":3281,"KEY":3282,"Ġver":3283,"Ġsequence":3284,"MENT":3285,"land":3286,"rc":3287,"eature":3288,"ra":3289,"parser":3290,"Ġselectable":3291,"embers":3292,"Color":3293,"Days":3294,"module":3295,"display":3296,"Engine":3297,"ĠBind":3298,"Queue":3299,"Hql":3300,"Ġpattern":3301,"Ġproduct":3302,";\\":3303,"Ġdecl":3304,"Selector":3305,"Tab":3306,"zone":3307,"Extension":3308,"Ìģ":3309,"Ġ\"\"":3310,"upd":3311,"Lower":3312,"ĠSystem":3313,"CriteriaBuilder":3314,"addAnnotatedClass":3315,"ysical":3316,"Viol":3317,"Ġdouble":3318,"()))":3319,"args":3320,"pareStatementCount":3321,"idth":3322,"elf":3323,"StatementInspector":3324,"ycle":3325,"BA":3326,"instance":3327,"charAt":3328,"lease":3329,"Ġcl":3330,"expect":3331,"ColumnName":3332,"getPrepareStatementCount":3333,")\");":3334,"elem":3335,"ĠsetUp":3336,"Mouse":3337,"allback":3338,"Transformer":3339,"pute":3340,"SET":3341,"Ġwidget":3342,"Hours":3343,"oy":3344,"ĠtoString":3345,"ĠThis":3346,"Ġdetermine":3347,"CI":3348,"Symbol":3349,".\");":3350,"uch":3351,"Ġlisteners":3352,"fined":3353,"trace":3354,"getAttribute":3355,"Ġconverter":3356,"Lob":3357,"DomainResult":3358,"entrySet":3359,"CN":3360,"Items":3361,"validate":3362,"lated":3363,"Ġrequest":3364,"âµī":3365,"Logg":3366,"Dirty":3367,"owner":3368,"SqmExpression":3369,"OfWeek":3370,"Interpret":3371,"Exit":3372,"Ġbar":3373,"ĠItem":3374,"SELECT":3375,"Nested":3376,"Ġad":3377,"Ġexplicit":3378,"Should":3379,"Loaded":3380,"ĠJsContext":3381,"Ġpredicate":3382,"ĠSqlAst":3383,"Mis":3384,"position":3385,"fire":3386,"Events":3387,"Ġchrono":3388,"Indexed":3389,"Bounds":3390,"ZE":3391,"package":3392,"clus":3393,"CHE":3394,"Ġdescription":3395,"ware":3396,"pattern":3397,"Seconds":3398,"Browser":3399,"Store":3400,"Unable":3401,"ĠAdd":3402,"ĠDuration":3403,"obj":3404,"Ġcal":3405,"cape":3406,"wa":3407,"Ġmust":3408,"Att":3409,"SessionFactoryImplementor":3410,"Header":3411,"dialect":3412,"Unknown":3413,"INT":3414,"UP":3415,"ĠTime":3416,")\",":3417,"09":3418,"ote":3419,"pup":3420,"ĠEntityOfBasics":3421,"Kind":3422,"getText":3423,"Ġcustom":3424,"getCurrent":3425,"NE":3426,"Ġhql":3427,"ĠISO":3428,"ugg":3429,"compile":3430,"áŁ":3431,"edStatement":3432,"aces":3433,"html":3434,"Buggy":3435,"Inline":3436,"Ġà¤":3437,"Ġgeom":3438,"getCollection":3439,"ĠLockMode":3440,"change":3441,"Export":3442,"ru":3443,"convert":3444,"description":3445,"Cl":3446,"Ġ?>":3447,"DEFAULT":3448,"ĠY":3449,"extract":3450,"iance":3451,"ocus":3452,"Ð°ÑĢ":3453,"we":3454,"custom":3455,"ym":3456,"24":3457,"setValue":3458,"oded":3459,"product":3460,"Ġtransaction":3461,"RefEdEntity":3462,"ĠCon":3463,"ternative":3464,"incorrect":3465,"Ġcallback":3466,"Mut":3467,"cat":3468,"reader":3469,"ĠDocument":3470,"Ġregion":3471,"Ġcte":3472,"Ġbuffer":3473,"clude":3474,"AfterEach":3475,"rapperOptions":3476,"Ġspec":3477,"Ġabstract":3478,"yy":3479,"Abs":3480,"body":3481,"ev":3482,"lags":3483,"Ġbasic":3484,"ended":3485,"Elements":3486,"sume":3487,"ancement":3488,"DomainType":3489,"iver":3490,"Ġlen":3491,"toArray":3492,"getQualified":3493,"role":3494,"short":3495,"âµı":3496,"Ġgenerator":3497,"getEntityName":3498,"FIN":3499,"Ġbuf":3500,"config":3501,"Print":3502,"OneToOne":3503,"ULL":3504,"ĠAddress":3505,"Ġqu":3506,"Listeners":3507,"Ġreturns":3508,"containsKey":3509,"ĠSafe":3510,"Compiler":3511,"ĠloadNameMap":3512,"Single":3513,"eet":3514,"ĠIllegalStateException":3515,"voc":3516,"paredStatement":3517,"loadNameMap":3518,"enceUnit":3519,"RefIngEntity":3520,"==":3521,"Direction":3522,"Permission":3523,"var":3524,"Ġdir":3525,"Ordinal":3526,"DI":3527,"getMapping":3528,"indexOf":3529,"Minute":3530,"filter":3531,"Rows":3532,"graph":3533,"tag":3534,"×Ļ":3535,"oll":3536,"unit":3537,"ĠLink":3538,"visitor":3539,"ĠValue":3540,"Resolution":3541,"Extractor":3542,"rno":3543,"some":3544,"Ġtuple":3545,"ĠAnimal":3546,"ĠFor":3547,"iffer":3548,"Ġreturned":3549,"18":3550,"Cascade":3551,"Skip":3552,"edProcedure":3553,"style":3554,"History":3555,"Ú©":3556,"QuerySpec":3557,"PathSource":3558,"Ø§ÙĨ":3559,"Account":3560,"GWT":3561,"(\"}":3562,"Expect":3563,"setDefault":3564,"ĠCache":3565,"ĠFROM":3566,"ROOT":3567,")\"":3568,"ĠZ":3569,"open":3570,"ĠlockMode":3571,";\");":3572,"LD":3573,"ĠNode":3574,"oted":3575,"ParameterBindings":3576,"StatementInterceptor":3577,"Ġfinally":3578,"errHandler":3579,"aj":3580,"eric":3581,"Strings":3582,"cho":3583,"Ġrun":3584,"Ġchildren":3585,"SC":3586,"ĠDefault":3587,"anced":3588,"Ġnamed":3589,"Ġsign":3590,"Ġpo":3591,"Minutes":3592,"vocation":3593,"Ġus":3594,"Ġuse":3595,"NullValue":3596,"2006":3597,"Uri":3598,"ĠField":3599,"getEn":3600,"Maps":3601,"ĠTypes":3602,"ĠObjects":3603,"READ":3604,"ynchronized":3605,"enant":3606,"ories":3607,"EntityDescriptor":3608,"ĠtestGet":3609,"Ġlazy":3610,"Ġprefix":3611,"src":3612,"Menu":3613,"ĠEmbeddable":3614,"Ġsett":3615,"Ġline":3616,"Namespace":3617,"Ã¨":3618,"ĠProduct":3619,".\"":3620,"Creation":3621,"PRE":3622,"į\");":3623,"unwrap":3624,"ArrayList":3625,"22":3626,"dl":3627,"ires":3628,"Increment":3629,"semb":3630,"âĢ":3631,"ARN":3632,"ĠSerialization":3633,"Active":3634,"air":3635,"ram":3636,"Ġdel":3637,"Loading":3638,"ĠfieldName":3639,"istin":3640,"shal":3641,"ambda":3642,"Declaration":3643,"getService":3644,"[])":3645,"versService":3646,"Split":3647,"emantic":3648,"LON":3649,"Ġsort":3650,"EventListener":3651,"uggest":3652,"Are":3653,"anon":3654,"Ġcontainer":3655,"ĠtableName":3656,"reated":3657,"Ġtag":3658,"ĠSchema":3659,"à¤¯":3660,"outFile":3661,"Look":3662,"det":3663,"istic":3664,"Ġoutput":3665,"OP":3666,"Inherit":3667,"ĠtypeName":3668,"ConnectionProvider":3669,"Formula":3670,"Where":3671,"ason":3672,"Extern":3673,"EntityWith":3674,"Ġhbm":3675,"Align":3676,"ĠGWT":3677,"edBy":3678,"SECOND":3679,"Compliance":3680,"Ġregis":3681,"istinct":3682,"ĠSub":3683,"Ġinvok":3684,"getCache":3685,"ĠpersistentClass":3686,"Book":3687,"Mask":3688,"Sorted":3689,"buffer":3690,"JoinType":3691,"ViewerRequest":3692,"Geom":3693,"cogn":3694,"Ġyear":3695,"Finish":3696,"late":3697,"Restriction":3698,"Compile":3699,"à¥ĩ":3700,"ĠJavaScriptObject":3701,"optim":3702,"à©":3703,"à¹":3704,"Ġ(\"":3705,"ĠMappingException":3706,"Ġbook":3707,"ĠsetParameter":3708,"STA":3709,"Execution":3710,"DATE":3711,"Dynamic":3712,"mon":3713,"Timeout":3714,"usted":3715,"Ġcolumns":3716,"0000000":3717,"startsWith":3718,"Back":3719,"Category":3720,"customer":3721,"Ident":3722,")\";":3723,"Files":3724,"getLocal":3725,"ingular":3726,"abc":3727,"message":3728,"Ãł":3729,"import":3730,"createNativeQuery":3731,"ĠqueryPart":3732,"metic":3733,"Ġdisplay":3734,"45":3735,"Prop":3736,"CTION":3737,"itive":3738,"ithmetic":3739,"exit":3740,"Instantiation":3741,"Temporal":3742,"initialize":3743,"StoredProcedure":3744,"maybe":3745,"oe":3746,"getStyle":3747,"getFirst":3748,"delay":3749,"Versioned":3750,"Revisions":3751,"Both":3752,"ĠJaxb":3753,"exception":3754,"ĠEntityPersister":3755,"ailed":3756,"EntityPersister":3757,"vMode":3758,"Ġ\");":3759,"cedence":3760,"##":3761,"blem":3762,"Ġparameters":3763,"SIZE":3764,"à§į":3765,"ek":3766,"trol":3767,"uplic":3768,"akart":3769,"Assemb":3770,"ISO":3771,"monthOfYear":3772,"ĠContact":3773,"tree":3774,"troy":3775,"animal":3776,"ĠresBytes":3777,"Getter":3778,"sign":3779,"Ġplural":3780,"resource":3781,"Location":3782,"TestData":3783,"Ġtoken":3784,"Annotations":3785,"ĠdatePattern":3786,"StackTrace":3787,"à¤¸":3788,"Outer":3789,"Linked":3790,"Ġwas":3791,"Ġthrown":3792,"cc":3793,"util":3794,"Optional":3795,"75":3796,"Ġnum":3797,"Qualifier":3798,"LowerCase":3799,"dir":3800,"ĠNative":3801,"ets":3802,"ĠMar":3803,"SqlSelection":3804,"Ġemployee":3805,"ĠtimePattern":3806,"Lookup":3807,"getSourceInfo":3808,"ĠaBytes":3809,"rnoException":3810,"arDown":3811,"akarta":3812,"Per":3813,"sync":3814,"api":3815,"Ġsn":3816,"Exchange":3817,"ClassDecl":3818,"JoinColumnBidirectional":3819,"Ġsupports":3820,"ĠDialect":3821,"NumberOf":3822,"000000":3823,"70":3824,"Ġcast":3825,"rie":3826,"BasicType":3827,"children":3828,"Ġtransform":3829,"Ġ\"</":3830,"Ġ<=":3831,"Click":3832,"Ð¼":3833,"ĠJMethod":3834,"Ġaf":3835,"This":3836,"Ann":3837,"Final":3838,"fd":3839,"FromClause":3840,"ĠnodeBuilder":3841,"Relation":3842,"down":3843,"assertParse":3844,"ĠFoo":3845,"DurationFieldType":3846,"assertAnnotation":3847,"olute":3848,"ĠtestSet":3849,"clud":3850,"Json":3851,".</":3852,"Es":3853,"Page":3854,"state":3855,"Ġmonth":3856,"ou":3857,"ĠgetEntityManager":3858,"ĠSelect":3859,"iddle":3860,"addSnippetClassDecl":3861,"server":3862,"DateTimeFormat":3863,"Statements":3864,"Ġregister":3865,"Optimizer":3866,"Digits":3867,"ãĤ":3868,"Ġservice":3869,"Ġmanaged":3870,"chedule":3871,"getMappingMetamodel":3872,"uid":3873,"Ġextension":3874,"ĠNamed":3875,"getTable":3876,"Ġts":3877,"ĠPlural":3878,"ociated":3879,"Memento":3880,"Ġ{\\":3881,"channel":3882,"resh":3883,"plier":3884,"ĠtableReference":3885,"73":3886,"bl":3887,"Ġing":3888,"atag":3889,"Paths":3890,"Ġembeddable":3891,"Violation":3892,".*":3893,"je":3894,"reset":3895,"QueryPart":3896,"ĠresultSet":3897,"ynth":3898,"External":3899,"atagram":3900,"Ġany":3901,"END":3902,"789":3903,"Phone":3904,"When":3905,"Ġca":3906,"Bit":3907,"Zero":3908,"Ñĸ":3909,"avin":3910,"Ġtreat":3911,"ĠjiraKey":3912,"ĠAss":3913,"à¤ķ":3914,"Multiple":3915,"iator":3916,"ĠtearDown":3917,"=\"":3918,"Put":3919,"float":3920,"ĠAttribute":3921,"ĠByte":3922,"faces":3923,"100":3924,"CreationContext":3925,"ĠRoot":3926,"getFactory":3927,"rior":3928,"ĠrBytes":3929,"Ġnothing":3930,"Timing":3931,"Typed":3932,"ĠattributeMapping":3933,"Ġeras":3934,"statementInspector":3935,"STRING":3936,"Leg":3937,"PO":3938,"hel":3939,"Ġnon":3940,"Ġ200":3941,"kerType":3942,"annotations":3943,"Ġsuite":3944,"DOM":3945,"system":3946,"oding":3947,"resol":3948,"ToCopy":3949,"à¦¾":3950,"debugf":3951,"29":3952,"79":3953,"Feature":3954,"Host":3955,"Ġall":3956,"aring":3957,"component":3958,"getSqlQueries":3959,"ĠSessionFactoryImplementor":3960,"Ctx":3961,"Ã³":3962,"DevMode":3963,"Permutation":3964,"Ġne":3965,"Desc":3966,"Handl":3967,"55":3968,"Ġ\"-":3969,"Ġsrc":3970,"argument":3971,"Ð³":3972,"Ġign":3973,"Ġmillis":3974,"otal":3975,"JavaScriptObject":3976,"ĠWrapperOptions":3977,"Assembler":3978,"Õ¡":3979,"toLowerCase":3980,"Ġmapper":3981,"Ġafter":3982,"Font":3983,"cent":3984,"visitChildren":3985,"me":3986,"med":3987,"widget":3988,"Ð±":3989,"Exact":3990,"Debug":3991,"Ġarguments":3992,"ĠTableGroup":3993,"Counts":3994,"Ġbytes":3995,"BothW":3996,"criteria":3997,"à¤¾\");":3998,"Ġresolved":3999,"Xref":4000,"ceiver":4001,"Separator":4002,"StreamReader":4003,"YE":4004,"ep":4005,"×Ĳ":4006,"atible":4007,"Servlet":4008,"Ð¸Ñı":4009,"SimpleFoo":4010,"Ġparams":4011,"BothWays":4012,"getNode":4013,"Force":4014,"Language":4015,"Title":4016,"sive":4017,"getOffset":4018,"Convert":4019,"keySet":4020,"AccessType":4021,"~~":4022,"ListJoinColumnBidirectional":4023,"Ġ},":4024,"Ġ}\",":4025,"DeclaredType":4026,"ParseTreeListener":4027,"ix":4028,"Touch":4029,"Throw":4030,"ĠFloat":4031,"Ġbefore":4032,"Ġinitial":4033,"ott":4034,"Precedence":4035,"ErrnoException":4036,"Ð°Ð»":4037,"Pol":4038,"sqm":4039,"etion":4040,"decl":4041,"okup":4042,"abilityExchange":4043,"getPath":4044,"getMetadata":4045,"Ġresponse":4046,"Ġform":4047,"Ġinterface":4048,"oftware":4049,"TestFinish":4050,"Ġreplace":4051,"AM":4052,"Ġday":4053,"ArrayType":4054,"ÐµÑĢ":4055,"JExpression":4056,"Ġinte":4057,"appender":4058,"JsName":4059,"Ġzone":4060,"lobal":4061,"WN":4062,"Ġdb":4063,"ĠDOM":4064,"Usage":4065,"delayTestFinish":4066,"BM":4067,"getChronology":4068,"content":4069,"êķ":4070,"Joined":4071,"à½²":4072,"ĠConfiguration":4073,"StrTestEntity":4074,"Ġunique":4075,"caught":4076,"//":4077,"Ġ{\"":4078,"Ġorg":4079,"Ġfragment":4080,"side":4081,"ĠComponent":4082,"Bas":4083,"edValue":4084,"resBytes":4085,"plied":4086,"configuration":4087,"Ġfields":4088,"getNavigablePath":4089,"MockJavaResource":4090,"oned":4091,"asString":4092,"Ġhtml":4093,"Commit":4094,"ÐµÐ½":4095,"Directory":4096,"Bootstrap":4097,"FF":4098,"panel":4099,"Ġmany":4100,"Jso":4101,"ĠsqlAst":4102,"Ġ\"+":4103,"Callable":4104,"Ġaudit":4105,"Comment":4106,"Ġrs":4107,"ĠEntityWith":4108,"supports":4109,"Ġcell":4110,"getTarget":4111,"ĠĠĠĠĠĠĠĠĠĠĠ":4112,"[]{":4113,"OutOf":4114,"Maximum":4115,"present":4116,">\";":4117,"LY":4118,"Profile":4119,"connection":4120,"StandardServiceRegistryBuilder":4121,"ĠstatementInspector":4122,"Ġenum":4123,"Validation":4124,"ĠInt":4125,"iff":4126,"igh":4127,"leanup":4128,"Jsni":4129,"LOGGER":4130,"ĠSerializationException":4131,"FT":4132,"num":4133,"split":4134,"getD":4135,"assertBothWays":4136,"Coll":4137,"LocalDateTime":4138,"riority":4139,"flow":4140,"isInstance":4141,"ĠlockOptions":4142,"finishTest":4143,"Ø¯":4144,"erialize":4145,"Arithmetic":4146,"BeforeEach":4147,"RITE":4148,"Anal":4149,"Ġprop":4150,"anges":4151,"getString":4152,"ĠST":4153,"ifiers":4154,"Ġoverride":4155,"book":4156,"Î±":4157,"top":4158,"LASS":4159,"El":4160,"left":4161,"ana":4162,"uri":4163,"\"},":4164,"many":4165,"Control":4166,"Physical":4167,"pth":4168,"safe":4169,"Ð¡":4170,"ĠnaturalId":4171,"Ġpackage":4172,"ĠnotNullValue":4173,"Comparison":4174,"na":4175,"sort":4176,"Ġpost":4177,"à¦¿":4178,"Ġkeys":4179,"Ġassign":4180,"ÑģÑĤ":4181,"MappedSuperclass":4182,"less":4183,"ensure":4184,"pted":4185,"Ġdiscriminator":4186,"Enhancement":4187,"Eur":4188,"moved":4189,"getCanon":4190,"Ġcompany":4191,"ĠjdbcMapping":4192,"ĠjoinColumns":4193,"Called":4194,"Coder":4195,"getTime":4196,"Ġcached":4197,"Ġboot":4198,"Ġop":4199,"STIC":4200,"áĥĺ":4201,"Ġ[\"":4202,"ination":4203,"idn":4204,"Ġval":4205,"Ġtimestamp":4206,"Ġcontains":4207,"CacheMode":4208,"ready":4209,"hourOfDay":4210,"\":":4211,"msg":4212,"vari":4213,"untimeMetamodel":4214,"Storage":4215,"untimeMetamodels":4216,"multi":4217,"ending":4218,"JoinColumns":4219,"getQualifiedSourceName":4220,"ĠLinked":4221,"Jta":4222,"Ġiterator":4223,"orian":4224,"ĠPost":4225,"Ġcannot":4226,"Tools":4227,"boardSelected":4228,"×Ļ×":4229,"Len":4230,"WRITE":4231,"isSame":4232,"ĠPre":4233,"John":4234,"clazz":4235,"hbm":4236,"Some":4237,"bers":4238,"Ġdatabase":4239,"plac":4240,"ĠJClassType":4241,"OrderBy":4242,"dp":4243,"timestamp":4244,"inSession":4245,"Ġproxy":4246,"ĠIter":4247,"ÐºÐ°":4248,"FlushMode":4249,"ux":4250,"Ġmember":4251,"FetchClause":4252,"ĠmethodName":4253,"LOCK":4254,"NamedQuery":4255,"CompilationUnit":4256,"uk":4257,"etic":4258,"getCause":4259,"ĠSerializable":4260,"ÃŃl":4261,"$$":4262,"Raw":4263,"nd":4264,"TEGER":4265,"DBC":4266,"Ġcause":4267,"Ġperm":4268,"à¤²":4269,"PersistentClass":4270,"Comparator":4271,"FQ":4272,"Ġscale":4273,"ARR":4274,"schema":4275,"Op":4276,"umption":4277,"Ġwalker":4278,"FunctionRegistry":4279,"Ð¸Ð½":4280,"áĥĲ":4281,"HqlParserListener":4282,"ĠHqlParserListener":4283,"Place":4284,"UB":4285,"cator":4286,"ÉĶ":4287,"à»":4288,"ptional":4289,"indent":4290,"Ġtop":4291,"SubQuery":4292,"poraryTable":4293,"\"}\");":4294,"OfHour":4295,"Ġwill":4296,"Checker":4297,"transaction":4298,"cret":4299,"ĠDE":4300,"Ġimage":4301,"'\"":4302,"PT":4303,"image":4304,"igger":4305,"Cfg":4306,"HER":4307,"Ġ\"]":4308,"Ġfail":4309,"Ġcaught":4310,"TL":4311,"ales":4312,"Tracker":4313,"binding":4314,"sor":4315,"Nullable":4316,"Reflection":4317,"ĠgetOr":4318,"RootPanel":4319,"Ġcontent":4320,"Ðľ":4321,"alf":4322,"edEntity":4323,"EntityGraph":4324,"NotAudited":4325,"Ġstrategy":4326,"SelectStatement":4327,"phone":4328,"----":4329,"Ġbinding":4330,"ĠMetadataSources":4331,"ierarchical":4332,"Gu":4333,"Messages":4334,"Obj":4335,"Pk":4336,"factory":4337,"Ñĭ":4338,"Ġ,":4339,"Ġrole":4340,"Rect":4341,"resenter":4342,"Ġ15":4343,"stand":4344,"FQCN":4345,"intValue":4346,"ummy":4347,"ĠcreateNative":4348,"ters":4349,"ĠResource":4350,"getRoot":4351,"ivity":4352,"à¥ĭ":4353,"ĠMethod":4354,"Ġpos":4355,"Ã¨de":4356,"equal":4357,"TypeCheck":4358,"ĠCO":4359,"referenced":4360,"ottom":4361,"idnight":4362,"branch":4363,"ees":4364,"AddLog":4365,"ployer":4366,"PersistentAttribute":4367,"Ġaggregate":4368,"good":4369,"Completion":4370,"DAY":4371,"arator":4372,"Ġtx":4373,"Entries":4374,"ĠDom":4375,"LEFT":4376,"results":4377,"BY":4378,"Ob":4379,"Task":4380,"pop":4381,"Ðļ":4382,"Ġsp":4383,"Ġsupported":4384,"OrÃŃl":4385,"Ġ31":4386,"ORMAT":4387,",\"":4388,"ulate":4389,"Ġclo":4390,"Ġtitle":4391,"Chunk":4392,"ĠUnit":4393,"undle":4394,"ĠBinding":4395,"Side":4396,"basic":4397,"ĠTestEntity":4398,"EntityType":4399,"ĠPAR":4400,"Stats":4401,"rimary":4402,"Ġgenerated":4403,"Ġsnapshot":4404,"IST":4405,"rag":4406,"def":4407,"Ġ11":4408,"ĠcolumnName":4409,"ĠLabel":4410,"Ġexecute":4411,"'t":4412,"acher":4413,"Åĭ":4414,"Ùī":4415,"ExpressionResolver":4416,"Printer":4417,"output":4418,"ĠclassLoader":4419,"ĠonSuccess":4420,"MAL":4421,"Tables":4422,"response":4423,"ĠJSON":4424,"Years":4425,"pw":4426,"ĠgetClass":4427,"Ġcase":4428,"ayer":4429,"Ġstudent":4430,"Ġjaxb":4431,"SQLStatement":4432,"Ġwhen":4433,"Linker":4434,"uit":4435,"getFormat":4436,"getVersion":4437,"amount":4438,"rol":4439,"ĠCom":4440,"Rebuild":4441,"ĠsetC":4442,"GR":4443,"getDialect":4444,"example":4445,"access":4446,"ĠinstanceOf":4447,"logf":4448,"LOB":4449,"ategories":4450,"DurationField":4451,"ĠJavaType":4452,"iya":4453,"eted":4454,"Ġste":4455,"ait":4456,"asc":4457,"ĠStringBuffer":4458,"ourse":4459,"rika":4460,"{\"+":4461,"IL":4462,"ators":4463,"Ġ|=":4464,"ĠLocalDateTime":4465,"Focus":4466,"UI":4467,"ĠLockOptions":4468,"className":4469,"getJdbcType":4470,"css":4471,"den":4472,"ank":4473,"Ġcontract":4474,"earch":4475,"Ġannotated":4476,"Ð¾Ð½":4477,"days":4478,"ĠinvokingState":4479,"imalRebuild":4480,"closingType":4481,"ĠbuildingContext":4482,"ynthetic":4483,"HERE":4484,"ITY":4485,"Ñĺ":4486,"getMethod":4487,"connect":4488,"ĠMapKey":4489,"Runtime":4490,"Ġcontain":4491,"FileDescriptor":4492,"CharSequence":4493,"SimpleEntity":4494,"Mon":4495,"Two":4496,"ĠErrnoException":4497,"ĠDomain":4498,"regorian":4499,"ĠpersistenceContext":4500,"2005":4501,"OutOfBounds":4502,"rand":4503,"resources":4504,"Transient":4505,"Parts":4506,"âµĵ":4507,"assemb":4508,"Ġpk":4509,"Ġmerge":4510,"Lists":4511,"ENTI":4512,"Ġfetchable":4513,"Such":4514,"curity":4515,"imalRebuildCache":4516,"66":4517,"YearMonthDay":4518,"Absolute":4519,"Drop":4520,"mp":4521,"Ø¬":4522,"identifier":4523,"[][]":4524,"ĠCal":4525,"Ġgraph":4526,"getProperties":4527,"report":4528,"Ġclear":4529,"ift":4530,"ĠgetVersion":4531,"coun":4532,"IndexOutOfBounds":4533,"NamingStrategy":4534,"standard":4535,"77":4536,"EST":4537,"GL":4538,"px":4539,"TypeOracle":4540,"Ġalternative":4541,"ĠDateTimeZone":4542,"Cannot":4543,"isticLock":4544,"AEntity":4545,"NG":4546,"ĠSAX":4547,"token":4548,"Ġjpa":4549,"encing":4550,"Ġstruct":4551,"ĠquerySpec":4552,"Space":4553,"Ġtimeout":4554,"PAREN":4555,"gress":4556,"tual":4557,"properties":4558,"toByteArray":4559,"Ġ'\\":4560,"ALI":4561,"ynchronization":4562,"Renderer":4563,"×ķ":4564,"PersistenceContext":4565,"Ġyou":4566,"ĠotherEntity":4567,"dayOfMonth":4568,"512":4569,"navigablePath":4570,"ina":4571,"JoinTable":4572,"Ġprepare":4573,"áĬķ":4574,"Bi":4575,"VA":4576,"ted":4577,"level":4578,"Ġsup":4579,"student":4580,"STAMP":4581,",?":4582,"PK":4583,"getL":4584,"Ġme":4585,"ĠJson":4586,"ValuedModelPart":4587,"Na":4588,"ms":4589,"getF":4590,"à¤®":4591,"LocalDate":4592,"à¥Ģ":4593,"Serializer":4594,"ween":4595,"Priority":4596,"card":4597,"member":4598,"etween":4599,"Ġnormal":4600,"Ġequal":4601,"Ġmaybe":4602,"Fixed":4603,"Without":4604,"uff":4605,"JDeclaredType":4606,"Right":4607,"ĠTransaction":4608,"(\"\\":4609,"UpdateCount":4610,"Ġcomment":4611,"SQLException":4612,"MPTY":4613,"IndexOutOfBoundsException":4614,"Math":4615,"Using":4616,"ines":4617,"isActive":4618,"Assignment":4619,"àµį":4620,"ffective":4621,"Mutability":4622,"getCanonicalName":4623,"VAR":4624,"dent":4625,"light":4626,"Ġmain":4627,"Ġattr":4628,"FormatterBuilder":4629,"CRE":4630,"Midnight":4631,"Suffix":4632,"ĠParameter":4633,"apter":4634,"Ġbut":4635,"emory":4636,"jection":4637,"DAT":4638,"More":4639,"bin":4640,"ale":4641,"internal":4642,"Ġparser":4643,"ĠHierarchical":4644,"Months":4645,"Clear":4646,"CLASS":4647,"Est":4648,"escape":4649,"Ġcategory":4650,"ializer":4651,"Upper":4652,"Clob":4653,"Ne":4654,"edClass":4655,"Ġpl":4656,"Stmt":4657,"consume":4658,"OfMinute":4659,"applySetting":4660,"Ġprevious":4661,"SSI":4662,"Ġconstraint":4663,"Ġ1000":4664,"NotPresent":4665,"LocalTime":4666,"Ġempty":4667,"ysis":4668,"ChangeEvent":4669,"PrimaryKey":4670,"39":4671,"NULL":4672,"Ġmutation":4673,"Ġenabled":4674,"Intf":4675,"Aliases":4676,"lazy":4677,"cursive":4678,"Ġ\".\"":4679,"ĠName":4680,"Ġ\"\";":4681,"stit":4682,"Ġrequ":4683,"Ġimpl":4684,"Fragments":4685,"Illegal":4686,"TABLE":4687,"Ġqual":4688,"ForDialect":4689,"aching":4690,"ĠhashCode":4691,"leton":4692,"Containing":4693,"Legacy":4694,"ĠURL":4695,"trim":4696,"Ġpresent":4697,"ĠSource":4698,"Ġoracle":4699,"ATOR":4700,"Bu":4701,"ens":4702,"getP":4703,"Ġperiod":4704,"SelectClause":4705,"Ġanimal":4706,"ookie":4707,"Closed":4708,"LLIS":4709,"CU":4710,"getDescriptor":4711,"getDeclared":4712,"Into":4713,"Ġrel":4714,"ReferenceType":4715,"BUG":4716,"sBy":4717,"request":4718,"(\"\",":4719,"Ġxstream":4720,"DED":4721,"getJdbcMapping":4722,"voke":4723,"GwtLocale":4724,"ĠextensionRegistry":4725,"SA":4726,"named":4727,"Ðĳ":4728,"Ġ#":4729,"icu":4730,"Ġnamespace":4731,"presenter":4732,"Icon":4733,"JField":4734,"holder":4735,"Ġbatch":4736,"Ġ23":4737,"acity":4738,"ARY":4739,"MetadataBuildingContext":4740,"RPC":4741,"ursor":4742,"Enter":4743,"Ġhour":4744,"getTypeName":4745,"Ø§ÙĦ":4746,"Ġprecision":4747,"Ġgeometry":4748,"48":4749,"ertical":4750,"Ġcity":4751,"Ġcatalog":4752,"REF":4753,"Selections":4754,"ika":4755,"UTF":4756,"ĠSimpleEntity":4757,"mark":4758,"ĠTemporalType":4759,"resolved":4760,"BE":4761,"Could":4762,"Self":4763,"ba":4764,"domain":4765,"pp":4766,"Ġ()":4767,"Ġvar":4768,"assertNot":4769,"Ġrhs":4770,"fromTransaction":4771,"Ġsubclass":4772,"Ġ60":4773,"ĠAuditEntity":4774,"ĠSafeHtml":4775,"ija":4776,"main":4777,"script":4778,"ibcore":4779,"Register":4780,"ĠBook":4781,"after":4782,"ĠjdbcType":4783,"Origin":4784,"stats":4785,"gre":4786,"minute":4787,"Ġdescriptor":4788,"Variation":4789,"getRuntimeMetamodels":4790,"Geometry":4791,"Catalog":4792,"NONE":4793,"label":4794,"ĠPath":4795,"ingData":4796,"arm":4797,"Groups":4798,"SocketAddress":4799,"MISTIC":4800,"partment":4801,"getReference":4802,"getSub":4803,"record":4804,"fieldName":4805,"ðĲĲ²":4806,"SkipForDialect":4807,"ĠCalendar":4808,"25":4809,"ĠNullPointerException":4810,"Ġlive":4811,"ResultSetMapping":4812,"LayoutPanel":4813,"DON":4814,"FR":4815,"ifiable":4816,"ally":4817,"JsFunction":4818,"LEMENT":4819,"getEnclosingType":4820,"ope":4821,"Ú¯":4822,"Conversion":4823,"ĠStringHelper":4824,"OrAfter":4825,"shall":4826,"SecondPass":4827,"ĠPeriodType":4828,"Ġvalidate":4829,"VI":4830,"Ġexample":4831,"endsWith":4832,"StyleName":4833,"Minimum":4834,"assertAnnotationNotPresent":4835,"://":4836,"tion":4837,"Ð·":4838,"ÐĲ":4839,"Ø¦":4840,"Ġsearch":4841,"(\"-":4842,"Initialize":4843,"TIC":4844,"ORD":4845,"ĠbyteOffset":4846,"orrelated":4847,"ilerContext":4848,"PrimitiveType":4849,"crete":4850,"title":4851,"Ġ\\":4852,");\",":4853,"Ġclient":4854,"decode":4855,"Quoted":4856,"Attr":4857,"ExpressionContext":4858,"Alt":4859,"Ġattributes":4860,"prefix":4861,"getSimple":4862,"ĠClassLoader":4863,"LAY":4864,"getFieldIn":4865,"28":4866,"GA":4867,"oriz":4868,"ĠgetValue":4869,"Ġresources":4870,"ĠHuman":4871,"à³į":4872,"orizont":4873,"08":4874,"Codes":4875,"Ġ13":4876,"Ġcomposite":4877,"TRA":4878,"CACHE":4879,"ĠgetOrCreate":4880,"OUR":4881,"Suggest":4882,"ttp":4883,"ename":4884,"Ġdoc":4885,"Ġhandle":4886,"ĠforeignKey":4887,"Required":4888,"iresDialect":4889,"Area":4890,"Navigable":4891,"Weeks":4892,"PersistentCollection":4893,"FIX":4894,"Ġignore":4895,"Bag":4896,"Fil":4897,"hashMap":4898,"ĠEm":4899,"orph":4900,"orld":4901,"Ġsystem":4902,"AccessStrategy":4903,"prepare":4904,"ENTITY":4905,"PH":4906,"Ranges":4907,"ste":4908,"inner":4909,"getBody":4910,"getReferenced":4911,"unc":4912,"Ġdocument":4913,"Ġinstantiate":4914,"Ġassociation":4915,"à¯į":4916,"Semantic":4917,"ĠDe":4918,"AttributeSource":4919,"bean":4920,"Attach":4921,"Merge":4922,"ĠPh":4923,"Integr":4924,"ĠLocalDate":4925,"Dependent":4926,"was":4927,"setCurrent":4928,"Ġlink":4929,"TimeMillis":4930,"Ġlocate":4931,"compute":4932,"RowCount":4933,"SimpleFooProxy":4934,"isSameOrAfter":4935,"BJ":4936,"non":4937,"ublic":4938,"enum":4939,"Unexpected":4940,"ĠText":4941,"sqlAppender":4942,"propertyName":4943,"ferredData":4944,"ARRAY":4945,"WI":4946,"Ø²":4947,"erived":4948,"ĠLazy":4949,"ĠattributeName":4950,"ĠStandardServiceRegistryBuilder":4951,"getJavaTypeClass":4952,"Rpc":4953,"ĠRequest":4954,"Ġsome":4955,"OfSecond":4956,"plemental":4957,"Ġelements":4958,"Leaf":4959,"ĠdateTime":4960,"orizontal":4961,"entities":4962,"stack":4963,"setC":4964,"Unsupported":4965,"FunctionDescriptor":4966,"2002":4967,"Ġeditor":4968,"rics":4969,"Exists":4970,"Ġfd":4971,"Initialization":4972,"functionContributions":4973,"redit":4974,"Loggable":4975,"variant":4976,"ah":4977,"native":4978,"ĠcreationContext":4979,"ounter":4980,"BasicTypes":4981,"Ġya":4982,"Wrapped":4983,"imation":4984,"ĠgetProperty":4985,"Ġlimit":4986,"region":4987,"PARIS":4988,"Indic":4989,"clusion":4990,"Hit":4991,"etAddress":4992,"TypeConfiguration":4993,"ĠgetDefault":4994,"TestService":4995,"serviceRegistry":4996,"Ġwidth":4997,"PropertyInitialized":4998,"Ġaccessor":4999,"Changes":5000,"RunAsync":5001,"Ġfollowing":5002,"ĠMutableDateTime":5003,"OOLE":5004,"ATION":5005,"BO":5006,"scroll":5007,"FieldName":5008,"newItem":5009,"ternate":5010,"AND":5011,"Conditional":5012,"ĠNumberFormat":5013,"flu":5014,"Sw":5015,"Ġiter":5016,"ĠEnvironment":5017,"Enc":5018,"ĠgetChronology":5019,"Ġduration":5020,"encers":5021,"Ordering":5022,"áĢº":5023,"Ġdesc":5024,"fluencers":5025,"etime":5026,"orVersion":5027,"endor":5028,"SessionImplementor":5029,"DateTimeUtils":5030,"ParameterXref":5031,"ynt":5032,"ðĳĦ´":5033,"Processor":5034,"Ġzoo":5035,"IO":5036,"ov":5037,"sm":5038,"StringBuffer":5039,"Extra":5040,"plates":5041,"Ġthere":5042,"embedd":5043,"Ġholder":5044,"TED":5045,"Cacheable":5046,"Supplier":5047,"â´°âµ":5048,">\"":5049,"SK":5050,"mm":5051,"ĠTimeZone":5052,"getExpression":5053,"ich":5054,"Ġbreak":5055,"Ġhint":5056,"http":5057,"ancel":5058,"when":5059,"configure":5060,"uplicate":5061,"Author":5062,"chor":5063,"Dispatch":5064,"Ġappender":5065,"rupted":5066,"arguments":5067,"newInstance":5068,"AttributeName":5069,"anged":5070,"Ġcommand":5071,"marshal":5072,"lhs":5073,"Ġmode":5074,"ĠgetName":5075,"ĠHtml":5076,"82":5077,"Ġ`":5078,"ĠZone":5079,"();\",":5080,"ĠtypeOracle":5081,"Amount":5082,"allow":5083,"locate":5084,"Anno":5085,"AnnotationPresent":5086,"queue":5087,"ĠBasicType":5088,"inte":5089,"icle":5090,"selection":5091,"ĠCustom":5092,"Ġaccount":5093,"ifferent":5094,"handle":5095,"Ġscript":5096,"Ġprimary":5097,"ildcard":5098,"Ġinside":5099,"destroy":5100,"Constraints":5101,"ierarchy":5102,"callback":5103,"AU":5104,"compatible":5105,"ENCE":5106,"matches":5107,"Created":5108,"sk":5109,"setText":5110,"[]>":5111,"Ġprovider":5112,"reationProcess":5113,"sourceInfo":5114,"ĠLocalTime":5115,"ParameterizedType":5116,"OOLEAN":5117,"OUT":5118,"currency":5119,"Ġna":5120,"ById":5121,"DateTimeField":5122,"Added":5123,"à¦¨":5124,"ĠStandardBasicTypes":5125,"âµīâµ":5126,"UID":5127,"ĠbNumber":5128,"00000000":5129,"Adapter":5130,"span":5131,"Cached":5132,"NC":5133,"NER":5134,"requ":5135,"Invocation":5136,"Ġbox":5137,"ĠHandler":5138,"LongLib":5139,"Ġorig":5140,"DEBUG":5141,"êĶ":5142,"atetime":5143,"Strict":5144,"setDescription":5145,"Security":5146,"AuditingData":5147,"mapper":5148,"(\"}\");":5149,"ForceInline":5150,"revision":5151,"Ġpanel":5152,"ĠentityPersister":5153,"ĠtoReturn":5154,"findType":5155,"****":5156,"ENT":5157,"MODE":5158,"NaN":5159,"Break":5160,"IE":5161,"ĠData":5162,"employee":5163,"UniqueKey":5164,"fragment":5165,"BR":5166,"JSON":5167,"dst":5168,"drop":5169,"Ûķ":5170,"Ġ{\");":5171,"calar":5172,"peri":5173,"ĠMessage":5174,"ĠTI":5175,"++]":5176,"ĠSqmExpression":5177,"Ġsubquery":5178,"Ġconfigure":5179,"àŃį":5180,"Precision":5181,"Ordered":5182,"Ġheight":5183,"jar":5184,"isNotNull":5185,"Ġcreated":5186,"Ġmar":5187,"entityName":5188,"Ġreal":5189,"Ġprint":5190,"TAG":5191,"width":5192,"etwork":5193,"icode":5194,"Ġcur":5195,"Ġinner":5196,"Ġauto":5197,"Ġwhy":5198,"Ġphone":5199,"onedDateTime":5200,"CAL":5201,"Uint":5202,"bad":5203,"nia":5204,"áº":5205,"eni":5206,"ctor":5207,"Ġcar":5208,"ili":5209,"Ġmerged":5210,"constr":5211,"ĠGeom":5212,"ployees":5213,"Ġverify":5214,"rieve":5215,"AGE":5216,"ELEMENT":5217,"ini":5218,"ince":5219,"ĠJakarta":5220,"ĉĉĉĉ":5221,"TES":5222,"ĠGets":5223,"Ġinterceptor":5224,"ĠAnEntity":5225,"Fk":5226,"PL":5227,"Ġcss":5228,"olator":5229,"ĠJType":5230,"itionException":5231,"Hello":5232,"Ġinitialize":5233,"Ġmodification":5234,"ĠISODateTimeFormat":5235,"cognitionException":5236,"bId":5237,"post":5238,"so":5239,"tl":5240,"(\"</":5241,"Contains":5242,"uted":5243,"converter":5244,"explicit":5245,"typeOracle":5246,"MutableDateTime":5247,"Interpreter":5248,"TD":5249,"creationState":5250,"Ġup":5251,"getResource":5252,"Ġsorted":5253,"Ġ14":5254,"Ġcompare":5255,"currentTimeMillis":5256,"ogi":5257,"BinaryOperation":5258,"à½²à¼ĭ":5259,"Overrides":5260,"Setter":5261,"MappingDocument":5262,"ĠBar":5263,"ĠTarget":5264,"ĠNo":5265,"getSuper":5266,"lushMode":5267,"ĠWARN":5268,"initialized":5269,"Inheritance":5270,"Singular":5271,"doc":5272,"md":5273,"su":5274,"Ð¿":5275,"getComponent":5276,"Ġwrap":5277,"Private":5278,"outdent":5279,"Ø§Ø±":5280,"height":5281,"CapabilityExchange":5282,"hello":5283,"ĠgetOrCreateEntityManager":5284,"201":5285,"SY":5286,"Ġ(((":5287,"Metrics":5288,"Ġauthor":5289,"ByName":5290,"plication":5291,"ĠThere":5292,"COM":5293,"NonNull":5294,"Ġfollows":5295,"ĠTherefore":5296,"';":5297,"07":5298,"FK":5299,"JO":5300,"attr":5301,"isSupported":5302,"getWidget":5303,"chive":5304,"endVisit":5305,"Ġlabel":5306,"appendChild":5307,"Ġ};":5308,"Ġ45":5309,"Ġonly":5310,"ĠinitData":5311,"PeriodType":5312,"ĠSqlTypes":5313,"DDL":5314,"Ġsettings":5315,"Flag":5316,"Tenant":5317,"cfg":5318,"ĠEntryPoint":5319,"TestSet":5320,"ĠaScale":5321,"mock":5322,"StreamWriter":5323,"Functions":5324,"ĠDateTimeFormat":5325,"2003":5326,"Ġoperator":5327,"Members":5328,"scale":5329,"getOwner":5330,"Ġev":5331,"Ġdiv":5332,"[].":5333,"Ant":5334,"artifact":5335,"egin":5336,"ĠDateTimeFieldType":5337,"à·Ĭ":5338,"header":5339,"ĠexecutionContext":5340,"aaEntity":5341,"AG":5342,"dc":5343,"wrapped":5344,"à¾":5345,"enable":5346,"Ġmy":5347,"JdbcValues":5348,"getEntityDescriptor":5349,"Half":5350,"Ġsw":5351,"Emul":5352,"HasData":5353,"ĠAssert":5354,"ĠIterator":5355,"$$_":5356,"ĠCharacter":5357,"Ġnow":5358,"Ġ16":5359,"ĠBuggy":5360,"Subgraph":5361,"Ġjsni":5362,"IdentityHashMap":5363,"Õ¡Õ":5364,"ASE":5365,"ECT":5366,"cum":5367,"mal":5368,"JavaScript":5369,"persister":5370,"compilation":5371,"Ġ56":5372,"buildMetadata":5373,"UNT":5374,"RequiresDialect":5375,"WITH":5376,"Currency":5377,"Lat":5378,"Ġupd":5379,"invoke":5380,"COMP":5381,"ĠWHERE":5382,"Head":5383,"SSIMISTIC":5384,"234":5385,"Mult":5386,"Walker":5387,"Web":5388,"opt":5389,"lex":5390,"Ġcq":5391,"Influencers":5392,"ToEntity":5393,"FileName":5394,"erminal":5395,"ISH":5396,"Ġdefaults":5397,"Protocol":5398,"Logging":5399,"YEAR":5400,"ĠPARSER":5401,"ĠTIME":5402,"Mo":5403,"yz":5404,"Î¹":5405,"getDatabase":5406,"Ġsf":5407,"plural":5408,"ForUpdate":5409,"Ġhash":5410,"ONTH":5411,"ĠloadMy":5412,"ĠoverrideMap":5413,"CL":5414,"Mal":5415,"Ver":5416,"ten":5417,"vm":5418,"Ġsum":5419,"assertUpdateCount":5420,"ayment":5421,"Ġincrement":5422,"Interrupted":5423,"ĠLON":5424,"Charset":5425,"ĠpackageName":5426,"Public":5427,"isPropertyInitialized":5428,"getParameter":5429,"getFetch":5430,"getPersistenceContext":5431,"release":5432,"Original":5433,"Generate":5434,"porter":5435,"ĠloadNameMapNative":5436,"59":5437,"AF":5438,"Bad":5439,"Hash":5440,"peek":5441,"deque":5442,"Inverse":5443,"TypeDescriptor":5444,"Ġconsumer":5445,"()),":5446,"wtypes":5447,"Ġalt":5448,"à½ĵ":5449,"Fruit":5450,"ĠThe":5451,"orrelation":5452,"Ġlevel":5453,"RenderingMode":5454,"MetaData":5455,"rawtypes":5456,"ĠloadNameMapJava":5457,"loadNameMapJava":5458,"HitCount":5459,"){":5460,"pi":5461,"iness":5462,"getRevisions":5463,"TypeNames":5464,"setThe":5465,"ĠgetQuery":5466,"ĠCss":5467,"Ġraw":5468,"fromString":5469,"foreign":5470,"bytes":5471,"à±į":5472,"loadNameMapNative":5473,"ĠloadMyNameMap":5474,"\"@":5475,"binary":5476,"cce":5477,"getLength":5478,"service":5479,"ColumnNames":5480,"ĠMon":5481,"ordinal":5482,"FunctionContext":5483,"Locking":5484,"ĠTestSuite":5485,"Ġcalling":5486,"Updater":5487,"IP":5488,"Î¿":5489,"ĠRE":5490,"real":5491,"TreeNode":5492,"PreparedStatement":5493,"ModelCreationContext":5494,"Ġ(!(":5495,"Errors":5496,"Ġtemplate":5497,"pcodes":5498,"EEK":5499,"idden":5500,"ymorph":5501,"signum":5502,"KY":5503,"Merged":5504,"Sum":5505,"ĠImage":5506,"loor":5507,"antity":5508,"clearCounts":5509,"Ġinterpret":5510,"ĠJdbcType":5511,"Bundle":5512,"We":5513,"literal":5514,"nested":5515,"Î½":5516,"001":5517,"Preview":5518,"ĠXml":5519,"Contents":5520,"PERTY":5521,"GenerationContext":5522,"Ġoptimizer":5523,"ĠTimeOfDay":5524,"BIN":5525,"MS":5526,"raw":5527,"Ġview":5528,"Ġbody":5529,"addDescriptor":5530,"à¤Ł":5531,"StreamException":5532,"Era":5533,"sqlStatementInterceptor":5534,"LONDON":5535,"It":5536,"getServiceRegistry":5537,"andid":5538,"ongName":5539,"SelectionModel":5540,"Logical":5541,"Ġaliases":5542,"Collecting":5543,"head":5544,"MutationQuery":5545,"cluded":5546,"SR":5547,"Ù¾":5548,"isAnnotationPresent":5549,"getAddress":5550,"imate":5551,"Testing":5552,"SqlTypeCode":5553,"128":5554,"56789":5555,"desc":5556,"Numbers":5557,"Searched":5558,"Ġdelete":5559,"boardSelectedRow":5560,"fus":5561,"send":5562,"ĠConverter":5563,"STMT":5564,"áŀ¶":5565,"Matcher":5566,"Ġregistry":5567,")).":5568,"40":5569,"hql":5570,"atable":5571,"ica":5572,"INNER":5573,"UserType":5574,"withZone":5575,"Bus":5576,"JProgram":5577,"ĠgetDialect":5578,"QueryInfluencers":5579,"ValueMapping":5580,"container":5581,"[],":5582,"ĠAc":5583,"ĠDis":5584,"ĠVAL":5585,"Fails":5586,"RuntimeException":5587,"ĠSt":5588,"getJpa":5589,"getLast":5590,"Ġ\":":5591,"Ġ\"\\":5592,"Ġfk":5593,"PathEntry":5594,"singleton":5595,"InnerClass":5596,"erica":5597,"period":5598,"89":5599,"IR":5600,"ross":5601,"Ġ\"\\\"":5602,"Classification":5603,"prop":5604,"ĠAccess":5605,"ĠDynamic":5606,"copyOf":5607,"years":5608,"ModuleName":5609,"getInstanceUTC":5610,"Interpretation":5611,"ĠPhone":5612,"Blob":5613,"LC":5614,"Pair":5615,"hip":5616,"äº":5617,"ĠWidget":5618,"estic":5619,"Reset":5620,"URI":5621,"OFF":5622,"ĠequalTo":5623,"getItem":5624,"getDescription":5625,"ingOptions":5626,"edState":5627,"Ġper":5628,"predicate":5629,"Manage":5630,"Ġliteral":5631,"Ġlik":5632,"NotEmpty":5633,"ArgHandler":5634,"encies":5635,"NumberFormat":5636,"Initial":5637,"Ġright":5638,"Ġgwt":5639,"Subquery":5640,"SqmPath":5641,"ÛĮÙĨ":5642,"Ġintegr":5643,"(@":5644,"XProperty":5645,"×¨":5646,"sett":5647,"toReturn":5648,"Ġwork":5649,"Ġunknown":5650,"Assertions":5651,"ĠrowProcessingState":5652,"Ã¢":5653,"Ãº":5654,"ClassLiteral":5655,"FetchProfile":5656,"Ġcompile":5657,"IgnoreCase":5658,"Based":5659,"setCurrentMillis":5660,"(\",":5661,"></":5662,"Buf":5663,"Branch":5664,"Drag":5665,"EG":5666,"getAbsolute":5667,"ational":5668,"Ġ42":5669,"Ġenh":5670,"ĠHibernateProxy":5671,"Ð¾ÑĢ":5672,"getJdbcServices":5673,"before":5674,"áĥĲáĥ":5675,"yntax":5676,"Ct":5677,"Cursor":5678,"aSign":5679,"Ã¤":5680,"Ġce":5681,"Ġwindow":5682,"shared":5683,"TranslatorFactory":5684,"(\\\"":5685,"Ev":5686,"JA":5687,"ĠInstant":5688,"orage":5689,"active":5690,"EntityEntry":5691,"Partition":5692,"ÙĪØ±":5693,"21":5694,"Jtd":5695,"DELAY":5696,"ĠPersistentClass":5697,"USE":5698,"bNumber":5699,"Ġ\"_":5700,"Ġdrop":5701,"ĠaSign":5702,"ĠCriteria":5703,"doTest":5704,"MetadataImplementor":5705,"Analysis":5706,"GY":5707,"YLE":5708,"cs":5709,"spec":5710,"ĠDataPoint":5711,"plus":5712,"Ġlike":5713,"STYLE":5714,"Ġdefined":5715,"Ġimplicit":5716,"ÛĮØ§":5717,"ParseException":5718,"Snapshot":5719,"StoredProcedureQuery":5720,"Ġpermutation":5721,"ident":5722,"then":5723,"ung":5724,"ĠSE":5725,"typeName":5726,"ĠenversService":5727,"params":5728,"DivElement":5729,"city":5730,"duration":5731,"ij":5732,"layout":5733,"áĮ":5734,"ĠChronology":5735,"getValues":5736,"defined":5737,"Ġfloat":5738,"Ġdst":5739,"Ġreason":5740,"Under":5741,"lying":5742,"ĠLongLib":5743,"Rendering":5744,"CollectingStatementInspector":5745,".<":5746,"category":5747,"Ġ~":5748,"ĠKey":5749,"ceive":5750,"ĠbBytes":5751,"Ġmulti":5752,"ToString":5753,"ĠaaaEntity":5754,"ĠAsync":5755,"TableGroupJoin":5756,"eq":5757,"getStart":5758,"cover":5759,"Atom":5760,"ColumnReference":5761,"Popup":5762,"vided":5763,"Chars":5764,"ĠmoduleName":5765,"Ġheader":5766,"Ġconstructor":5767,"Nan":5768,"NORM":5769,"Õ«":5770,"ĠCh":5771,"isBefore":5772,"getBytes":5773,"imension":5774,"NativeEvent":5775,"LOAD":5776,"GeneratorContext":5777,"Instantiator":5778,"ĠServiceRegistry":5779,"MILLIS":5780,"Owning":5781,"Ġenclo":5782,"ĠDurationFieldType":5783,"ĠSelectable":5784,"ĠAssertion":5785,"27":5786,"aEntity":5787,"creationContext":5788,"dom":5789,"found":5790,"getCollectingStatementInspector":5791,"into":5792,"Ġwrapped":5793,"INFIN":5794,"Company":5795,"Interfaces":5796,"ĠVALUE":5797,"INFINITY":5798,"NI":5799,"omet":5800,"location":5801,")))":5802,"tester":5803,"Resolve":5804,"Ġshort":5805,"TERN":5806,"presentation":5807,"Writ":5808,"ĠExit":5809,"ancer":5810,"UnsupportedOperationException":5811,"JsExpression":5812,"Handle":5813,"EMPTY":5814,"NUM":5815,"ZER":5816,"Ġsame":5817,"ceived":5818,"Ġtz":5819,"chase":5820,"Than":5821,"Ġdef":5822,"ðĳĦ¨":5823,"ĠtemporalType":5824,"Expand":5825,"ĠPredicate":5826,"Ġpartial":5827,"00000001":5828,"TestSetValidator":5829,"PS":5830,"]));":5831,"driver":5832,"pk":5833,"ĠByteArray":5834,"Ġsu":5835,"UnableToCompleteException":5836,"SqlAppender":5837,"Ġseparator":5838,"Temp":5839,"Agent":5840,"ForeignKeyDescriptor":5841,"Management":5842,"88":5843,"now":5844,"irtual":5845,"ĠfetchParent":5846,"Extended":5847,"months":5848,"CteStatement":5849,"PROPERTY":5850,"assemble":5851,"CD":5852,"IM":5853,"ci":5854,"mary":5855,"getHours":5856,"ored":5857,"editor":5858,"FetchBuilder":5859,"collect":5860,"readObject":5861,"Ð¸Ñĺ":5862,"enterOuter":5863,"ĠtableGroupJoin":5864,"enterOuterAlt":5865,">\",":5866,"ĠStatistics":5867,"Ġ\"/":5868,"(\"@":5869,"utome":5870,"Locator":5871,"Quote":5872,"ssr":5873,"tableGroup":5874,"Ġinterval":5875,"DomainResultCreationState":5876,"\\\",":5877,"Ã¬":5878,"Ġnutome":5879,"ulId":5880,"Ġgetter":5881,"BuilderImpl":5882,"ArrayPosition":5883,"Ġids":5884,"Ġweek":5885,"ĠentityId":5886,"à¤µ":5887,"erika":5888,"MarkerType":5889,"ĠJoinType":5890,"PrintWriter":5891,"Counter":5892,"two":5893,"StringGenerationContext":5894,"condition":5895,"à¤¤":5896,"Ġunwrap":5897,"Ġjoined":5898,"TagName":5899,"ProcedureCall":5900,"addSnippetImport":5901,"BER":5902,"Os":5903,"getIndex":5904,"Ġ\"{":5905,"adding":5906,"à®¿":5907,"Ġformatter":5908,"atagramSocket":5909,"minuteOfHour":5910,"54":5911,"sorted":5912,"tn":5913,"getH":5914,"Ġ\"\",":5915,"Ġfailed":5916,"addAttribute":5917,"ĠtestProperty":5918,"Ġhel":5919,"ĠTimestamp":5920,"color":5921,"initial":5922,"interop":5923,"ĠTestTools":5924,"discriminator":5925,"NOT":5926,"WrapField":5927,"MaximumValue":5928,"HBM":5929,"WARN":5930,"boot":5931,"len":5932,"getSecond":5933,"ĠtestConstructor":5934,"Archive":5935,"Descriptors":5936,"JdbcValue":5937,"ĠsqlStatementInterceptor":5938,"TemporaryTable":5939,"àº²":5940,"caped":5941,"So":5942,"Wildcard":5943,"Ġamount":5944,"lookup":5945,"ĠtestIs":5946,"ToUse":5947,"ElementBuilder":5948,"à¤¡":5949,"Party":5950,"regis":5951,"Persistence":5952,"generator":5953,"VisibleRange":5954,"Ġdeclared":5955,"Miss":5956,"\"};":5957,"NA":5958,"Vertical":5959,"baz":5960,"ĠToken":5961,"ely":5962,"INTEGER":5963,"EventType":5964,"ĠpropertyHolder":5965,"InsertCount":5966,"gregated":5967,"getNaturalId":5968,"overrid":5969,"Memory":5970,"ULE":5971,"cb":5972,"jpa":5973,"lin":5974,"Ġà¦":5975,"ĠNativeQuery":5976,"ĠImmutable":5977,"Ġtask":5978,"DateFormat":5979,"parameters":5980,"outer":5981,"Ġcompute":5982,"precation":5983,"BOOLEAN":5984,"Port":5985,"synchronized":5986,"Ðĵ":5987,"(\"/":5988,"ibility":5989,"Ġdriver":5990,"Transition":5991,"ĠCfg":5992,"Compare":5993,"legacy":5994,"Controller":5995,"TypeCheckFactory":5996,"HOUR":5997,"XClass":5998,"bound":5999,"ĠFunction":6000,"itSet":6001,"separator":6002,"ridge":6003,"Ġ}\\":6004,"ĠDoe":6005,"Implementation":6006,"áĥĶ":6007,"Ġyogi":6008,"TemporalType":6009,"ĠOther":6010,"RemoteService":6011,"ĠstreamReader":6012,"ĠTreeLogger":6013,"Escape":6014,"Red":6015,"ĠLock":6016,"ĠStudent":6017,"esNot":6018,"ential":6019,"Ġcap":6020,"Existing":6021,"Ġdest":6022,"ArrayBuffer":6023,"IdentifierMapping":6024,"subquery":6025,"getEntityBinding":6026,"NORMAL":6027,"Normal":6028,"Opt":6029,"Supports":6030,"bu":6031,"ling":6032,"sources":6033,"ableResults":6034,"avor":6035,"Resize":6036,"Ġprocedure":6037,"DEX":6038,"ĠmappingDocument":6039,"Jar":6040,"schedule":6041,"Ġcurrency":6042,"newArrayList":6043,"ĠMulti":6044,"ĠunableTo":6045,"ĠRPC":6046,"ĠsourceInfo":6047,"seconds":6048,"ootstrapContext":6049,"Europe":6050,"Derived":6051,"iy":6052,"();\");":6053,"istan":6054,"Connect":6055,"Overlay":6056,"Ġthing":6057,"inder":6058,"ĠpropertyData":6059,"à¦¯":6060,"words":6061,"InternalName":6062,"Activity":6063,"Declaring":6064,"Negated":6065,"à«į":6066,"ĠSqlAstNode":6067,"Middle":6068,"Save":6069,"Sample":6070,"rBytes":6071,"uction":6072,"}\",":6073,"ĠPartial":6074,"Ģà¸":6075,"increment":6076,"Ġcfg":6077,"Overflow":6078,"endInstant":6079,"TableExpression":6080,"Defaults":6081,"ATTR":6082,"ĠmapKey":6083,"ĠComposite":6084,"Hints":6085,"ollback":6086,"à¹Ģà¸":6087,"DebugId":6088,"ĠHandlerRegistration":6089,"HR":6090,"TT":6091,"gavin":6092,"sample":6093,"Ġsuffix":6094,"iling":6095,"Exceptions":6096,"Ġdistinct":6097,"ElementType":6098,"à¤ª":6099,"Disabled":6100,"Components":6101,"Spaces":6102,"ĠJdbcMapping":6103,"Detach":6104,"Succe":6105,"Capacity":6106,"manager":6107,"ĠerasFull":6108,"ListJoinColumnBidirectionalRefEdEntity":6109,"Med":6110,"Void":6111,"lap":6112,"zip":6113,"ĠnewValue":6114,"Ġplace":6115,"ĠgetType":6116,"ĠgetSession":6117,"OrNull":6118,"ĠPo":6119,"AccessException":6120,"MetadataSources":6121,"TRUE":6122,"CV":6123,"Core":6124,"PM":6125,"Pane":6126,"mutation":6127,"intern":6128,"EntityMappingType":6129,"aved":6130,"Ġproject":6131,"à¤¬":6132,"ĠDateTimeFormatterBuilder":6133,"Serialized":6134,"heritance":6135,"LevelCache":6136,"America":6137,"CREATE":6138,"FROM":6139,"JDBC":6140,"Round":6141,"TW":6142,"Typ":6143,"hicle":6144,"limit":6145,"Ã«":6146,"Ùĩ":6147,"Ġ]":6148,"ĠÎ":6149,"onChanged":6150,"getYear":6151,"Ġscroll":6152,"Rec":6153,"Ġecho":6154,"izable":6155,"ĠfromClause":6156,"Ġselected":6157,"ĠvisitChildren":6158,"ROP":6159,"URCE":6160,"versionException":6161,"Ġjson":6162,"SOURCE":6163,"ĠSequence":6164,"ĠmodelPart":6165,"BrowserEvent":6166,"country":6167,"ke":6168,"Ã®":6169,");\");":6170,"edNode":6171,"Ġintf":6172,"DateTimeFormatter":6173,"ĠLO":6174,"Deleted":6175,"à§ĩ":6176,"áĭ«":6177,"statistics":6178,"ParseTreeVisitor":6179,"optimize":6180,"Typing":6181,"MX":6182,"ĠEnter":6183,"getReferences":6184,"ury":6185,"eded":6186,"ĠtestAdd":6187,"Ġinto":6188,"ĠDB":6189,"Ġmethods":6190,"ĠLists":6191,"Ġmapped":6192,"à°¿":6193,"Ġoptimize":6194,"Alignment":6195,"Else":6196,"VARCHAR":6197,"bined":6198,"Nanos":6199,"42":6200,"JParameter":6201,"tab":6202,"tot":6203,"ĠVisit":6204,"alt":6205,"Ġsplit":6206,"MappingModel":6207,"UND":6208,"Negative":6209,"ĠAccount":6210,"Nature":6211,"Saint":6212,"isher":6213,"Remo":6214,"addToCopy":6215,"Ġsetter":6216,"Section":6217,"clone":6218,"General":6219,"ART":6220,"SelectionQuery":6221,"ĠjdbcEnvironment":6222,"COL":6223,"}.</":6224,"SerializationStreamReader":6225,"ĠexitRule":6226,"ĠenterRule":6227,"greSQL":6228,"ilities":6229,"Trigger":6230,"exp":6231,"ĠtableExpression":6232,"à½¼":6233,"DomainModel":6234,"Detail":6235,"BinaryOperator":6236,")'":6237,"Available":6238,"GB":6239,"ai":6240,"ites":6241,"Ġfull":6242,"Ġ}\");":6243,"Ġdepend":6244,"Ġchronology":6245,"áĢ¬":6246,"ÑĢÐ¸":6247,"UTO":6248,"nodeBuilder":6249,"Symbols":6250,"ĠConversionException":6251,"ĠCacheMode":6252,"CallableStatement":6253,"ures":6254,"edBean":6255,"unknown":6256,"EntityKey":6257,"Problem":6258,"QueryParameter":6259,"Unary":6260,"ĠBase":6261,"account":6262,"Ġ35":6263,"ĠsqlTypeCode":6264,"ĠelementType":6265,"hasSize":6266,"Ġstatus":6267,"Forms":6268,"orderBy":6269,"ĠsetParameterList":6270,"uffle":6271,"HashCode":6272,"JP":6273,"ĠTableReference":6274,"istance":6275,"proxy":6276,"TransactionCompletion":6277,"ĠiField":6278,"ĠMutation":6279,"ĠTEST":6280,"JsArray":6281,"Ġmeta":6282,"Ġrange":6283,"ceptable":6284,"FetchParent":6285,"Specific":6286,"created":6287,"ConstraintViolation":6288,"firstName":6289,"EXP":6290,"StylesBuilder":6291,"Ġdeclaring":6292,"ArithmeticException":6293,"ĠDEFAULT":6294,"Atomic":6295,"totype":6296,"ien":6297,"ĠArgHandler":6298,"getRe":6299,"unused":6300,"Ġind":6301,"ALSE":6302,"Ġimplements":6303,"doubleValue":6304,"ateral":6305,"áº¹":6306,"IllegalStateException":6307,"Sur":6308,"XStream":6309,"jo":6310,"getSource":6311,"Ġsupport":6312,"ules":6313,"Fired":6314,"ĠEntityMappingType":6315,"ĠjdbcTypeRegistry":6316,"NoSuch":6317,"ExecutionContext":6318,"ÙĪÙĨ":6319,"JtaPlatform":6320,"MutabilityPlan":6321,"Registered":6322,"DK":6323,"Http":6324,"iable":6325,"normal":6326,"vas":6327,"Ð¢":6328,"ĠEn":6329,"oof":6330,"Ġoption":6331,"parsed":6332,"DataAccess":6333,"ĠDatabase":6334,"PersistenceUnit":6335,"Assumption":6336,"ANA":6337,"LogMessage":6338,"Templates":6339,"NamedNativeQuery":6340,"PESSIMISTIC":6341,"ChangeHandler":6342,"ĠAnnotated":6343,"Enhanced":6344,"ReadablePartial":6345,"getChildCount":6346,"ViewerResponse":6347,"GenericType":6348,"MALE":6349,"settings":6350,"Ġescape":6351,"getFromClause":6352,"icro":6353,"primary":6354,"Trim":6355,"Sets":6356,"NonEntity":6357,"json":6358,"getRole":6359,"Ġwhile":6360,"LONG":6361,"ĠMarkerType":6362,"ĠmanyToOne":6363,"ĠDomainResult":6364,"ND":6365,"XT":6366,"ixed":6367,"Ġinverse":6368,"ĠinferredData":6369,"Animation":6370,"createMockJavaResource":6371,"Alternate":6372,"persistence":6373,"ClauseContext":6374,"ĠLe":6375,"Ġbeen":6376,"Patterns":6377,"DoubleBits":6378,"chrono":6379,"ĠÐĲ":6380,"ĠEnumSet":6381,"Ġcls":6382,"ifference":6383,"Ġsignature":6384,"ways":6385,"getData":6386,"(\"[":6387,"setB":6388,"Thing":6389,"Ġoff":6390,"à¥ģ":6391,"â´°âµı":6392,"ĠMyEntity":6393,"ĠAsyncCallback":6394,"wordsSql":6395,"gment":6396,"ward":6397,"isValid":6398,"Ġnested":6399,"Receiver":6400,"Track":6401,"ĠgetTest":6402,"ĠSingle":6403,"pliterator":6404,"ĠreturnType":6405,"à¸²":6406,"compareDoubleBits":6407,"à·Ĵ":6408,"ĠnumberOf":6409,"OFFSET":6410,"Ð¸ÑĺÐ°":6411,"AE":6412,"Horizontal":6413,"die":6414,"Ïģ":6415,"Ġput":6416,"getStatus":6417,"Ġflags":6418,"addItem":6419,"CollectionPersister":6420,"keywordsSql":6421,"IndexOf":6422,"TEXT":6423,"RequestBuilder":6424,"Units":6425,"LOW":6426,"Application":6427,"SION":6428,"~~~~":6429,"stitution":6430,"áĥĶáĥ":6431,"intf":6432,"Ġdid":6433,"atcher":6434,"à¤Ĥ":6435,"OffsetDateTime":6436,"getNext":6437,"Ġ123":6438,"PREFIX":6439,"SECONDS":6440,"Observer":6441,"Ġliked":6442,"BLOCK":6443,"Layer":6444,"Ste":6445,"right":6446,"publ":6447,"Ġco":6448,"Parsing":6449,"Ġexp":6450,"ssible":6451,"show":6452,"getCustom":6453,"ĠFr":6454,"finition":6455,"Loadable":6456,"Leap":6457,"ĠconnectionProvider":6458,"boxed":6459,"SortSpecification":6460,"artifacts":6461,"ZERO":6462,"VM":6463,"pInfo":6464,"ĠStrTestEntity":6465,"ada":6466,"sets":6467,"ĠSoftware":6468,"entityDescriptor":6469,"Org":6470,"Ġcollect":6471,"ByteBuffer":6472,"ConnectionAccess":6473,"minus":6474,"compareFloat":6475,"TIMESTAMP":6476,"FIE":6477,"ĠSelection":6478,"HqlString":6479,"ĠerasShort":6480,"placer":6481,"17":6482,"Bl":6483,"cascade":6484,"Ùģ":6485,"Ġ\")":6486,"ily":6487,"IdClass":6488,"Ġrelation":6489,"IdentifierGenerator":6490,"Checks":6491,"ĠThing":6492,"jsinterop":6493,"ConstraintValidator":6494,"ĠannotationList":6495,"Ã¡n":6496,"ĠconfigurationValues":6497,"plementalInfo":6498,"FIELD":6499,"\"<":6500,"456":6501,"CUR":6502,"HIST":6503,"TZ":6504,"range":6505,"}\");":6506,"ÑĮ":6507,"Ø´":6508,"abilities":6509,"ifec":6510,"Protected":6511,"ĠtestQuery":6512,"Ġidx":6513,"ĠHas":6514,"ROW":6515,"hours":6516,"ĠTargetType":6517,"compareFloatBits":6518,"ifecycle":6519,"33":6520,"CF":6521,"Caching":6522,"Hierarchy":6523,"SL":6524,"lambda":6525,"ĠNotFoundException":6526,"ĠtestEntity":6527,"struct":6528,"urrence":6529,"Iterable":6530,"Ġassociated":6531,"Expecting":6532,"uxili":6533,"foreignKey":6534,"Main":6535,"OD":6536,"fect":6537,"rary":6538,"sl":6539,"getTest":6540,"getFieldType":6541,"arison":6542,"ulian":6543,"assertNumberOf":6544,"Manies":6545,"ĠentityClass":6546,"exists":6547,"Ġ'.":6548,"selectable":6549,"previous":6550,"RevisionType":6551,"tid":6552,"xx":6553,"getMinutes":6554,"idx":6555,"Ġcpe":6556,"Ġtra":6557,"PropertyData":6558,"fromInt":6559,"EnumType":6560,"ĠDateTimeConstants":6561,"ContractVariation":6562,"à®ķ":6563,"Ġ91":6564,"determine":6565,"Distinct":6566,"PG":6567,"ns":6568,"isReadOnly":6569,"tracker":6570,"getEntityManagerFactory":6571,"getReturnType":6572,"Ġcountry":6573,"ValueConverter":6574,"Ġparsed":6575,"Ġlookup":6576,"Ġcolor":6577,"Pool":6578,"ĠGwt":6579,"columns":6580,"DOWN":6581,"ĠINFO":6582,"ðĲĳĮ":6583,"Restrictions":6584,"Ġclose":6585,"ĠalternativeContact":6586,"AP":6587,"GI":6588,"IBU":6589,"gen":6590,"implicit":6591,"Ġrecord":6592,"equalsIgnoreCase":6593,"orders":6594,"Associated":6595,"âµľ":6596,"ĠXStream":6597,"phan":6598,"XMLElement":6599,"anchen":6600,"iselect":6601,"openSession":6602,"Ġregistration":6603,"00000002":6604,"getMetadataCollector":6605,"ĠprimaryKey":6606,"31":6607,"CY":6608,"mult":6609,"ĠConnection":6610,"Ġtab":6611,"Rev":6612,"Project":6613,"AttributeConverter":6614,"ĠEntityManager":6615,"à½¢":6616,"Ġ[\\":6617,"Decor":6618,"GET":6619,"ickName":6620,"modifiable":6621,"uxiliary":6622,"Gender":6623,"rong":6624,"Ã£":6625,"getParameters":6626,"ured":6627,"iven":6628,"neg":6629,"INDEX":6630,"ERENCE":6631,"typeConfiguration":6632,"Ġ>>":6633,"Closure":6634,"DatabaseObject":6635,"Ġspecified":6636,"EnhancementMetadata":6637,"ĠSAXException":6638,"TRACE":6639,"Ġorigin":6640,"Weight":6641,"AUTO":6642,"CG":6643,"Ġcv":6644,"assertCan":6645,"estart":6646,"selected":6647,"Ġexpr":6648,"TableWith":6649,"PropertyNames":6650,"Allow":6651,"IntTestEntity":6652,"getSchema":6653,"Ġ50":6654,"Assertion":6655,"interface":6656,"Ð°Ð´":6657,"ACTION":6658,"DDHIST":6659,"Handlers":6660,"ymorphic":6661,"GN":6662,"full":6663,"getSqm":6664,"OfBasics":6665,"newline":6666,"Ġ26":6667,"RowProcessingState":6668,"ĠparseFrom":6669,"Insertable":6670,"HqlParserVisitor":6671,"MAP":6672,"NOW":6673,"getKeys":6674,"ĠHqlParserVisitor":6675,"Ġoverrides":6676,"evict":6677,"Ġneeds":6678,"lessSession":6679,"AZ":6680,"BB":6681,"Like":6682,"Site":6683,"au":6684,"bb":6685,"junit":6686,"Ġpe":6687,"issing":6688,"getFunctionRegistry":6689,"ampl":6690,"Ġmock":6691,"ĠgetColumn":6692,"ird":6693,"Ġdec":6694,"ĠFORMAT":6695,"ĠforEach":6696,"Append":6697,"â´·":6698,"contact":6699,"ĠoldValue":6700,"ĠNativeSQLStatement":6701,"ĠtreatTarget":6702,"à»Ģ":6703,"×ķ×":6704,"InterruptedException":6705,"ium":6706,"attributes":6707,"changed":6708,"eline":6709,"Overridden":6710,"ĠtestWith":6711,"ĠsetAria":6712,"Animal":6713,"Ġproblem":6714,"parseFrom":6715,"RuleContext":6716,"Ð°Ð¼":6717,"versioned":6718,"\"})":6719,"Mark":6720,"ĠPrint":6721,"Attached":6722,"(\"}\\":6723,"cludes":6724,"ATTRIBU":6725,"Failed":6726,"VG":6727,"aos":6728,"catalog":6729,"ous":6730,"Ġui":6731,"Ġvya":6732,"Recursive":6733,"ForName":6734,"JdbcMapping":6735,"Insn":6736,"ĠNon":6737,"ampms":6738,"à¬¿":6739,"CTOR":6740,"secondOfMinute":6741,"ĠColumnReference":6742,"Updated":6743,"ĠschemaName":6744,"tracef":6745,"Incremental":6746,"embeddable":6747,"36":6748,"756":6749,"FOR":6750,"MD":6751,"Pack":6752,"auto":6753,"anim":6754,"ĠgetAria":6755,"ĠsetValue":6756,"FieldSerializer":6757,"Ġtracker":6758,"OrUpdate":6759,"gee":6760,"AsString":6761,"Fetchable":6762,"SEPAR":6763,"ĠcolumnType":6764,"Eras":6765,"Executed":6766,"Ð¾Ð»":6767,"ĠOptim":6768,"PrefixSet":6769,"\"}\",":6770,"Scrollbar":6771,"ĠsequenceName":6772,"PutCount":6773,"DROP":6774,"RTL":6775,"block":6776,"Ġentities":6777,"getBean":6778,"getLoaded":6779,"Incorrect":6780,"ĠgetCollection":6781,"Ġos":6782,"INE":6783,"Ġclasses":6784,"1020":6785,"Enumer":6786,"BufferException":6787,"à·ı":6788,"ĠQueryImplementor":6789,"ĠfileName":6790,"reference":6791,"REFERENCE":6792,"Effect":6793,"LT":6794,"MBean":6795,"MONTH":6796,"iwa":6797,"ÙĤ":6798,"ĠManaged":6799,"ania":6800,"Ġ\"%":6801,"Ġneg":6802,"dec":6803,"OfEra":6804,"AtRevision":6805,"ParserRuleContext":6806,"Checked":6807,"à¬¾":6808,"('.":6809,"ĠremoveAria":6810,"InvalidProtocol":6811,"áĥĺáĥ":6812,"MissCount":6813,"InvalidProtocolBufferException":6814,"ZA":6815,"ĠCharSequence":6816,"getEm":6817,"peat":6818,"Ġsynchronized":6819,"abs":6820,"oop":6821,"concat":6822,"Uninitialized":6823,"Ġprops":6824,"using":6825,"à½º":6826,"ĠDateTimeUtils":6827,"à²¿":6828,"ĠInputStream":6829,"replaceMe":6830,"ĠdpOrig":6831,"ĠPersistence":6832,"ĠJpaExpression":6833,"emptyList":6834,"assertCanAdd":6835,"à»Ģàº":6836,"><":6837,"Car":6838,"JReferenceType":6839,"button":6840,"ful":6841,"hi":6842,"ool":6843,"ÖĢ":6844,"traction":6845,"ĠgetJavaType":6846,"Depth":6847,"provider":6848,"persistent":6849,"ĠGraph":6850,"eignCustomer":6851,"SortedSet":6852,"getSimpleName":6853,"compatibleRemoteService":6854,"esticCustomer":6855,"ometh":6856,"SEPARATOR":6857,"compatibleRemoteServiceException":6858,"AI":6859,"GF":6860,"åħ":6861,"Ġampms":6862,"strategy":6863,"Ġchannel":6864,"ĠFilter":6865,"ANGE":6866,"ĠonFailure":6867,"loaded":6868,"generated":6869,"DevModeResponse":6870,"OrÃŃlÉĽ":6871,"OrÃŃláº¹":6872,"(%":6873,"Age":6874,"Global":6875,"UTE":6876,"ehicle":6877,"assign":6878,"Real":6879,"Ġee":6880,"ĠtestTo":6881,"needs":6882,"PropertyValue":6883,"<?>,":6884,"TreeItem":6885,"minutes":6886,"ĠsqmPath":6887,"ĠDateMidnight":6888,"Ġerrors":6889,"IGN":6890,"Thrown":6891,"UpperCase":6892,"omething":6893,"TC":6894,"ÐŁ":6895,"etab":6896,"ond":6897,"ĠMonth":6898,"lah":6899,"AbstractMethod":6900,"popup":6901,"ĠMockJavaResource":6902,"ReadableInstant":6903,"mediate":6904,"Ġfailure":6905,"SearchedExpression":6906,"'\",":6907,"95":6908,"AvailableSettings":6909,"CM":6910,"Dto":6911,"Sink":6912,"Ð¹":6913,"ĠGroup":6914,"(\".":6915,"Trusted":6916,"Another":6917,"toIdentifier":6918,"ĠentityBinding":6919,"temp":6920,"à¤Ĺ":6921,"DescriptorBuilder":6922,"SourceWriter":6923,"ĠIs":6924,"ĠstrFactory":6925,"fromXML":6926,"Ġfetched":6927,"TRAN":6928,"AutoBean":6929,"ETCH":6930,"LinkedHashMap":6931,"ĠembeddableMappingType":6932,"POSI":6933,"ĠHierarchicalStreamReader":6934,"Gr":6935,"PX":6936,"RU":6937,"Uuid":6938,"_;":6939,"rs":6940,"sf":6941,"ĠOracle":6942,"ĠAttributeMapping":6943,"idi":6944,"abe":6945,"setWidget":6946,"serializable":6947,"ĠiChronology":6948,"Price":6949,"listeners":6950,"à¦ķ":6951,"ĠSqmPath":6952,"Shared":6953,"ĠRange":6954,"JavaResourceBase":6955,"OfWeekyear":6956,"Ġqualified":6957,"Succeeds":6958,"CZ":6959,"Treated":6960,"VC":6961,"ww":6962,"Ġused":6963,"isStatic":6964,"Ġsingle":6965,"ĠgetElement":6966,"addPermission":6967,"ĠCurrency":6968,"INFO":6969,"ONLY":6970,"Ġ'@":6971,"Ġanother":6972,"SimplePath":6973,"Operations":6974,"Builders":6975,"ÑģÑĤÑĢ":6976,"EM":6977,"ZONE":6978,"document":6979,"go":6980,"ÙĲ":6981,"deprecation":6982,"Report":6983,"ayload":6984,"Ġthen":6985,"Ġexpect":6986,"herman":6987,"à¦¾\");":6988,"à½¦":6989,"ENABLE":6990,"avigableRole":6991,"ĠrootEntity":6992,"Mutating":6993,"ĠMonitor":6994,"BF":6995,"Dst":6996,"FALSE":6997,"GU":6998,"jaxb":6999,"ĠProperties":7000,"Ġ{-":7001,"ano":7002,"Ġcleanup":7003,"Ġextra":7004,"createMutationQuery":7005,"MethodName":7006,"ĠresultType":7007,"Common":7008,"Ġstreet":7009,"Ġouter":7010,"ĠReceiver":7011,"Ġmodified":7012,"ĠBindableType":7013,"BS":7014,"FORMAT":7015,"KN":7016,"author":7017,"addChild":7018,"Ġ24":7019,"Ġemf":7020,"Ġalready":7021,"formed":7022,"RowData":7023,"(((":7024,"áĢĶ":7025,"AliasBase":7026,"Spoof":7027,"interpret":7028,"â´±":7029,"ĠCompany":7030,"ABASE":7031,"NORE":7032,"MappedBy":7033,"Ġresolver":7034,"Ġ1972":7035,"clusive":7036,"ATTRIBUTE":7037,"Spoofing":7038,"37":7039,"Coded":7040,"Flags":7041,"Nor":7042,"Pic":7043,"RR":7044,"Rollback":7045,"Word":7046,"audit":7047,"cn":7048,"ĠTo":7049,"Ġrows":7050,"Ġpresenter":7051,"unch":7052,"Ġmessages":7053,"QueryGroup":7054,"riend":7055,"ĠBe":7056,"Emetab":7057,"ĠDAY":7058,"ĠcollectionDescriptor":7059,"UNK":7060,"ĠSqlSelection":7061,"Ġtemp":7062,"AXB":7063,"Specifications":7064,"etworkInterface":7065,"86":7066,"CR":7067,"UA":7068,"ĠState":7069,"ĠStatement":7070,"ĠEditor":7071,"ĠManyToOne":7072,"etSocketAddress":7073,"ammal":7074,"urk":7075,"setParent":7076,"ĠgetKey":7077,"Ġdom":7078,"ToAdd":7079,"Ġrestriction":7080,"TransactionCoordinator":7081,"off":7082,"mous":7083,"EmbId":7084,"ĠentityManagerFactory":7085,"ORT":7086,"ĠVector":7087,"THOD":7088,"ULTI":7089,"Tokenizer":7090,"WriteExpression":7091,"placed":7092,"assertNotSame":7093,"ĠOtherEntity":7094,"/>\\":7095,"Br":7096,"Cause":7097,"Gre":7098,"Synthetic":7099,"ĠStruct":7100,"ĠYearMonthDay":7101,"rel":7102,"Removed":7103,"ĠhashMap":7104,"ĠBU":7105,"à¦°":7106,"Ġfire":7107,"Ð½Ð°":7108,"Plus":7109,"à´¿":7110,"phones":7111,"Ġexpressions":7112,"Matching":7113,"à¶º":7114,"canner":7115,"getFirstChild":7116,",'":7117,"BD":7118,"Cent":7119,"Used":7120,"bld":7121,"ymous":7122,"Ġ$":7123,"Ġtry":7124,"ĠLoad":7125,"Ġuri":7126,"isOpen":7127,"getDisplay":7128,"amily":7129,"Ġmouse":7130,"ĠinputStream":7131,"ĠJPrimitiveType":7132,"Ġloader":7133,"NullPrecedence":7134,"checkCollection":7135,"Ġfixed":7136,"áĢ¸":7137,"TableGroupJoins":7138,"Execute":7139,"getJdbcCoordinator":7140,"Defined":7141,"CastException":7142,"Structure":7143,"ĠlazyInitializer":7144,"ĠLinkedHashMap":7145,"ndi":7146,"DATA":7147,"Encoding":7148,"ĠLONG":7149,"setCurrentMillisFixed":7150,"GT":7151,"ground":7152,"ĠStatus":7153,"Ġskip":7154,"setCopy":7155,"ĠSocket":7156,"TransactionUtil":7157,"ResultType":7158,"Fraction":7159,"àª¨":7160,"ĠmappingMetamodel":7161,"ĠPersistentCollection":7162,"Ġembedded":7163,"12345":7164,"maining":7165,"abeled":7166,"94":7167,"MulId":7168,"TML":7169,"Ġel":7170,"edTr":7171,"rev":7172,"ĠJPA":7173,"enclo":7174,"ĠXpp":7175,"writeObject":7176,"utover":7177,"BuildingOptions":7178,"Ġtemporal":7179,"Ð²Ð°":7180,"cheduled":7181,"Country":7182,"ĠImplicit":7183,"inGroup":7184,"getBasic":7185,"apsed":7186,"Ġfallback":7187,"ĠCte":7188,"ĠHTML":7189,"AttributeNode":7190,"ĠpersistenceUnit":7191,"018":7192,"MonthOfYear":7193,"Processing":7194,"ffff":7195,"getSqlAst":7196,"Commands":7197,"Missing":7198,"integer":7199,"KR":7200,"SPA":7201,"ua":7202,"getThe":7203,"ading":7204,"ĠgetIdentifier":7205,"IdData":7206,"Ġstack":7207,"ĠIllegal":7208,"Ġruntime":7209,"ĠGregorian":7210,"functionRegistry":7211,"QUER":7212,"ĠselectableMapping":7213,"ĠregionName":7214,"ĠcreateNativeSQLStatement":7215,"getAbsolutePath":7216,"Gen":7217,"IQ":7218,"Known":7219,"Synchronization":7220,"cached":7221,"sd":7222,"ĠId":7223,"alert":7224,"Ġsherman":7225,"assertInsertCount":7226,"umptions":7227,"ĠCar":7228,"à´ķ":7229,"lastName":7230,"AppUsage":7231,"traverse":7232,"modell":7233,"040":7234,"ArtifactSet":7235,"Ġreplacement":7236,"UnsupportedAppUsage":7237,"BINARY":7238,"anchenmodell":7239,"Occ":7240,"Ã¶":7241,"ÉĻ":7242,"Ġag":7243,"getColumns":7244,"oracle":7245,"amer":7246,"Ġ\"\");":7247,"irror":7248,"INTER":7249,"ĠBitSet":7250,"ĠTuple":7251,"ALL":7252,"getCreationContext":7253,"DayOfMonth":7254,"IDs":7255,"buggy":7256,"à¶±":7257,"Positive":7258,"modified":7259,"GQ":7260,"Job":7261,"LB":7262,"PAT":7263,"ople":7264,"Ö·":7265,"Ġapp":7266,"getX":7267,"roid":7268,"imator":7269,"Ġmembers":7270,"addWrapField":7271,"Ġinternal":7272,"Ġident":7273,"Ġwrapper":7274,"Ġhuman":7275,"\")));":7276,"edicates":7277,"Show":7278,"à°°":7279,"Ġdeserialize":7280,"FILE":7281,"Ġannotations":7282,"millisOfSecond":7283,"WebServer":7284,"!\");":7285,"KAR":7286,"SU":7287,"kt":7288,"isLoggable":7289,"icChronology":7290,"urchase":7291,"tributor":7292,"tempt":7293,"ĠcolumnNames":7294,"ĠNavigablePath":7295,"Addresses":7296,"subclass":7297,"ðĳĦļ":7298,"BaseType":7299,"ĠmetadataSources":7300,"SafeStyles":7301,"ĠInput":7302,"Detached":7303,"ĠTypeConfiguration":7304,"Bidi":7305,"Ġmanager":7306,"1970":7307,"AAEntity":7308,"Artifacts":7309,"Digit":7310,"876":7311,"EC":7312,"MY":7313,"SB":7314,"ZZ":7315,"Å¾":7316,"Õ¸":7317,"getB":7318,"getTimeZone":7319,"StrIntTestEntity":7320,"ĠgetState":7321,"andi":7322,"Transport":7323,"Ġremoved":7324,"ĠHel":7325,"ĠMin":7326,"ĠAm":7327,"<?>[]":7328,"encode":7329,"ugh":7330,"Resolutions":7331,"ToOneAttributeMapping":7332,"theTimestamp":7333,"Prefixes":7334,"Ġminute":7335,"TypedQuery":7336,"Ġ2005":7337,"ĠCOUNT":7338,"BJECT":7339,"35":7340,"City":7341,"KP":7342,"PN":7343,"SG":7344,"WF":7345,"host":7346,"oper":7347,"vendor":7348,"ids":7349,"req":7350,"Ġcascade":7351,"Ġtenant":7352,"EntityId":7353,"Segment":7354,"Ġcondition":7355,"Ġconsume":7356,"CollectionType":7357,"ĠAf":7358,"LECTION":7359,"ConfigurationProperty":7360,"Ġserver":7361,"ĠtimeZone":7362,"Numeric":7363,"Ġsetting":7364,"ĠBUDDHIST":7365,"QUERY":7366,"Diff":7367,"KH":7368,"Scop":7369,"TJ":7370,"ĠModelPart":7371,"getArg":7372,"putAll":7373,"ĠtestHistory":7374,"emp":7375,"Ġexport":7376,"Ġexists":7377,"ArgumentCount":7378,"à¦¼":7379,"Ġimport":7380,"AttributeMappings":7381,"Ġjso":7382,"Ġ`%":7383,"RequiresDialectFeature":7384,"multiselect":7385,"KARTA":7386,"EA":7387,"KM":7388,"Lite":7389,"Lambda":7390,"NL":7391,"NZ":7392,"Terminal":7393,"vanced":7394,"thread":7395,"à¤ľ":7396,"eep":7397,"SessionFactoryBuilder":7398,"JdbcParameter":7399,"METHOD":7400,"Enums":7401,"2007":7402,"DecimalFormat":7403,"áĪµ":7404,"ĠBasicEntity":7405,"CHEMA":7406,"Absent":7407,"ListJoinColumnBidirectionalRefIngEntity":7408,"declaring":7409,"Estimator":7410,"Ġindic":7411,"BL":7412,"Find":7413,"KG":7414,"MH":7415,"libcore":7416,"oar":7417,"getIn":7418,"anc":7419,"(\"\");":7420,"ĠbScale":7421,"emo":7422,"ĠJDBC":7423,"RegistryLite":7424,"StandardServiceRegistry":7425,"Widgets":7426,"Resolved":7427,"parseInt":7428,"lastIndexOf":7429,"ExtensionRegistryLite":7430,"Ġassignment":7431,"UBLE":7432,"Indicators":7433,"DM":7434,"DZ":7435,"LV":7436,"PF":7437,"Ã¼":7438,"ins":7439,"Ġtotal":7440,"ĠnewValues":7441,"setSelected":7442,"ĠentityType":7443,"ĠCategory":7444,"ĠBY":7445,"ĠThread":7446,"ĠreadOnly":7447,"ApiClass":7448,"Ġrequested":7449,"âĢĻ":7450,"WhereClause":7451,"ĠPluralForm":7452,"NumberFormatException":7453,"Ġintegration":7454,"TRANS":7455,"MAN":7456,"WEEK":7457,"Ġround":7458,"Ġsources":7459,"(\"{":7460,"ExceptionHelper":7461,"ĠgetForUpdate":7462,"Ġhibernate":7463,"ENGL":7464,"NOWN":7465,"à§°":7466,"OptimisticLock":7467,"getDefaultInstance":7468,"IGNORE":7469,"Ġ1900":7470,"PlatformApi":7471,"à«ĩ":7472,"CorePlatformApi":7473,"ENGLISH":7474,"GS":7475,"HU":7476,"MK":7477,"NF":7478,"sc":7479,"ÐĽ":7480,"isArray":7481,"adio":7482,"search":7483,"Ġpass":7484,"ives":7485,"ĠSTR":7486,"DataSource":7487,"ĠAl":7488,"Interop":7489,"JsMethod":7490,"longValue":7491,"RowNumber":7492,"ĠjdbcServices":7493,"getClassName":7494,"IfAbsent":7495,"mergeFrom":7496,"layer":7497,"UNKNOWN":7498,"Il":7499,"mode":7500,"naturalId":7501,"ĠUTC":7502,"sect":7503,"namespace":7504,"Tests":7505,"QueryImplementor":7506,"Ġstandard":7507,"Ġtrusted":7508,"Ġ366":7509,"DayOfWeek":7510,"udio":7511,"Ġ59":7512,"à¬°":7513,"àª¿":7514,"â´½":7515,"('\\":7516,"Ð°Ð¹":7517,"marization":7518,"CustomSql":7519,"Ġabs":7520,"ĠINTEGER":7521,"Ġcontact":7522,"Ġoperation":7523,"ajorVersion":7524,"Bottom":7525,"GHT":7526,"TM":7527,"Wall":7528,"cleanup":7529,"hash":7530,"skip":7531,"Îº":7532,"Ġap":7533,"entr":7534,"Ġ\"(":7535,"recover":7536,"very":7537,"Ġstore":7538,"Deque":7539,"ForType":7540,"ower":7541,"ĠfromString":7542,"âµ¢":7543,"àºĻ":7544,"ĠOptional":7545,"Ġpersons":7546,"ĠsqmJoin":7547,"refresh":7548,"TERAL":7549,"Ġversions":7550,"ĠByteBuffer":7551,"reportError":7552,"MinimumValue":7553,"andidate":7554,"thenReturn":7555,"uxiliaryDatabaseObject":7556,"*-":7557,"getT":7558,"association":7559,"Ġeffective":7560,"Ġ18":7561,"TestClass":7562,"TimeOfDay":7563,"ĠJExpression":7564,"Ġrelease":7565,"ĠaaEntity":7566,"Anchor":7567,"ĠDirection":7568,"ddl":7569,"Accessible":7570,"getCte":7571,"IsWidget":7572,"SqlAstTranslator":7573,"à©Ģ":7574,"rieved":7575,"Suggestion":7576,"getSuperclass":7577,"estartWebServer":7578,"ĠtestHistoryOf":7579,">,":7580,"MULTI":7581,"QA":7582,"died":7583,"ha":7584,"ama":7585,"Ġ\";":7586,"ĠgetField":7587,"aving":7588,"toXML":7589,"Interceptable":7590,"\\\":":7591,"ĠLibcore":7592,"ĠcompilerContext":7593,"ĠsqlAppender":7594,"987":7595,"ĠannotatedClass":7596,"ensitive":7597,"shallingContext":7598,"ORDER":7599,"Connected":7600,"CC":7601,"MG":7602,"MV":7603,"UZ":7604,"YY":7605,"echo":7606,"sTo":7607,"áį":7608,"trations":7609,"getPackage":7610,"getSelectClause":7611,"icon":7612,"Ġob":7613,"ParameterTypes":7614,"<?>...":7615,"JsStatement":7616,"ĠtableRecord":7617,"Asia":7618,"âµĶ":7619,"Ġcompilation":7620,"ĠdefaultValue":7621,"LIC":7622,"LIST":7623,"ipped":7624,"CAST":7625,"ĠaccessType":7626,"Varargs":7627,"Ġcalendar":7628,"ĠPostgreSQL":7629,"ĠmutationTarget":7630,"ĠClassLoaderService":7631,"getPersistenceContextInternal":7632,"registry":7633,"oarder":7634,"26":7635,"GP":7636,"KZ":7637,"polator":7638,"ÏĦ":7639,"ĠInterval":7640,"ĠEND":7641,"Props":7642,"ĠgetCurrent":7643,"strFactory":7644,"ĠModule":7645,"itional":7646,"JsProperty":7647,"Ġgavin":7648,"checkResult":7649,"executionContext":7650,"FooRequest":7651,"à¸Ļ":7652,"getClassLoader":7653,"methodName":7654,"à²°":7655,"THER":7656,"ĠAnnotationException":7657,"StackTraceElement":7658,"getNodeType":7659,"Move":7660,"BH":7661,"BT":7662,"Sk":7663,"runtime":7664,"×Ķ":7665,"getPart":7666,"ors":7667,"plete":7668,"Ġconstant":7669,"ĠCell":7670,"Ġlocation":7671,"Ġdelet":7672,"NodeBuilder":7673,"opa":7674,"à¦²":7675,"registerHandler":7676,"àª°":7677,"ĠEX":7678,"IfNotNull":7679,"LITERAL":7680,"DownEvent":7681,"9999":7682,"ĠShort":7683,"ĠISOChronology":7684,"avorite":7685,"DJ":7686,"FE":7687,"Via":7688,"Zip":7689,"br":7690,"fil":7691,"getDiscriminator":7692,"apt":7693,"TypeResolver":7694,"setup":7695,"setMax":7696,"Union":7697,"MethodException":7698,"101":7699,"ĠNaturalId":7700,"methodVisitor":7701,"Ġtranslator":7702,"ĠOpcodes":7703,"à¨°":7704,"à¨¾":7705,"replaceAll":7706,"Ġcharacter":7707,"áŁĴ":7708,"Clinit":7709,"Ġhints":7710,"ĠGeometry":7711,"Ġtraverse":7712,"Ã£o":7713,"Cert":7714,"Ġpck":7715,"Ġfld":7716,"oto":7717,"Keyboard":7718,"ĠCallback":7719,"WithNo":7720,"Ġ?,":7721,"compiler":7722,"resultSet":7723,"à½£":7724,"CharArray":7725,"ðĳĦ¢":7726,"à¸£":7727,"ÐµÐ»":7728,"áŀ¸":7729,"áĪŃ":7730,"ĠlastName":7731,"ĠMutablePeriod":7732,"require":7733,"getBasicTypeRegistry":7734,"Ġpckg":7735,"ging":7736,"socket":7737,"warn":7738,"Å¡":7739,"ĠMapper":7740,"setStr":7741,"otential":7742,"Ġai":7743,"ĠFlushMode":7744,"Refs":7745,"TRY":7746,"Constructors":7747,"RIGHT":7748,"Optimization":7749,"Enhancer":7750,"Owned":7751,"mappingDocument":7752,"ISOChronology":7753,"ĠresultSetMapping":7754,"BI":7755,"Ce":7756,"LU":7757,"just":7758,"ng":7759,"sup":7760,"va":7761,"zoo":7762,"ĠStatic":7763,"Ġlegacy":7764,"getHibernate":7765,"getEnd":7766,"ulas":7767,"Invariant":7768,"ump":7769,"Ġreq":7770,"ERI":7771,"getIdent":7772,"Retrieve":7773,"THES":7774,"ĠOwner":7775,"arraycopy":7776,"Ġlogical":7777,"Caption":7778,"ðĲĳī":7779,"00000004":7780,"Ġinteger":7781,"ĠdbData":7782,"PARENTHES":7783,"DATABASE":7784,"PARENTHESIS":7785,"(*":7786,"50":7787,"BG":7788,"La":7789,"MZ":7790,"Rate":7791,"hrow":7792,"getFull":7793,"(\"%":7794,"ĠcreationProcess":7795,"EntityMapping":7796,"Ġown":7797,"ĠresScale":7798,"acer":7799,"ĠqueryString":7800,"124":7801,"ĠfileContent":7802,"Tracking":7803,")(":7804,"Catch":7805,"FM":7806,"Flow":7807,"GW":7808,"Watcher":7809,"bag":7810,"getDeclaring":7811,"InList":7812,"ĠSelf":7813,"Ġthread":7814,"Off":7815,"toUpperCase":7816,"WithDesc":7817,"ookies":7818,"SimpleValue":7819,"ByteString":7820,"Bytecode":7821,"jdbcMapping":7822,"precision":7823,"Definitions":7824,"ableTypeOracle":7825,"Runner":7826,"Ġusing":7827,"ategoriesWithDesc":7828,"Filters":7829,"ĠPrintWriter":7830,"JM":7831,"eacher":7832,"ness":7833,"si":7834,"ti":7835,"total":7836,"Ã½":7837,"Ġctor":7838,"(){":7839,"StringLiteral":7840,"estination":7841,"setUp":7842,"Ġinclude":7843,"PropertyHolder":7844,"Ġ29":7845,"ignTime":7846,"ĠqueryGroup":7847,"CacheRegion":7848,"ĠsqlString":7849,"Ġserialize":7850,"Ġinitializer":7851,"interval":7852,"ĠCompilation":7853,"creen":7854,"à¼į\");":7855,"ĠUUID":7856,"WorkUnit":7857,"dialectClass":7858,"Analyz":7859,"Monitor":7860,"getLhs":7861,"Picker":7862,"*/":7863,"MR":7864,"Old":7865,"ZW":7866,"ç¾":7867,"isSelected":7868,"orig":7869,"ulator":7870,"TypeReference":7871,"ibling":7872,"Ġinvalid":7873,"anda":7874,"ĠsetData":7875,"FieldAccessor":7876,"createDivElement":7877,"ained":7878,"Ġworld":7879,"Locales":7880,"Referencing":7881,"Shuffle":7882,"LOSE":7883,"imited":7884,"GraphImplementor":7885,"sourceWriter":7886,"elements":7887,"à¶»":7888,"ĠlogicalName":7889,"ĠTreeSet":7890,"VERSION":7891,"ĠZoo":7892,"SideEffect":7893,"UIObject":7894,"ALIZ":7895,"JArrayType":7896,"TF":7897,"VID":7898,"][":7899,"×ł":7900,"ĠInternal":7901,"lev":7902,"getExplicit":7903,"that":7904,"reat":7905,"andom":7906,"TableNames":7907,"ByBasic":7908,"ĠAg":7909,"JavaLang":7910,"Ġ36":7911,"Ð°Ñ":7912,"NativeJsType":7913,"DELE":7914,"ClauseStack":7915,"Utf":7916,"sumed":7917,"registerConverter":7918,"parseDateTime":7919,"jsni":7920,"ĠTypeOracle":7921,"326":7922,"fetchable":7923,"getJavaTypeDescriptor":7924,"status":7925,"Ġframe":7926,"PluralAttributeMapping":7927,"Ġselections":7928,"dlType":7929,"ĠAccessType":7930,"ĠTokenStream":7931,"1000":7932,"High":7933,"Micro":7934,"rhs":7935,"ÐĿ":7936,"isNull":7937,"getNon":7938,"uler":7939,"ĠSingular":7940,"constant":7941,"FieldIn":7942,"à¦¬":7943,"à½ĺ":7944,"ĠClassNotFoundException":7945,"ĠjoinType":7946,"ĠJsName":7947,"ComponentTestEntity":7948,"Warning":7949,"JpaCompliance":7950,"UNCTION":7951,"addresses":7952,"039":7953,"dlTypeRegistry":7954,"ĠPreparedStatement":7955,"--------":7956,"roller":7957,"Boot":7958,"FETCH":7959,"Gregorian":7960,"MU":7961,"PR":7962,"SV":7963,"SZ":7964,"font":7965,"farm":7966,"ki":7967,"êĸ":7968,"ĠResultSet":7969,"atial":7970,"edit":7971,"assertTyping":7972,"Concrete":7973,"ClassPathEntry":7974,"createNamedQuery":7975,"Destroy":7976,"ĠBootstrap":7977,"ĠTABLE":7978,"Combined":7979,"Ġensure":7980,"hasMore":7981,"statements":7982,"ĠSecond":7983,"InnerText":7984,"MIT":7985,"ferredSqlTypeCode":7986,"Ġqry":7987,"ĠEventSource":7988,"Vars":7989,"weekyear":7990,"ĠclassLoaderService":7991,"Ġmark":7992,"Removal":7993,"49":7994,"Db":7995,"GG":7996,"Ir":7997,"Lit":7998,"Payment":7999,"rist":8000,"ting":8001,"Äģ":8002,"Õ¶":8003,"getMapped":8004,"Rebind":8005,"Ġblock":8006,"ĠJta":8007,"ĠjdbcTypeCode":8008,"MonthDay":8009,"ĠmappedBy":8010,"ĠInvalid":8011,"ĠselectClause":8012,"--;":8013,"Ġrownumber":8014,"matcher":8015,"CascadeOne":8016,"ĠTheEntity":8017,"ExpandedState":8018,"''":8019,"38":8020,"Face":8021,"Ma":8022,"icted":8023,"option":8024,"software":8025,"getInt":8026,"getSelection":8027,"getBootstrap":8028,"assertExecuted":8029,"imiter":8030,"loader":8031,"ĠgetEntity":8032,"DataProvider":8033,"ĠtypeContributions":8034,"comment":8035,"âµĻ":8036,"ĠsqmRoot":8037,"ĠfirstName":8038,"transform":8039,"trah":8040,"Ġssrb":8041,"Replacement":8042,"weeks":8043,"UPDATE":8044,"ĠbasicType":8045,"transactionManager":8046,"Ġrelative":8047,"TestServiceAsync":8048,"Ġupper":8049,"did":8050,"lat":8051,"tmp":8052,"zi":8053,"lication":8054,"section":8055,"ĠtestUpdate":8056,"forFields":8057,"FieldWriter":8058,"toFormatter":8059,"START":8060,"NotSupported":8061,"aker":8062,"ANO":8063,"Ø§ÛĮ":8064,"ĠjoinColumn":8065,"ĠdoIn":8066,"Ġdispatch":8067,"Contributor":8068,"attributeMapping":8069,"wait":8070,"7356":8071,"levant":8072,"*,":8073,"Cross":8074,"TS":8075,"di":8076,"kit":8077,"Ġartifacts":8078,"atient":8079,"ali":8080,"getProxy":8081,"roach":8082,"Ġcre":8083,"ilt":8084,"rethrow":8085,"utability":8086,"009":8087,"Ġlang":8088,"MappingException":8089,"ĠAS":8090,"comm":8091,"FromText":8092,"ĠNO":8093,"Instantiable":8094,"à¥Ĥ":8095,"ðĳĦł":8096,"Delay":8097,"1111":8098,"dayOfWeek":8099,"à·Ģ":8100,"Ġ1234":8101,"ĠuserType":8102,"SqlSelections":8103,"assertAnnotationPresent":8104,"JsNameRef":8105,"ĠParameterMode":8106,"Budd":8107,"steve":8108,"getJpaMetamodel":8109,"Ġperform":8110,"ĠenclosingType":8111,"KW":8112,"MC":8113,"SD":8114,"ustr":8115,"Î¯":8116,"ĠUtil":8117,"Ġapi":8118,"inEntityManager":8119,"isTrue":8120,"(\"#":8121,"Ġcycle":8122,"Ġport":8123,"Prototype":8124,"Ġtester":8125,"struction":8126,"Ġlower":8127,"ResultBuilder":8128,"ĠBi":8129,"Ġgen":8130,"Refresh":8131,"SubPart":8132,"ClauseExpression":8133,"uda":8134,"áĢ®":8135,"ĠRULE":8136,"ĠidentifierMapping":8137,"UnknownFields":8138,"Ordinalized":8139,"BitSet":8140,"Needed":8141,"VIDER":8142,"PY":8143,"apu":8144,"fir":8145,"Ùĥ":8146,"escaped":8147,"()];":8148,"isColumn":8149,"Ġ\"#":8150,"sequence":8151,"imes":8152,"ume":8153,"Ġbound":8154,"Parsed":8155,"serialize":8156,"LocalMillis":8157,"Ġ')'":8158,"FunctionName":8159,"Prepar":8160,"comparator":8161,"ĠNULL":8162,"sourceAdd":8163,"Positional":8164,"irectory":8165,"ĠTemporal":8166,"getLocalMillis":8167,"ĠmonthOfYear":8168,"ĠCommon":8169,"assertCanAddAttribute":8170,"ferredSqlTypeCodeFor":8171,"-*/":8172,"AQ":8173,"Cookie":8174,"GEN":8175,"ZonedDateTime":8176,"batch":8177,"iet":8178,"mart":8179,"å°":8180,"Ġorders":8181,"getAs":8182,"ĠnewBuilder":8183,"Ġpage":8184,"RecognitionException":8185,"unmodifiable":8186,"Projection":8187,"ĠentityKey":8188,"irg":8189,"ColumnType":8190,"coming":8191,"Ġ'/":8192,"company":8193,"SqmParameter":8194,"buildSessionFactory":8195,"à°¾":8196,"ĠOs":8197,"LazyProperty":8198,"LazyInitializer":8199,"ModuleLoad":8200,"999":8201,"ĠRecord":8202,"partial":8203,"epCopy":8204,"ĠdayOfMonth":8205,"manyToOne":8206,"getFieldInNonEntity":8207,"ĠTIMESTAMP":8208,"Ġsuccess":8209,"44":8210,"LTR":8211,"LINE":8212,"URE":8213,"WK":8214,"messages":8215,"web":8216,"ĠðĳĦ":8217,"getModelPart":8218,"getTagName":8219,"ingMethod":8220,"forEntities":8221,"SetUp":8222,"FieldSet":8223,"avail":8224,"ĠMouse":8225,"ĠTyped":8226,"à¦ª":8227,"Instantiated":8228,"CONNE":8229,"Users":8230,"EmbeddedId":8231,"ĠTimeUnit":8232,"ĠtransactionCoordinator":8233,"Guard":8234,"Ġrequired":8235,"ĠPoint":8236,"400":8237,"LS":8238,"Wait":8239,"mall":8240,"êĹ":8241,"getDays":8242,"getSeconds":8243,"ingStrategy":8244,"peedTr":8245,"Ġbinary":8246,"Try":8247,"ExpressionPredicate":8248,"ResultTransformer":8249,"EventSink":8250,"ALIGN":8251,"Ġ?>)":8252,"Ġenable":8253,"Disk":8254,"SimpleExpression":8255,"Affect":8256,"à®°":8257,"à²¾":8258,"à§ģ":8259,"ynchronize":8260,"GenerationTarget":8261,"IdentityColumn":8262,"ĠFieldUtils":8263,"alesperson":8264,"ĠNoSuch":8265,"ĠCriteriaQuery":8266,"peedTracer":8267,"Bel":8268,"Dot":8269,"Five":8270,"cub":8271,"creationProcess":8272,"fill":8273,"Ã²":8274,"getMethods":8275,"oos":8276,"setTime":8277,"setCacheMode":8278,"ĠgetString":8279,"contract":8280,"ĠJO":8281,"Then":8282,"ĠisValid":8283,"Ġcoll":8284,"JsInterop":8285,"Comma":8286,"ĠEntityA":8287,"019":8288,"VALID":8289,"Ġtargets":8290,"150":8291,"Ġ{}\",":8292,"ĠRecognitionException":8293,"ĠĠĠĠĠĠĠĠĠ":8294,"Ġcalled":8295,"DevModeRequest":8296,"alesce":8297,"RowNumbering":8298,"*-{":8299,"419":8300,"Different":8301,"Human":8302,"cated":8303,"flags":8304,"hist":8305,"Õ¥":8306,"include":8307,"isNotEmpty":8308,"getListener":8309,"MapEntity":8310,"sel":8311,"olat":8312,"EntityNames":8313,"Tra":8314,"Ġlabeled":8315,"strument":8316,"ĠisEmpty":8317,"riterion":8318,"template":8319,"engine":8320,"à½´":8321,"ĠfieldType":8322,"00000":8323,"Ð¸Ðº":8324,"áŀŁ":8325,"getEntityPersister":8326,"Ġtranslate":8327,"Ø±ÛĮ":8328,"getSessionFactoryOptions":8329,"metadataSources":8330,"orrelatedRoot":8331,"OrderingParser":8332,"JAVA":8333,"âµ¢â´°":8334,"ĠJOIN":8335,"Cancel":8336,"Duplicate":8337,"OBJECT":8338,"VN":8339,"VO":8340,"dr":8341,"Ġpu":8342,"oni":8343,"att":8344,"getObject":8345,"ĠgetAttribute":8346,"ĠSorted":8347,"Ġ17":8348,"ĠtestHql":8349,"progress":8350,"Ġparts":8351,"Compiled":8352,"Ġdecode":8353,"Priv":8354,"external":8355,"Ġemployer":8356,"à¦®":8357,"ĠcolumnReference":8358,"jso":8359,"Copt":8360,"JMethodCall":8361,"ĠJpaCriteriaQuery":8362,"PROVIDER":8363,"Ġclone":8364,"fireEvent":8365,"äºŀ":8366,"Century":8367,"60":8368,"TN":8369,"UY":8370,"ds":8371,"ĠOneToMany":8372,"invalid":8373,"eno":8374,"getUser":8375,"identity":8376,"(\"\\\\":8377,"setType":8378,"setReadOnly":8379,"ĠgetContent":8380,"Ġdifferent":8381,"ĠtestType":8382,"Orphan":8383,"ROUND":8384,"Operand":8385,"LiteralFormatter":8386,"getJdbcEnvironment":8387,"Formulas":8388,"TIMEOUT":8389,"getRaw":8390,"BinaryName":8391,"MutationStrategy":8392,"Indent":8393,"packageName":8394,"ternativeContact":8395,"TemporalUnit":8396,"CopticChronology":8397,"({":8398,"LSE":8399,"Natural":8400,"diff":8401,"tz":8402,"Îµ":8403,"×¢":8404,"getGroup":8405,"stall":8406,"EntityTable":8407,"Already":8408,"Ġdefinition":8409,"Ġchunk":8410,"FromBits":8411,"DEN":8412,"SelectQuery":8413,"Requested":8414,"Checking":8415,"enterRule":8416,"streamReader":8417,"SafeUri":8418,"dayOfYear":8419,"Ð°Ð½Ð´":8420,"ĠUint":8421,"ĠTreeMap":8422,"ĠTableWith":8423,"Ġmatching":8424,"InputElement":8425,"cheduler":8426,"errors":8427,"Ġoperand":8428,"StoreMode":8429,"tags":8430,"exitRule":8431,"Converters":8432,"ENABLED":8433,"AMappedSuperclass":8434,"Duplic":8435,"Datagram":8436,"HE":8437,"OW":8438,"Ro":8439,"ZM":8440,"oser":8441,"ĠWriter":8442,"erce":8443,"getSelectable":8444,"Ġpc":8445,"cket":8446,"003":8447,"ĠsetParent":8448,"ference":8449,"Ġ22":8450,"uses":8451,"SourceMap":8452,"checkOpen":8453,"Ġforce":8454,"findAttributeMapping":8455,"à°¨":8456,"ATEGY":8457,"jdbcTypeRegistry":8458,"ĠStandardServiceRegistry":8459,"ĠPersistentAttribute":8460,"Dependency":8461,"ĠmanagedEntity":8462,"ExactArgumentCount":8463,"Ġmemento":8464,"available":8465,"80":8466,"CP":8467,"Eager":8468,"GM":8469,"Gss":8470,"LK":8471,"Scalar":8472,"symbol":8473,"Ġsom":8474,"estor":8475,"ĠgetTable":8476,"addColumn":8477,"Quot":8478,"ValueSource":8479,"ĠsetDescription":8480,"ĠentityEntry":8481,"ĠMAX":8482,"ĠAction":8483,"Pred":8484,"\\\">\\":8485,"Ġserialization":8486,"startNode":8487,"à®¾":8488,"ĠQuerySpec":8489,"QualifiedName":8490,"ĠoneToOne":8491,"STRATEGY":8492,"SERT":8493,"DoesNot":8494,"Ġformula":8495,"ĠsqlAstArguments":8496,"peedTracerLogger":8497,"030":8498,"Between":8499,"ION":8500,"members":8501,"vo":8502,"ĠError":8503,"()\");":8504,"getModule":8505,"getNumberOf":8506,"Ġsymbol":8507,"setExactArgumentCount":8508,"classes":8509,"ĠgetId":8510,"ĠgetSql":8511,"Ġinheritance":8512,"Tester":8513,"answer":8514,"contain":8515,"Ġemp":8516,"prev":8517,"014":8518,"Ġshow":8519,"theSocket":8520,"ĠTesting":8521,"CopyContext":8522,"Aggregated":8523,"CAPA":8524,"Ġ89":8525,"getJavaTypeRegistry":8526,"byId":8527,"runAsync":8528,"connectionProvider":8529,"Ġspan":8530,"ĠNativeQueryImplementor":8531,"&#":8532,"BIG":8533,"OL":8534,"SM":8535,"\\\")":8536,"gt":8537,"space":8538,"×ľ":8539,"erc":8540,"getBoolean":8541,"depth":8542,"ĠtestRemove":8543,"PropertyAccess":8544,"expr":8545,"ecause":8546,"Indexes":8547,"Popu":8548,"Previous":8549,"pressed":8550,"ificationVariable":8551,"áĪª":8552,"ĠstringType":8553,"MultiTable":8554,"<?,?":8555,"ĠDefaultRule":8556,"optimizer":8557,"4576":8558,"ĠuniqueKey":8559,"ĠLOG":8560,"SideEffects":8561,"46":8562,"Course":8563,"Zones":8564,"big":8565,"tuple":8566,"Ãģ":8567,"ĠConnectionProvider":8568,"InetAddress":8569,"agn":8570,"ĠgetPhysical":8571,"ValueLiteral":8572,"ForProperty":8573,"Ġreport":8574,"toInstant":8575,"ĠresultVariable":8576,"ĠBatch":8577,"Complex":8578,"Ġ32":8579,"persistenceContext":8580,"Ġstrings":8581,"ĠqueryOptions":8582,"TextArea":8583,"LoadQueryInfluencers":8584,"à½Ĥ":8585,"Ð¸ÐºÐ°":8586,"015":8587,"SerializableTypeOracle":8588,"deserialize":8589,"Edge":8590,"ĠMetadataBuildingContext":8591,"While":8592,"BatchSize":8593,"Ġgroups":8594,"ReadablePeriod":8595,"ickNames":8596,"Ġ/*-{":8597,"DoNot":8598,"counter":8599,"constraint":8600,"ĠtrustedAttribute":8601,"Flight":8602,"SPE":8603,"dummy":8604,"inu":8605,"anes":8606,"Ġ\")\";":8607,"reverse":8608,"assertNo":8609,"setA":8610,"uture":8611,"ĠgetJdbc":8612,"ĠScript":8613,"TransactionIs":8614,"ĠCall":8615,"UpdateStatement":8616,"ockopt":8617,"RootEntity":8618,"Shift":8619,"à½ĸ":8620,"âµİ":8621,"OffsetFetchClause":8622,"Ø§Ùħ":8623,"ĠsuperClass":8624,"Ġprimitive":8625,"Ġassemb":8626,"MOD":8627,"Times":8628,"AutoCommit":8629,"ĠSchemaExport":8630,"ixel":8631,"Latin":8632,"LogicalConnection":8633,"ĠAssertionFailure":8634,"POSITIVE":8635,"ĠfixedTime":8636,"ĠSTRING":8637,"martid":8638,"Baz":8639,"MQ":8640,"NS":8641,"XX":8642,"ĠQ":8643,"ĠStream":8644,"ĠAtomic":8645,"getMaximumValue":8646,"TypeBinding":8647,"ĠbootstrapContext":8648,"ivial":8649,"ĠSemantic":8650,"Ġtrim":8651,"Ġhref":8652,"RegExp":8653,"derlying":8654,"à¤¶":8655,"ĠAuthor":8656,"Interpolator":8657,"JsObject":8658,"FetchMode":8659,"Afrika":8660,"à²¨":8661,"SafeConstant":8662,"154":8663,"ÑĥÑĢ":8664,"Visiwa":8665,"ĠresourceName":8666,"ÙĬØ§":8667,"BACK":8668,"getNodeBuilder":8669,"ĠbeforeIndex":8670,"assertExecutedCount":8671,"Ġsommartid":8672,"Begin":8673,"Fallback":8674,"Lin":8675,"Presenter":8676,"Sing":8677,"])":8678,"xff":8679,"ÇĿ":8680,"ĠReflection":8681,"Ġvari":8682,"Ġcust":8683,"quoted":8684,"imer":8685,"Ġfil":8686,"calendar":8687,"ĠJField":8688,"Unicode":8689,"ArrayNative":8690,"ĠisInitialized":8691,"ongo":8692,"ĠApi":8693,"getClient":8694,"áĢĢ":8695,"ĠdoExtract":8696,"ComponentData":8697,"iko":8698,"Ġshift":8699,"MinimalRebuildCache":8700,"Ð¾Ð²":8701,"NamedId":8702,"Variant":8703,"RIPT":8704,"listenerList":8705,"Ġconverted":8706,"DomHandler":8707,"ALIAS":8708,"forEntitiesAtRevision":8709,"Lines":8710,"cpe":8711,"wise":8712,"æĸ":8713,"only":8714,"Ġviol":8715,"Ġ)\"":8716,"Ġbegin":8717,"Ġois":8718,"TestTreeLogger":8719,"ubl":8720,"PropertyPath":8721,"EventSource":8722,"extension":8723,"CacheKey":8724,"FetchTiming":8725,"BasicEntity":8726,"TargetException":8727,"áĢŃ":8728,"Delimited":8729,"3478":8730,"à®©":8731,"setParameterList":8732,"ĠServer":8733,"heet":8734,"DOUBLE":8735,"timeZone":8736,"Ġhead":8737,"moduleName":8738,"CITY":8739,"Expectations":8740,"Ġinvoke":8741,"GRA":8742,"getExpressionType":8743,"ddlTypeRegistry":8744,"034":8745,"GD":8746,"JStatement":8747,"JNode":8748,"Sibling":8749,"Wrong":8750,"lad":8751,"Ð¶":8752,"ĠYearMonth":8753,"onymous":8754,"getSelected":8755,"edMode":8756,"Ġclause":8757,"esture":8758,"setStyleName":8759,"addHandler":8760,"ĠSample":8761,"Ġstorage":8762,"ĠHINT":8763,"CollectionPart":8764,"Ġ'%":8765,"Ġcomparator":8766,"PredicateContext":8767,"à¸Ń":8768,"BooleanLiteral":8769,"oke":8770,"dispatch":8771,"mapped":8772,"LimitHandler":8773,"ApiChange":8774,"emantics":8775,"ĠnamedQuery":8776,"NotAuditedEntity":8777,"HttpServlet":8778,"(*)":8779,"CX":8780,"Floor":8781,"Now":8782,"SP":8783,"UK":8784,"tiness":8785,"za":8786,"Ã¹":8787,"ÑĦ":8788,"Ġro":8789,"Ġage":8790,"ĠOutputStream":8791,"era":8792,"erby":8793,"getM":8794,"getAlias":8795,"relevant":8796,"depend":8797,"istani":8798,"stop":8799,"unn":8800,"setFirst":8801,"ĠtestCase":8802,"Fire":8803,"005":8804,"Chain":8805,"Ġ27":8806,"ĠMIN":8807,"Ġglobal":8808,"Ġunmarshal":8809,"ĠNOT":8810,"olders":8811,"theString":8812,"ĠconvertTo":8813,"getIdentifierMapping":8814,"UiBinder":8815,"JaxbMapping":8816,"posit":8817,"getAttributeName":8818,"ĠLockModeType":8819,"ClickEvent":8820,"ÑĸÑı":8821,"JoinedGroup":8822,"ĠcontainsString":8823,"AUD":8824,"ĠdropTestData":8825,"ĠEnvers":8826,"Ġ'.'":8827,"riendly":8828,"addWrapFieldToCopy":8829,"CONNECTION":8830,"\"\\":8831,"AST":8832,"Eval":8833,"GH":8834,"IAN":8835,"LR":8836,"MN":8837,"Tail":8838,"car":8839,"lip":8840,"ued":8841,"enh":8842,"getConfiguration":8843,"assertFile":8844,"returnType":8845,"implement":8846,"Ġmore":8847,"endNode":8848,"ĠSize":8849,"Uni":8850,"appendHqlString":8851,"LOCAL":8852,"ĠjdbcTimeZone":8853,"ĠComparison":8854,"SuperType":8855,"Ġzip":8856,"ĠfirstResult":8857,"Callbacks":8858,"makeRef":8859,"84756":8860,"HandlingMode":8861,"Ġ\"]\"":8862,"Î¿Ï":8863,"ĠByteArrayOutputStream":8864,"EXPAN":8865,"298":8866,"BW":8867,"HM":8868,"MF":8869,"bc":8870,"cq":8871,"lt":8872,"wrapper":8873,"ĠIndexOutOfBoundsException":8874,"eting":8875,"inject":8876,"getPh":8877,"getWidth":8878,"getWeeks":8879,"Ġsr":8880,"reason":8881,"Cons":8882,"izes":8883,"002":8884,"ToLoad":8885,"Ġhost":8886,"ĠMenu":8887,"Ð°ÑĤ":8888,"ĠUnsupported":8889,"area":8890,"155":8891,"Blocks":8892,"updated":8893,"QuotedName":8894,"singletonList":8895,"àº²àº":8896,"RetrieveMode":8897,"cubating":8898,"Jane":8899,"Sam":8900,"pass":8901,"Ùİ":8902,"getList":8903,"Ġ\").":8904,"ĠflushMode":8905,"Reporter":8906,"agg":8907,"setData":8908,"Ġbecause":8909,"ĠnullPrecedence":8910,"ĠgetReferenced":8911,"Ġlambda":8912,"OfEntity":8913,"ERIC":8914,"nameMap":8915,"ServiceAsync":8916,"CacheHitCount":8917,"ĠanEntity":8918,"ĠjdbcValue":8919,"ĠCollectionPersister":8920,"ĠparamIndex":8921,"Ġseconds":8922,"Ġreflection":8923,"forEachSelectable":8924,"Ġquote":8925,"ĠPluralAttributeMapping":8926,"Ġstudents":8927,"getSecondLevelCache":8928,"ĠStaticJavaResource":8929,"Ġlanguage":8930,"EXPANDED":8931,"DST":8932,"Dml":8933,"NP":8934,"RW":8935,"SCHEMA":8936,"ape":8937,"database":8938,"none":8939,"ÌĢ":8940,"isClass":8941,"ider":8942,"essim":8943,"imap":8944,"una":8945,"street":8946,"FieldUtils":8947,"createStatement":8948,"appendAs":8949,"ĠCoin":8950,"ĠAd":8951,"ĠTask":8952,"LED":8953,"LENG":8954,"ResourceOracle":8955,"12124":8956,"ĠjdbcParameterBindings":8957,"LogData":8958,"Ġserializable":8959,"Ġbuilding":8960,"ĠJdbcEnvironment":8961,"9874":8962,"ĠfunctionContributions":8963,"Ø³Øª":8964,"áıĤ":8965,"srcWriter":8966,"delayTestFinishFor":8967,"SecurityException":8968,"LENGTH":8969,"Dat":8970,"Sent":8971,"done":8972,"optional":8973,"Ðĺ":8974,"Ø¢":8975,"ĠWith":8976,"ingHint":8977,"arge":8978,"ĠgetInstance":8979,"addLog":8980,"ialog":8981,"ĠCOP":8982,"ills":8983,"AddHandler":8984,"TreeMap":8985,"Validate":8986,"à°¯":8987,"SQLDialect":8988,"à¬¨":8989,"generic":8990,"Ġchecker":8991,"InnerHTML":8992,"Actual":8993,"Ġphones":8994,"Dependencies":8995,"ĠsortExpression":8996,"Handling":8997,"Ġcontained":8998,"ContainingTableExpression":8999,"ĠXppDom":9000,"Occurrence":9001,"ercion":9002,"ĠCOPTIC":9003,".$$_":9004,"BN":9005,"Msg":9006,"bSign":9007,"dig":9008,"Î»":9009,"á¹":9010,"åľ":9011,"inverse":9012,"isDefault":9013,"getZone":9014,"Ġsite":9015,"olation":9016,"Example":9017,"ableMethods":9018,"setTitle":9019,"ĠbSign":9020,"Ġbutton":9021,"Ġmother":9022,"utating":9023,"ClassCastException":9024,"TestInfo":9025,"toStandard":9026,"ĠClient":9027,"permutation":9028,"Ġ39":9029,"SqmCopyContext":9030,"javaType":9031,"argin":9032,"à®ª":9033,"7823":9034,"â´³":9035,"ĠbaseType":9036,"translator":9037,"translate":9038,"(?,":9039,"Identifiers":9040,"********":9041,"itespace":9042,"commended":9043,"Cycle":9044,"HEN":9045,"Padding":9046,"SN":9047,"dk":9048,"Ġicu":9049,"getContext":9050,"getExpressions":9051,"oring":9052,"storage":9053,"Ġdays":9054,"ForJavaType":9055,"FieldValue":9056,"ByPath":9057,"ĠnameCoder":9058,"SourceImpl":9059,"ParentEntity":9060,"fromSafeConstant":9061,"ĠSqmTreated":9062,"013":9063,"à¸´":9064,"Ġgeneric":9065,"789874":9066,"Ġreferences":9067,"Matches":9068,"áĬł":9069,"MutationOperation":9070,"Boxed":9071,"Relative":9072,"ĠresolvedTypes":9073,"Baseline":9074,"GATIVE":9075,"UnderTest":9076,"Triggered":9077,"cheduledCommand":9078,"requireNonNull":9079,"TransactionIsolator":9080,"12124789874":9081,"Lifecycle":9082,"ade":9083,"hand":9084,"Ð¤":9085,"ÑĪ":9086,"×ŀ":9087,"ĠðĲĲ":9088,"ĠStreamException":9089,"inated":9090,"alary":9091,"isPrimitive":9092,"another":9093,"arr":9094,"Inclusion":9095,"TypeIn":9096,"Ġpop":9097,"Ġflush":9098,"Ġfinish":9099,"setS":9100,"force":9101,"contribute":9102,"DateMidnight":9103,"createTemp":9104,"paren":9105,"ĠCo":9106,"atedType":9107,"ParameterType":9108,"WithCollection":9109,"FromCombined":9110,"Implements":9111,"checkExec":9112,"OnLocking":9113,"closure":9114,"Ġentries":9115,"ĠNUM":9116,"à½¡":9117,"ĠsqlSelection":9118,"StyleGenerator":9119,"2000":9120,"EditorDriver":9121,"DeleteStatement":9122,"txn":9123,"ĠfunctionName":9124,"CustomFieldSerializer":9125,"Ġcomponents":9126,"Contained":9127,"____":9128,"shouldGenerate":9129,"signature":9130,"Ġpkg":9131,"8298":9132,"BV":9133,"FJ":9134,"Grid":9135,"OTHER":9136,"Treat":9137,"ii":9138,"Ġqueue":9139,"etter":9140,"getTableName":9141,"edon":9142,"Parag":9143,"ĠtestFormat":9144,"Ġincoming":9145,"Ġjar":9146,"ElementException":9147,"legating":9148,"FunctionAs":9149,"Assumptions":9150,"ĠqueryEngine":9151,"ĠNaming":9152,"Ġsqls":9153,"LiteralContext":9154,"ĠDateTimeFormatter":9155,"ConverterDescriptor":9156,"ĠRel":9157,"lockOptions":9158,"Graphics":9159,"ĠentrySet":9160,"Ġreferencing":9161,"ĠorderBy":9162,"ĠSQLStatementInspector":9163,"Ġdetails":9164,"numberOf":9165,"145":9166,"029":9167,"ĠdomainParameterXref":9168,"PluralAttribute":9169,"mainder":9170,"DaysIn":9171,"NEGATIVE":9172,"yyyy":9173,"####":9174,"ĠformNames":9175,"JoinedSubclass":9176,"goodCode":9177,"namedDescriptorBuilder":9178,"decodeRequest":9179,"NavigableMap":9180,"Ġenhancement":9181,"NUMBER":9182,"ĠStatisticsImplementor":9183,"ĠMonthDay":9184,"ĠAfrika":9185,"ĠSelfRendering":9186,"EH":9187,"bn":9188,"fos":9189,"human":9190,"window":9191,"Ñį":9192,"ĠTr":9193,"getY":9194,"getContent":9195,"(\"_":9196,"Inject":9197,"istent":9198,"qualified":9199,"ĠHe":9200,"ModelExpressible":9201,"LoadEvent":9202,"IsSafeHtml":9203,"ĠVAR":9204,"Ġ106":9205,"ĠcollectionKey":9206,"àª¾":9207,"ATED":9208,"5678":9209,"jdbcValue":9210,"getRel":9211,"getPropertyName":9212,"ĠBasicValue":9213,"à§ĭ":9214,"OutputFile":9215,"OutputOption":9216,"aaaa":9217,"MetaModel":9218,"ManagedEntity":9219,"CompilationState":9220,"Ġqueries":9221,"MenuItem":9222,"getReferencedPathSource":9223,"SerializedSize":9224,"utabilityPlan":9225,";\").":9226,"HN":9227,"Syntax":9228,"]).":9229,"qcn":9230,"sle":9231,"ving":9232,"alance":9233,"getStatements":9234,"Ġtables":9235,"oles":9236,"Req":9237,"ObjectInputStream":9238,"ĠPRO":9239,"ĠButton":9240,"ĠDel":9241,"Ġmetamodel":9242,"Pop":9243,"getCustomer":9244,"ĠFiles":9245,"Subselect":9246,"REV":9247,"Asc":9248,"composite":9249,"104576":9250,"ĠdoBind":9251,"Ġitems":9252,"currentHashMap":9253,"à¨¨":9254,"Ġselector":9255,"DeleteCount":9256,"Ġleaf":9257,"fetchParent":9258,"98104576":9259,"SafeHtmlUtils":9260,"Ġretrieved":9261,"123456789":9262,"ĠsortOrder":9263,"students":9264,"ĠHierarchicalStreamWriter":9265,"Integral":9266,"ĠOptimizer":9267,"('.',":9268,"DELETE":9269,"'))":9270,"Bah":9271,"Bridge":9272,"DIS":9273,"HK":9274,"NU":9275,"Srid":9276,"Zoo":9277,"floor":9278,"ĠContract":9279,"alternativeContact":9280,"isreg":9281,"Ġ\"[":9282,"Ġseg":9283,"Ġscalar":9284,"elung":9285,"Progress":9286,"Ang":9287,"toCharArray":9288,"artin":9289,"ĠID":9290,"Submit":9291,"011":9292,"ĠOFF":9293,"JpaCriteriaQuery":9294,"descriptor":9295,"à·ĥ":9296,"QualifiedSourceName":9297,"canBe":9298,"SchemaName":9299,"getQuerySpec":9300,"getQueryEngine":9301,"Expectation":9302,"Ġtags":9303,"Polymorphic":9304,"Europa":9305,"ĠLinkedList":9306,"Breakdown":9307,"vmCreated":9308,"IPv":9309,"ondon":9310,"TRANSACTION":9311,"didChange":9312,"ublisher":9313,"delayTestFinishForRpc":9314,"121247898748298":9315,"981045763478":9316,"isregelung":9317,"'s":9318,"83":9319,"ACT":9320,"EU":9321,"Effective":9322,"MW":9323,"Sa":9324,"YT":9325,"focus":9326,"iField":9327,"tle":9328,"vi":9329,"ĠInterruptedException":9330,"InEmbeddable":9331,"seen":9332,"Representation":9333,"Ġinvocation":9334,"ĠPK":9335,"ĠPattern":9336,"ĠtheEntity":9337,"Implemented":9338,"SubGraph":9339,"coll":9340,"à½¨":9341,"Species":9342,"ĠJsExpression":9343,"151":9344,"MyEntity":9345,"obfus":9346,"managed":9347,"TopLevel":9348,"PrimaryTableReference":9349,"Ġencoding":9350,"RevisionsOfEntity":9351,"BasicTypeForJavaType":9352,"Ġclosed":9353,"Ġcontaining":9354,"ĠLevel":9355,"ampling":9356,"ĠBean":9357,"getSqlAstCreationState":9358,"98104576347813":9359,"HQL":9360,"Lik":9361,"NetworkInterface":9362,"PW":9363,"PLA":9364,"sun":9365,"tail":9366,"³¶":9367,"å³¶":9368,"onal":9369,"inate":9370,"env":9371,"isNullable":9372,"tricted":9373,"getEmbeddable":9374,"getLine":9375,"getMonths":9376,"Ġsend":9377,"Exits":9378,"Stub":9379,"setAttribute":9380,"Ġinject":9381,"Sex":9382,"createEntityManager":9383,"Ġjob":9384,"ventory":9385,"ĠCode":9386,"ERR":9387,"ReferenceBinding":9388,"HandlerRegistration":9389,"Ġatt":9390,"ĠNAME":9391,"âµį":9392,"InitializedObjects":9393,"ĠeventType":9394,"porary":9395,"SSAGE":9396,"à´¯":9397,"à´¾":9398,"à¨¸":9399,"567":9400,"AMETER":9401,"ipping":9402,"ĠPersistenceContext":9403,"USER":9404,"ĠUi":9405,"Ġteacher":9406,"SHOW":9407,"ĠSqlAstJoinType":9408,"MapsId":9409,"StoredProcedureParameter":9410,"Switch":9411,"tractionContext":9412,"getBootstrapContext":9413,"GENER":9414,"BZ":9415,"SJ":9416,"Send":9417,"paces":9418,"})":9419,"Ïĥ":9420,"ĠRevisionType":9421,"isOr":9422,"getMax":9423,"getParams":9424,"getQuotedName":9425,"ara":9426,"Included":9427,"Inlin":9428,"assertBuggy":9429,"Ġtd":9430,"setKey":9431,"acters":9432,"Ġbranch":9433,"ĠtestBasic":9434,"Unused":9435,"Ġwe":9436,"ĠBinary":9437,"Reflect":9438,"à¸µ":9439,"eventListener":9440,"ordered":9441,"aliases":9442,"143":9443,"ĠOrdering":9444,"AggregateFunction":9445,"DataPoints":9446,"ĠSafeStyles":9447,"SCRIPT":9448,"RPCTypeCheckFactory":9449,"ĠZoneOffset":9450,"ĠRPCTypeCheckFactory":9451,"Medium":9452,"Ġ]\\":9453,"getDeclaringClass":9454,"ĠOFFSET":9455,"QO":9456,"`\",":9457,"house":9458,"oa":9459,"ÑĨ":9460,"ĠForeignKey":9461,"isType":9462,"Ġ(_":9463,"StrongName":9464,"Ġ))":9465,"Ġtmp":9466,"Ġpw":9467,"Ġbig":9468,"ĠnullValue":9469,"ĠtestSimple":9470,"ĠtestMerge":9471,"ĠJA":9472,"ĠJAXB":9473,"Unload":9474,"Ġprovided":9475,"ĠentityGraph":9476,"existing":9477,"ĠCascade":9478,"RefEntity":9479,"ClauseType":9480,"à½Ģ":9481,"ĠsqlExpressionResolver":9482,"Ġserialized":9483,"streamWriter":9484,"tableReference":9485,"áŀļ":9486,"à²¯":9487,"ĠpersonId":9488,"Ġinterfaces":9489,"Ġprime":9490,"Ġprivate":9491,"ModuleDef":9492,"SequenceName":9493,"HasChild":9494,"ValuedMapping":9495,"getColumnSpan":9496,"ĠreferencedEntityName":9497,"MINUTE":9498,"BrowserChannel":9499,"Ġpopup":9500,"ĠpluralAttribute":9501,"794":9502,"DebugEnabled":9503,"ĠsqlAstCreationState":9504,"Ġnormaltid":9505,"MathContext":9506,"Ġlinker":9507,"integr":9508,"cumulator":9509,"ĠSqlAstNodeRenderingMode":9510,"COLLECTION":9511,"ĠFrame":9512,"assertNumberOfJoins":9513,"ĠversionsReader":9514,"ĠgetPhysicalAnnotation":9515,"AW":9516,"Cutover":9517,"Live":9518,"fe":9519,"}]\",":9520,"ĠERROR":9521,"isDebugEnabled":9522,"receive":9523,"Incubating":9524,"EnversService":9525,"ood":9526,"setP":9527,"Ġback":9528,"EntityDomainType":9529,"addIfNotNull":9530,"ĠtestUn":9531,"Ġthan":9532,"emon":9533,"Ġlayout":9534,"serialized":9535,"Ġprotected":9536,"Ġconn":9537,"ĠPRI":9538,"Nulls":9539,"Ġ}-*/":9540,"axId":9541,"ArgumentTypeResolver":9542,"nullable":9543,"ĠSqmPredicate":9544,"meta":9545,"LoadingState":9546,"à½±":9547,"Ð¸Ð»":9548,"áĢĽ":9549,"ĠCollectionHelper":9550,"Spatial":9551,"Modifier":9552,"virtual":9553,"RegionCodes":9554,"VEL":9555,"PackageName":9556,"Capability":9557,"Optimized":9558,"LastName":9559,"057":9560,"021":9561,"ĠEventType":9562,"SerializationStreamWriter":9563,"lands":9564,"Ordinalizer":9565,"ĠtreatAs":9566,"Ġupdated":9567,"Soyc":9568,"Organ":9569,"decimal":9570,"(!":9571,"RS":9572,"task":9573,"ĠIdentityHashMap":9574,"enversService":9575,"getDate":9576,"Ġsafe":9577,"retty":9578,"Recreate":9579,"Ġbit":9580,"Ġmc":9581,"Ġmutable":9582,"ours":9583,"ObjectOutputStream":9584,"forName":9585,"DateRange":9586,"ĠentityA":9587,"OrFormula":9588,"ĠCriteriaBuilder":9589,"Registrations":9590,"Ġdebug":9591,"MessageType":9592,"Substitution":9593,"Ġ4326":9594,"IntMax":9595,"owning":9596,"017":9597,"iki":9598,"Footer":9599,"SQLStatementInspector":9600,"ĠmetadataBuildingContext":9601,"Ġzero":9602,"ĠQueryParameter":9603,"insertable":9604,"035":9605,"Ġ\\\"\"":9606,"QUAL":9607,"ĠConfigurationHelper":9608,"TypeChecked":9609,"wasTriggered":9610,"Summary":9611,"ssrb":9612,"Ġindicators":9613,"Analyzer":9614,"JavaLangObject":9615,"CAPACITY":9616,"CTED":9617,"Criterion":9618,"Friendly":9619,"Sig":9620,"cancel":9621,"Ġàª":9622,"ene":9623,"isDirty":9624,"getYears":9625,"uring":9626,"rec":9627,"department":9628,"Ġtq":9629,"union":9630,"setVisibleRange":9631,"ĠSort":9632,"ĠsetType":9633,"OfCentury":9634,"ĠCan":9635,"Ġtool":9636,"Compatible":9637,"SqlStringGenerationContext":9638,"command":9639,"LEVEL":9640,"Substring":9641,"NativePreview":9642,"ĠparentId":9643,"Points":9644,"Ġsubsystem":9645,"CheckStyle":9646,"ĠcollectionBinding":9647,"BaseURL":9648,"Secondary":9649,"Ġgeneration":9650,"minimalRebuildCache":9651,"ðĲĲ¨":9652,"ĠParentEntity":9653,"ĠlocalName":9654,"originalDateTimeZone":9655,"getQueryOptions":9656,"emptyMap":9657,"ExpressibleJavaType":9658,"Ġvalidator":9659,"ĠIdentifierGenerator":9660,"chool":9661,"ĠTableGroupJoin":9662,"studentNumber":9663,"SafeStylesUtils":9664,"'\");":9665,"Correlation":9666,"DING":9667,"GJ":9668,"IMP":9669,"MAT":9670,"PRI":9671,"click":9672,"Ġact":9673,"Ġà°":9674,"getOther":9675,"getUsers":9676,"ableName":9677,"ĠScroll":9678,"export":9679,"Ġemployees":9680,"MESSAGE":9681,"OnAddHandler":9682,"à¦Ł":9683,"ĠjoinTable":9684,"áĥĿ":9685,"PeriodFormat":9686,"boss":9687,"áĬĴ":9688,"ConfigOptions":9689,"Ġmanies":9690,"ReadableInterval":9691,"84298":9692,"ClickHandler":9693,"ĠConfigurationService":9694,"7798104576347813":9695,"IllegalAccessException":9696,"ĠdefinedIn":9697,"ManagementTool":9698,"Surface":9699,"scroller":9700,"ĠSemanticException":9701,"12124789874829884298":9702,"'\\":9703,"=?":9704,"Holders":9705,"Mirror":9706,"datetime":9707,"uendInstant":9708,"åį":9709,"Ġà²":9710,"ĠÙħ":9711,"ĠOneToOne":9712,"ĠStrIntTestEntity":9713,"isInterface":9714,"getEntry":9715,"getLeft":9716,"getContainingTableExpression":9717,"(\"+":9718,"assertAll":9719,"puted":9720,"classLoader":9721,"ĠgetMappings":9722,"cos":9723,"FieldAdded":9724,"Ġwrit":9725,"ĠCast":9726,"AttributeOverride":9727,"CollectionUpdate":9728,"ZoneId":9729,"ResourceBase":9730,"OnDelete":9731,"ĠEntityEntry":9732,"Apply":9733,"CHANGE":9734,"getEntityMappingType":9735,"THEN":9736,"Ġdisassemble":9737,"MultiExpression":9738,"point":9739,"ĠdomainValue":9740,"Violations":9741,"SortedMap":9742,"ĠZoneId":9743,"ĠEntityManagerFactory":9744,"723":9745,"Center":9746,"Sant":9747,"cestor":9748,"li":9749,"since":9750,"uce":9751,"×ĺ":9752,"ÛĲ":9753,"isible":9754,"treat":9755,"getHeight":9756,"getOrigin":9757,"Ġnodes":9758,"recogn":9759,"Ġclean":9760,"Enclo":9761,"setHint":9762,"Ġmay":9763,"classForName":9764,"ClassNames":9765,"ĠgetWrapped":9766,"Ġdue":9767,"[]{\"":9768,"ĠaEntity":9769,"ĠClause":9770,"ĠPol":9771,"Nullability":9772,"ĠAuto":9773,"FetchStyle":9774,"AndFormulas":9775,"áĢ¯":9776,"mapKey":9777,"username":9778,"ĠJavaResourceBase":9779,"Endian":9780,"ĠfindMethod":9781,"PARAMETER":9782,"frame":9783,"CreationProcess":9784,"Splittable":9785,"DynamicInstantiation":9786,"VersionedNode":9787,"declared":9788,"Ġnormalize":9789,"CtClass":9790,"Dual":9791,"Lateral":9792,"London":9793,"Opcodes":9794,"Turk":9795,"Uid":9796,"oth":9797,"zz":9798,"Ġà¬":9799,"Ġà¨":9800,"getOperator":9801,"Ġfiles":9802,"agent":9803,"ĠgetServiceAsync":9804,"addImplicit":9805,"Ġopt":9806,"ĠSup":9807,"ĠSome":9808,"ĠtestNo":9809,"ĠtestRevision":9810,"FromLocal":9811,"ockroach":9812,"clock":9813,"ĠGE":9814,"Generators":9815,"áĥ£":9816,"ComponentProperty":9817,"Ġprev":9818,"maps":9819,"InsertStrategy":9820,"Executable":9821,"à®¯":9822,"Qualifiers":9823,"ĠsqmStatement":9824,"BarProxy":9825,"ĠparamType":9826,"Actions":9827,"ĠcriteriaExecutor":9828,"GeneratedMessage":9829,"ScrollPosition":9830,"Ġquantity":9831,"7890":9832,"ĠmanyToMany":9833,"JsniMethod":9834,"ĠsetCity":9835,"success":9836,"orrelationParent":9837,"Ġmultiple":9838,"rethrowException":9839,"84756794":9840,"vmCreatedSql":9841,"Dates":9842,"EV":9843,"FLO":9844,"Gesture":9845,"Hidden":9846,"iri":9847,"erialization":9848,"alk":9849,"alyz":9850,"getPerson":9851,"getLockMode":9852,"pection":9853,"Release":9854,"Concat":9855,"ĠgetValues":9856,"TestRunner":9857,"Ġ-=":9858,"ValueBinding":9859,"ĠsetB":9860,"Ġtrigger":9861,"Deserialize":9862,"Ġgot":9863,"longFromBits":9864,"Ġsubtrah":9865,"áĢ±":9866,"áŀĢ":9867,"áŀĦ":9868,"àº´":9869,"getJdbcTypeRegistry":9870,"ĠJdbcServices":9871,"CATION":9872,"Tags":9873,"ĠcacheMode":9874,"attributeName":9875,"Whitespace":9876,"Library":9877,"ArgumentsValidator":9878,"CompilerException":9879,"ĠrunAsync":9880,"ĠRootEntity":9881,"TypedNode":9882,"Converted":9883,"ĠDOMImpl":9884,"087798104576347813":9885,"soyc":9886,"Ctor":9887,"Ġrelational":9888,"Ġproblems":9889,"æĸ¯":9890,"65":9891,";\"":9892,"Destination":9893,"Gw":9894,"Ke":9895,"NR":9896,"WS":9897,"feature":9898,"joe":9899,"ose":9900,"ybase":9901,"{'":9902,"É¨":9903,"ÓĻ":9904,"ĠLob":9905,"isAbstract":9906,"getComp":9907,"getLogger":9908,"Ġsender":9909,"Recompile":9910,"qualify":9911,"Ġdummy":9912,"textui":9913,"Ġitr":9914,"RENT":9915,"ysicalName":9916,"ĠclassType":9917,"ĠLiteral":9918,"EnumMap":9919,"SecondaryTable":9920,"ĠbyteCount":9921,"JpaExpression":9922,"à¶ļ":9923,"HasChanged":9924,"instantiate":9925,"MutationTarget":9926,"ĠformatDateRange":9927,"pose":9928,"expressions":9929,"ĠbeanType":9930,"âµīâµı":9931,"getOffsetFromLocal":9932,"BYTES":9933,"TestServiceException":9934,"Ġboxed":9935,"Õ¡Õ¶":9936,"ĠConverterManager":9937,"InvariantType":9938,"<>()":9939,"AO":9940,"Bug":9941,"Rtl":9942,"Uk":9943,"ileg":9944,"Ê»":9945,"iss":9946,"getAttributes":9947,"getMutating":9948,"quences":9949,"Ġfm":9950,"addr":9951,"ĠSuper":9952,"ĠtestInstance":9953,"ortal":9954,"ĠentityMetamodel":9955,"irc":9956,"Ġchanged":9957,"ARD":9958,"BindableType":9959,"ailing":9960,"TIAL":9961,"Ġaddr":9962,"typeContributions":9963,"à¦¸":9964,"Continu":9965,"theDate":9966,"Ġinitialized":9967,"ĠSqlTuple":9968,"TIMEZONE":9969,"fileName":9970,"PARAM":9971,"BlockGuard":9972,"language":9973,"054":9974,"142":9975,"FailureExpected":9976,"ĠdomainModel":9977,"AAAEntity":9978,"capabilities":9979,"Ġmatches":9980,"Ġwidgets":9981,"ĠcustomType":9982,"ĠtagName":9983,"ExecutionOptions":9984,"animals":9985,"JOIN":9986,"Halfday":9987,"Emulation":9988,"JavaScriptException":9989,"ĠByteArrayInputStream":9990,"NoSuchMethodException":9991,"optimizerCtx":9992,"Likely":9993,"96":9994,"Fast":9995,"Fmt":9996,"HI":9997,"Hex":9998,"Kan":9999,"ORE":10000,"Semantics":10001,"TK":10002,"Too":10003,"high":10004,"kb":10005,"sn":10006,"ÐĴ":10007,"åĪ":10008,"Ġengine":10009,"getLogicalConnection":10010,"Ġsk":10011,"Ġsaved":10012,"related":10013,"Ġpad":10014,"setInvariantType":10015,"Ġoptional":10016,"Throws":10017,"Ġ25":10018,"usable":10019,"INSERT":10020,"ĠBlock":10021,"ĠpropertyType":10022,"ĠpropertyNames":10023,"Binders":10024,"Ġrule":10025,"ĠstrongName":10026,"ĠtableAlias":10027,"à¦ľ":10028,"SED":10029,"pair":10030,"ermination":10031,"áĥł":10032,"Ġdog":10033,"àºŃ":10034,"ĠtargetType":10035,"ĠComparator":10036,"DatabaseVersion":10037,"ĠcriteriaQuery":10038,"ĠMetadataImplementor":10039,"ÙĬÙĨ":10040,"originalLocale":10041,"SerializationPolicy":10042,"ĠconvertField":10043,"FINISH":10044,"POST":10045,"ÙīÙĬ":10046,"ĠSafeHtmlBuilder":10047,"MergedPatterns":10048,"HorizontalAlignment":10049,"getNonLazy":10050,"getRawType":10051,"pository":10052,"12124789874829884298087798104576347813":10053,"Az":10054,"AuxiliaryDatabaseObject":10055,"CLOB":10056,"Dimension":10057,"Hover":10058,"JVariable":10059,"Julian":10060,"OVER":10061,"ior":10062,"jprogram":10063,"lan":10064,"mask":10065,"rica":10066,"ĠPart":10067,"enabled":10068,"Ġ\"$":10069,"lice":10070,"teacher":10071,"Ġcreation":10072,"adi":10073,"quote":10074,"setUn":10075,"Ġbuggy":10076,"classType":10077,"ForRowNumbering":10078,"Ġ21":10079,"Ġ'_":10080,"ĠtableMapping":10081,"selector":10082,"getTypeOracle":10083,"LogLevel":10084,"ĠrootEntityDescriptor":10085,"sqlAst":10086,"HibernateCriteriaBuilder":10087,"à´¸":10088,"ÑģÐºÐ°":10089,"timeout":10090,"Ġphysical":10091,"Ġmatcher":10092,"Ġdirty":10093,"ĠDialectFeature":10094,"AddLogBranch":10095,"SecurityManager":10096,"conditions":10097,"override":10098,"ĠtemporalAccessor":10099,"ScopedBean":10100,"ASS":10101,"AIT":10102,"Virtual":10103,"_);":10104,"between":10105,"Ġ{};":10106,"getEditor":10107,"rough":10108,"Injection":10109,"Ġps":10110,"uncate":10111,"Provid":10112,"ToQuery":10113,"toPath":10114,"Ġjtd":10115,"achable":10116,"ByDefault":10117,"ĠCountry":10118,"acific":10119,"ufff":10120,"Press":10121,"Predicates":10122,"itions":10123,"TEN":10124,"Ġadditional":10125,"Ġ48":10126,"LockHint":10127,"ðĳĦ¬":10128,"à¸ģ":10129,"propertyHolder":10130,"ChangeListener":10131,"ĠInetAddress":10132,"srf":10133,"202":10134,"ĠrowId":10135,"ĠPersistenceUnit":10136,"2384":10137,"ictionary":10138,"ĠdomainResult":10139,"à¯ģ":10140,"áīµ":10141,"Updates":10142,"multiSelect":10143,"rolments":10144,"assembled":10145,"DependentBean":10146,"Recorder":10147,"unknownFields":10148,"lambdaInnerClass":10149,"ĠGregorianCalendar":10150,"ĠtenantIdentifier":10151,"Ġapplied":10152,"Î¯Î±":10153,"DENTI":10154,";}":10155,"JS":10156,"Mik":10157,"cue":10158,"culate":10159,"credit":10160,"ges":10161,"sia":10162,"ĠUN":10163,"ĠValidation":10164,"getFrom":10165,"inga":10166,"assertEvent":10167,"adapt":10168,"pring":10169,"ĠgetWidget":10170,"addTest":10171,"forRevisionsOfEntity":10172,"StateOrig":10173,"DataType":10174,"oneToOne":10175,"WithBidirectional":10176,"OneStateOrig":10177,"getCatalog":10178,"Ġ?>>":10179,"ĠFake":10180,"REG":10181,"\\\">":10182,"SizeAnd":10183,"ĠRuntime":10184,"Ġloading":10185,"Ġmappings":10186,"BeanInstance":10187,"InsertStatement":10188,"àª¸":10189,"theInt":10190,"ABC":10191,"columnNames":10192,"SIST":10193,"ĠÐļ":10194,"BinaryArithmetic":10195,"ĠJpaPredicate":10196,"Ġdetached":10197,"originalTimeZone":10198,"FOO":10199,"EEOneStateOrig":10200,"ExtensionContext":10201,"dlTransactionIsolator":10202,"ãĤ¢":10203,"Obfus":10204,"ĠrelAnno":10205,"Ġhours":10206,"Ġcommands":10207,"dstMap":10208,"TenantIdentifier":10209,"ĠAggregate":10210,"Buddy":10211,"ivially":10212,"isOrHasChild":10213,"Ġ}-*/;\",":10214,"ĠmaniesEEOneStateOrig":10215,"84756794987":10216,"SizeAndContent":10217,"DT":10218,"Purchase":10219,"QQ":10220,"TG":10221,"UG":10222,"cp":10223,"like":10224,"more":10225,"poll":10226,"atings":10227,"getSize":10228,"utuna":10229,"ĠgetSource":10230,"addRoot":10231,"Ġreset":10232,"Forward":10233,"Ġconcrete":10234,"extra":10235,"appendLiteral":10236,"ĠDATE":10237,"JsOverlay":10238,"Ġred":10239,"RefCursor":10240,"doWork":10241,"ĠonModuleLoad":10242,"containsValue":10243,"à®¾\");":10244,"Ġlockable":10245,"FIER":10246,"Ġlocales":10247,"CteCriteria":10248,"NEW":10249,"ĠtransactionManager":10250,"LinkedList":10251,"ĠnaturalIdMapping":10252,"ComparisonOperator":10253,"RuntimeModelCreationContext":10254,"ĠsupplementalInfo":10255,"ĠcompareTo":10256,"ĠDialectFeatureChecks":10257,"Correlated":10258,"Fact":10259,"RUN":10260,"Scan":10261,"UUID":10262,"pad":10263,"pager":10264,"ĠIndex":10265,"ĠCheck":10266,"getAccess":10267,"getSettings":10268,"icip":10269,"urity":10270,"rebind":10271,"Ġfun":10272,"setOwner":10273,"setVisible":10274,"Provided":10275,"ĠgetFactory":10276,"ĠgetThis":10277,"addResource":10278,"Idx":10279,"Ġdatetime":10280,"ĠvalueConverter":10281,"ĠJReferenceType":10282,"ParameterValue":10283,"ecurity":10284,"Ġexternal":10285,"Locked":10286,"VisitController":10287,"prepareStatement":10288,"ĠparentAccess":10289,"AndGet":10290,"ĠsubQuery":10291,"Ġ64":10292,"tableExpression":10293,"Dirtiness":10294,"formatter":10295,"Ġordered":10296,"ĠIncompatibleRemoteServiceException":10297,"ĠService":10298,"columnDefinition":10299,"ĠAny":10300,"ĠELSE":10301,"ĠparamTypes":10302,"ADD":10303,"RegionFactory":10304,"ÃŃn":10305,"Amerika":10306,"AggregateColumn":10307,"061":10308,"Doe":10309,"ajor":10310,"âĢĮ":10311,"MultipleCollection":10312,"FetchClauseType":10313,"Ġplus":10314,"2017":10315,"newlineOpt":10316,"å°¼":10317,"!\"":10318,"'>":10319,"({\"":10320,"Austr":10321,"HANA":10322,"Radio":10323,"Sc":10324,"ska":10325,"Î¼":10326,"Ġactive":10327,"ineno":10328,"Ġ=>":10329,"()\",":10330,"getJoinedGroup":10331,"relation":10332,"olom":10333,"unicode":10334,"setScale":10335,"EntityJoin":10336,"Ġds":10337,"Ġdig":10338,"Ġstmt":10339,"TableGenerator":10340,"ĠisNotEmpty":10341,"Ġwarn":10342,"DataRegion":10343,"ĉĉĉĉĉ":10344,")),":10345,"queryEngine":10346,"JsProgram":10347,"moveUp":10348,"DEP":10349,"MetadataBuilder":10350,"ĠEntityKey":10351,"ĠclassDescriptor":10352,"ĠsqlType":10353,"ĠfetchTiming":10354,"../":10355,"ĠWEEK":10356,"tableName":10357,"copyTo":10358,"getKeyboardSelectedRow":10359,"ĠoneToMany":10360,"Ġrefresh":10361,"QUO":10362,"weekOfWeekyear":10363,"getCollectionDescriptor":10364,"Ġdbexpected":10365,"Placeholder":10366,"Ġ'\\''":10367,"Multimap":10368,"andidates":10369,"äºļ":10370,"Written":10371,"Media":10372,"ĠSelectionQuery":10373,"Enumerated":10374,"FractionDigits":10375,"ĠgetForUpdateString":10376,"FEMALE":10377,"DelimitedFrom":10378,"ileged":10379,"LikelyRegionCodes":10380,"San":10381,"Total":10382,"ning":10383,"Ñĩ":10384,"×ĵ":10385,"Ġavailable":10386,"alia":10387,"isClosed":10388,"trl":10389,"getLong":10390,"getFields":10391,"annotated":10392,"Ġtwo":10393,"Ġbld":10394,"Ġbetween":10395,"EntityA":10396,"Ġmiddle":10397,"Prox":10398,"ĠtestDefault":10399,"Chrono":10400,"Ġintern":10401,"Ġconcat":10402,"Serialize":10403,"ChildEntity":10404,"GroupBuilder":10405,"moveDown":10406,"Ġforeign":10407,"ĠcolumnAlias":10408,"ĠSqmLiteral":10409,"ĠDateTimeField":10410,"à®Ł":10411,"Ġtransient":10412,"InterfaceType":10413,"ShortText":10414,"ÙĦØ§":10415,"ĠMappingMetamodel":10416,"Ġinsertable":10417,"ĠCollectionsTestServiceException":10418,"IndexedListJoinColumnBidirectionalRefEdEntity":10419,"Clone":10420,"ResolutionInfo":10421,"details":10422,"Inherited":10423,"ĠSelectStatement":10424,"ĠSTATE":10425,"enableFilter":10426,"Underlying":10427,"OwningEntity":10428,"ElementBuilderBase":10429,"normalize":10430,"getFromClauseAccess":10431,"ApplicationScopedBean":10432,"à¦¼à¦¾\");":10433,"ĠSortedSet":10434,"BQ":10435,"Bul":10436,"Card":10437,"MAR":10438,"Sensitive":10439,"TUR":10440,"lib":10441,"pol":10442,"sa":10443,"tb":10444,"tt":10445,"¦¬":10446,"Ù¹":10447,"isScript":10448,"isAfter":10449,"getStudent":10450,"peating":10451,"Street":10452,"TypeMap":10453,"verage":10454,"actly":10455,"ĠgetJdbcType":10456,"addS":10457,"ĠStringReader":10458,"props":10459,"OrInterface":10460,"ĠPerm":10461,"clob":10462,"Ġcompiler":10463,"Play":10464,"ĠtargetEntity":10465,"EmbeddableMappingType":10466,"FirstWeek":10467,"CriteriaParameter":10468,"saveOrUpdate":10469,"Ġ128":10470,"ĠPropertyPermission":10471,"versable":10472,"Accept":10473,"Ġbinder":10474,"ProcedureParameter":10475,"Marker":10476,"generateSqmExpression":10477,"UniqueConstraint":10478,"ĠLinker":10479,"ĠForeignCustomer":10480,"Accounts":10481,"GeomFromText":10482,"Background":10483,"getLocalName":10484,"Ġtokens":10485,"LinkedHashSet":10486,"FromClauseAccess":10487,"Ġignored":10488,"nae":10489,"ĠmergeFrom":10490,"resolvedType":10491,"ToEntityNameMap":10492,"ĠincrementSize":10493,"à½¼à¼ĭ":10494,"ĠDatabaseVersion":10495,"getExplicitAlias":10496,"WKT":10497,"ialogBox":10498,"WithBidirectionalManyToMany":10499,"Correct":10500,"EQUAL":10501,"Mother":10502,"Slo":10503,"bottom":10504,"blah":10505,"criteriaBuilder":10506,"¥¿":10507,"è¥¿":10508,"êĺ":10509,"ĠÃ":10510,"ĠRow":10511,"ino":10512,"inam":10513,"getMinimumValue":10514,"ores":10515,"pulate":10516,"edMessage":10517,"(\"(":10518,"Ġbsr":10519,"ObjectName":10520,"TimeZones":10521,"serialization":10522,"Ġprod":10523,"SqlExpression":10524,"ailAddresses":10525,"findEntityDescriptor":10526,"compilerContext":10527,"Fetched":10528,"ĠNev":10529,"ĠjdbcCoordinator":10530,"ðĳĦ³":10531,"àºģ":10532,"à®¤":10533,"à°²":10534,"Variations":10535,"SuperClass":10536,"ĠEMPTY":10537,"Timestamps":10538,"053":10539,"getParentElement":10540,"ValuedSimplePath":10541,"Windows":10542,"capabilityExchange":10543,"IGHT":10544,"ACTIVE":10545,"CHARS":10546,"OwnedEntity":10547,"localeData":10548,"ReturnTypeResolver":10549,"Ġusage":10550,"IncrementSize":10551,"ĠDomesticCustomer":10552,"PrinterParser":10553,"LinkerContext":10554,"StrictJpaCompliance":10555,"2011":10556,"Ġevt":10557,"Ġhello":10558,"~~~~~~~~":10559,"enclosingType":10560,"BootDescriptor":10561,"firmed":10562,"EventSinkOnAddHandler":10563,"Bos":10564,"JConstructor":10565,"KI":10566,"OK":10567,"cert":10568,"clause":10569,"Äį":10570,"ĠFormat":10571,"Ġ],":10572,"isTrace":10573,"isNegated":10574,"getStatement":10575,"getLiteral":10576,"getPosition":10577,"Ġ\"\\\\":10578,"Ġsave":10579,"Ġ(;":10580,"(\"\\\"":10581,"setAddress":10582,"setLength":10583,"Ġbid":10584,"ClassNotFoundException":10585,"Loc":10586,"Ġdirection":10587,"Arab":10588,"Ġsetup":10589,"ĠsetVersion":10590,"ĠDerby":10591,"getCell":10592,"Updateable":10593,"TreeSet":10594,"Ġalign":10595,"ĠLine":10596,"BasicValue":10597,"buildingContext":10598,"ĠVoid":10599,"single":10600,"à°ķ":10601,"Editing":10602,"theDouble":10603,"ĠJdbcParameter":10604,"Ġusername":10605,"ĠprocessingState":10606,"àŃĩ":10607,"ĠhqlExecutor":10608,"Ġmonths":10609,"ĠAssociation":10610,"LanguageTag":10611,"caughtException":10612,"Ø¬Ø²":10613,"Integrator":10614,"constructor":10615,"ĠdeclaringClass":10616,"sleep":10617,"isTraceEnabled":10618,"):":10619,"71":10620,"Push":10621,"cOrig":10622,"eer":10623,"page":10624,"rtn":10625,"Î¬":10626,"Øº":10627,"ìķ":10628,"ĠOffset":10629,"ĠProcedureCall":10630,"inc":10631,"getRevision":10632,"getUnknownFields":10633,"Ġ(%":10634,"Ġtup":10635,"setter":10636,"setHeight":10637,"ĠgetParent":10638,"Ġdi":10639,"ĠtestRe":10640,"plain":10641,"ĠsetS":10642,"Ġaffect":10643,"Ġ28":10644,"ĠMI":10645,"queryPart":10646,"TreeWalker":10647,"oundingMode":10648,"getScroll":10649,"ORITY":10650,"subMap":10651,"copyAttribute":10652,"à¬¸":10653,"àª¯":10654,"àª²":10655,"getNum":10656,"áĬ«":10657,"7678":10658,"Acme":10659,"Ġaddresses":10660,"Ð²Ðµ":10661,"ĠpersistentField":10662,"à¯į\");":10663,"Ġrenderer":10664,"Orders":10665,"UnknownFieldSet":10666,"Exports":10667,"MenuBar":10668,"isInstanceOf":10669,"ÑģÑĤÐ°Ð½":10670,"SubQueryPredicate":10671,"ĠsortedSet":10672,"COMMIT":10673,"Ġ\"_\"":10674,"parsedMessage":10675,"ĠeeOne":10676,"CodedInputStream":10677,"FieldAccessorTable":10678,"relevantEntity":10679,"ĠOrderingParser":10680,"Continuation":10681,"1212478987482988429808779810457634781384756794987":10682,"JPrimitiveType":10683,"MajorVersion":10684,"hide":10685,"mer":10686,"nickName":10687,"ĠInstance":10688,"ĠConstants":10689,"ĠManyToMany":10690,"onical":10691,"allocate":10692,"(\");":10693,"Ġcat":10694,"assertDeleteCount":10695,"omit":10696,"NameCoder":10697,"setInt":10698,"QueryMemento":10699,"Ġparty":10700,"EventBus":10701,"Initiator":10702,"getCopy":10703,"findMethod":10704,"ROLL":10705,"Visited":10706,"ĠNANO":10707,"ĠsqlException":10708,"AuditStrategy":10709,"AndReset":10710,"removeAll":10711,"ĠindexOf":10712,"ĠsuperType":10713,"pensive":10714,"ĠloadLikelyRegionCodes":10715,"Starting":10716,"criminated":10717,"replacement":10718,"HourOfDay":10719,"HandExpression":10720,"CompositeId":10721,"MutablePeriod":10722,"moduleDef":10723,"MouseDownEvent":10724,"à¹Į":10725,"LanguageParser":10726,"ÐµÐ½ÑĤ":10727,"getJdbcTypeCount":10728,"Ġmarshal":10729,"ĠGeomTest":10730,"COMMA":10731,"SRID":10732,"ĠTobag":10733,"KnownDir":10734,"emoized":10735,"Ilhas":10736,"ĠTypedArrays":10737,"Linux":10738,"DaysInFirstWeek":10739,"EAR":10740,"Follow":10741,"JTA":10742,"JGenericType":10743,"RP":10744,"VU":10745,"jakarta":10746,"rpc":10747,"ĠArtifactSet":10748,"eto":10749,"ati":10750,"aln":10751,"isAttached":10752,"getInstant":10753,"getExpr":10754,"getOriginal":10755,"ittle":10756,"assertConstraintValidator":10757,"ifo":10758,"chronology":10759,"chunk":10760,"ĠtestNull":10761,"emulate":10762,"Deferred":10763,"OfHalfday":10764,"ĠJUnit":10765,"Ġjjs":10766,"ĠentityMapping":10767,"ĠBuffer":10768,"ĠTR":10769,"encoding":10770,"checkReadOnly":10771,"ĠFutuna":10772,"++);":10773,"Fetches":10774,"SqmPredicate":10775,"LockTimeout":10776,"ĠUnknown":10777,"aziness":10778,"Supert":10779,"à®®":10780,"à°¸":10781,"Ġminutes":10782,"ReadOnlyObjects":10783,"ĠAnnotationDescriptor":10784,"JTypeParameter":10785,"ĠFetchTiming":10786,"âĢĵ":10787,"finishTestAndReset":10788,"Ġassignments":10789,"Ġsteve":10790,"ĠSocketException":10791,"Ġ/*-{\",":10792,"ReflectHelper":10793,")\").":10794,",_":10795,"Pacific":10796,"TV":10797,"[[],":10798,"files":10799,"sers":10800,"×¡":10801,"isi":10802,"isPresent":10803,"getID":10804,"getAttributeMapping":10805,"getOp":10806,"getInternalName":10807,"itude":10808,"arrow":10809,"Ġcs":10810,"Ġcoin":10811,"estimate":10812,"setH":10813,"ĠgetSessionFactory":10814,"QueryParam":10815,"Department":10816,"Unserializable":10817,"Ġjprogram":10818,"ither":10819,"ĠresultClass":10820,"Regex":10821,"à¤¹":10822,"ĠtoOne":10823,"ĠcreateReader":10824,"ParserException":10825,"Ġadded":10826,"MEDI":10827,"ĠqueryName":10828,"AsSafeHtml":10829,"CacheEntry":10830,"LoadAccess":10831,"readInt":10832,"renad":10833,"ĠonBrowserEvent":10834,"amped":10835,"registerCopy":10836,"registerStoredProcedureParameter":10837,"ĠcollectionType":10838,"otherEntity":10839,"ParamTestClass":10840,"à²ķ":10841,"SafeSet":10842,"ĠparameterType":10843,"sessionFactoryScope":10844,"getNavigableRole":10845,"TupleQuery":10846,"ÑģÐº":10847,"heel":10848,"getSqlExpressionResolver":10849,"transfer":10850,"ÑĥÐ´":10851,"Addition":10852,"ModifiedFlag":10853,"SelectableMapping":10854,"KeysFactory":10855,"WrapWith":10856,"Ġyears":10857,"ĠJMethodCall":10858,"Ġrequires":10859,"SelfRendering":10860,"domainParameterXref":10861,"RpcToken":10862,"subject":10863,"ĠXmlFriendly":10864,"Ġenclosing":10865,"ĠSelectableMapping":10866,"Ceiling":10867,"Ġcreator":10868,"AndFormulasSource":10869,"/>\");":10870,"Aware":10871,"EZ":10872,"must":10873,"zero":10874,"Ãª":10875,"Ä±":10876,"ÛĨ":10877,"ĠNot":10878,"alone":10879,"getManies":10880,"MapJoin":10881,"sec":10882,"Exporter":10883,"Ġmo":10884,"Ġmissing":10885,"ĠsetTitle":10886,"Ġidentity":10887,"ByClause":10888,"acklist":10889,"Serial":10890,"ĠPlace":10891,"perform":10892,"ignature":10893,"Alter":10894,"ĠdeepCopy":10895,"Comments":10896,"ĠexpectedType":10897,"Subtype":10898,"\\\"/>\\":10899,"Ġenv":10900,"AndClear":10901,"OperationGroup":10902,"lockMode":10903,"BeanRegistry":10904,"áŀ¼":10905,"ParamTypes":10906,"à¬ķ":10907,"getResultSet":10908,"NODE":10909,"Ġwhich":10910,"Ø³ÙĪ":10911,"ScrollableResults":10912,"Timer":10913,"icket":10914,"DiscriminatorValue":10915,"ClassLoaderService":10916,"ðĲĳĬ":10917,"Ð°ÑĢÑĭ":10918,"getDifference":10919,"StorageAccess":10920,"Ġtxn":10921,"ĠbatchSize":10922,"InitializationException":10923,"Membership":10924,"binarySearch":10925,"KYO":10926,"WildcardType":10927,"JtaPlatformImpl":10928,"ĠGwtLocale":10929,"idiUtils":10930,"ĠModuleDef":10931,"IdentityColumnSupport":10932,"WrapWithKnownDir":10933,"Fd":10934,"FUNCTION":10935,"Jam":10936,"Wheel":10937,"gender":10938,"ipe":10939,"kw":10940,"Ð¨":10941,"ism":10942,"getRef":10943,"Ġcmd":10944,"ints":10945,"Ġdto":10946,"ĠtestFor":10947,"Collation":10948,"prod":10949,"ather":10950,"TransactionManager":10951,"AnEntity":10952,"tool":10953,"TableSection":10954,"newHashSet":10955,"achers":10956,"ĠCat":10957,"ĠCLOSE":10958,"Nullness":10959,"à¤«":10960,"nameTo":10961,"dateTime":10962,"ĠtoType":10963,"SqlType":10964,"ReferenceData":10965,"Ġrtn":10966,"compiled":10967,"SelectionProperty":10968,"Ġshared":10969,"COUNT":10970,"Ġ999":10971,"ĠJdbcOperation":10972,"Ð°Ð·":10973,"Ġassumption":10974,"ResultsMetadata":10975,"ĠÐľ":10976,"CAPE":10977,"poch":10978,"divide":10979,"ãĥ³":10980,"ĠstyleName":10981,"getCurrentClauseStack":10982,"Clamped":10983,"ĠConvert":10984,"ĠEmbeddableMappingType":10985,"OPTI":10986,"ĠpluralForms":10987,"Ð¼ÐµÑĢ":10988,"ĠBytecode":10989,"OrderByClause":10990,"ĠJSONException":10991,"Ġsfb":10992,"ĠgetQueryOptions":10993,"NUMERIC":10994,"Preparer":10995,"ĠgetWrappedField":10996,"ĠMILLIS":10997,"Fin":10998,"Ljava":10999,"RestartWebServer":11000,"Vat":11001,"WORD":11002,"YPE":11003,"ze":11004,"Ðł":11005,"ĠGenerator":11006,"ĠStylesBuilder":11007,"alysis":11008,"ases":11009,"getA":11010,"getDocument":11011,"getShort":11012,"getVisible":11013,"Repository":11014,"setNumber":11015,"Ġbu":11016,"ĠgetIndex":11017,"Ġdc":11018,"ToAny":11019,"fering":11020,"Three":11021,"Unwrap":11022,"parts":11023,"INCT":11024,"AttributeJoin":11025,"Ġtheir":11026,"ĠTYPE":11027,"ocused":11028,"Generics":11029,"FromEntity":11030,"inea":11031,"Subtypes":11032,"DefaultValue":11033,"orea":11034,"ĠkeyProvider":11035,"fieldType":11036,"Special":11037,"BindingProperty":11038,"NoProxy":11039,"ReturnableType":11040,"áŀĵ":11041,"à°¾\");":11042,"ĠOP":11043,"Ġparameterized":11044,"orderColumns":11045,"Ð°Ð²":11046,"ImageResource":11047,"ĠPropertyData":11048,"joined":11049,"AsyncCallback":11050,"FACTOR":11051,"renderer":11052,"ickup":11053,"ĠactionList":11054,"flict":11055,"ĠlineNumber":11056,"Escap":11057,"connectLog":11058,"Ġvarchar":11059,"Ú¯ÙĪ":11060,"ĠoptimizerCtx":11061,"Pairs":11062,"ĠgwtSetUp":11063,"addAttributeNodes":11064,"APP":11065,"persistentClass":11066,"MATERI":11067,"ortalLogger":11068,"._":11069,"Hide":11070,"SOR":11071,"SUB":11072,"df":11073,"lb":11074,"Ġ];":11075,"ĠToOneAttributeMapping":11076,"inid":11077,"ased":11078,"()]);":11079,"getOracle":11080,"getTab":11081,"Ġclob":11082,"TypeVariable":11083,"stable":11084,"Ġfont":11085,"Ġfqcn":11086,"ĠgetPre":11087,"ĠgetEntityName":11088,"Ġdistance":11089,"entityPersister":11090,"ToMap":11091,"procedure":11092,"createTupleQuery":11093,"ElementCollection":11094,"STAT":11095,"FromCompiler":11096,"ĠEntityType":11097,"JavaTypeClass":11098,"Ġobjects":11099,"ReadExpression":11100,"SimpleBarProxy":11101,"cause":11102,"Connections":11103,"methods":11104,"currentThread":11105,"ĠlongVal":11106,"â´¼":11107,"disable":11108,"Ġcallable":11109,"ValidatorFactory":11110,"ÑĥÐ±":11111,"aterThan":11112,"hourOfHalfday":11113,"à±į\");":11114,"flat":11115,"Ġencode":11116,"áŁī":11117,"Backref":11118,"Relational":11119,"Ġregistered":11120,"ĠmanagedCtClass":11121,"ĠIntStream":11122,"ĠaggregateColumn":11123,"Ġqualifier":11124,"ConversionInfo":11125,"ĠVALUES":11126,"DateFormatSymbols":11127,"à¸²à¸":11128,"IncrementalRecompile":11129,"sfb":11130,"SPAM":11131,"CrossJoin":11132,"oserFactory":11133,"But":11134,"Fab":11135,"Kongo":11136,"bab":11137,"efined":11138,"×¤":11139,"Ġent":11140,"isRoot":11141,"getState":11142,"getPersister":11143,"getVisibleRange":11144,"getDomainModel":11145,"getEras":11146,"getPrimaryTableReference":11147,"roken":11148,"Ġso":11149,"IncompatibleRemoteServiceException":11150,"setCacheable":11151,"ValueChange":11152,"ĠsetText":11153,"uba":11154,"Ġrect":11155,"Ġcontributor":11156,"ĠPER":11157,"NullString":11158,"Emulate":11159,"shift":11160,"ĠcreateData":11161,"LEN":11162,"ĠEntityDomainType":11163,"TextHelper":11164,"items":11165,"EnumSet":11166,"CaseSearchedExpression":11167,"à²¾\");":11168,"Ġstatements":11169,"àªķ":11170,"àª¾\");":11171,"HibernateProxy":11172,"à´±":11173,"RevisionEntity":11174,"FragmentId":11175,"à·Ķ":11176,"ĠSessionImplementor":11177,"irectionalTextHelper":11178,"MOUSE":11179,"Marshal":11180,"1972":11181,"ĠstreamWriter":11182,"UMN":11183,"simpleFooRequest":11184,"ĠZONE":11185,"uggestion":11186,"Escaped":11187,"PersistentAttributeInterceptable":11188,"rolment":11189,"ĠcatalogName":11190,"ichTextArea":11191,"SingularAttribute":11192,"Antig":11193,"selectableMapping":11194,"Ġrestrictions":11195,"traverseRelation":11196,"PATTERN":11197,"vancedEntity":11198,"getFullPath":11199,"sumedEvents":11200,"DatagramChannel":11201,"<?,?>":11202,"Border":11203,"Ear":11204,"Laziness":11205,"SX":11206,"UAL":11207,"WHERE":11208,"×ĳ":11209,"getMonth":11210,"getItems":11211,"getTitle":11212,"ark":11213,"Ġ\"`":11214,"uel":11215,"InetSocketAddress":11216,"Exclude":11217,"ĠpCheck":11218,"ĠSybase":11219,"ĠStringWriter":11220,"StatelessSession":11221,"ĠJan":11222,"SessionServices":11223,"irth":11224,"PathName":11225,"STORE":11226,"JsOutputOption":11227,"Namespaces":11228,"ArgumentContext":11229,"ĠqueryForProperty":11230,"DES":11231,"failure":11232,"Selectables":11233,"ROUP":11234,"Ð¸ÑĢ":11235,"TargetType":11236,"ĠfetchBuilder":11237,"Minus":11238,"ServiceRegistryImplementor":11239,"à²¸":11240,"ĠInheritance":11241,"ideo":11242,"Determination":11243,"SequenceGenerator":11244,"Ġinstantiation":11245,"Blocking":11246,"áĬĵ":11247,"ĠcacheRegion":11248,"Capable":11249,"Ġminus":11250,"ĠEntityOfLists":11251,"Domin":11252,"PROP":11253,"âĢĭ":11254,"ĠPluralAttribute":11255,"ĠstrategySelector":11256,"Built":11257,"FkOptimization":11258,"ĠjsniMethod":11259,"CLU":11260,"ĠSELECT":11261,"Step":11262,"publisher":11263,"à½ºà¼ĭ":11264,"ĠHelper":11265,"setMaxResults":11266,"Launch":11267,"ALIZED":11268,"ĠJAKARTA":11269,"DENTIFIER":11270,"êĺĭ":11271,"ĠLineItem":11272,"ĠTobago":11273,"JUnit":11274,"Random":11275,"lon":11276,"merged":11277,"pack":11278,"sym":11279,"writ":11280,"Ðŀ":11281,"ĠStrategy":11282,"Ġknown":11283,"leaf":11284,"InQuery":11285,"ooled":11286,"ibut":11287,"ĠgetFilter":11288,"ĠtestEmpty":11289,"QueryOptions":11290,"android":11291,"BuilderTest":11292,"Ġ2000":11293,"ĠBad":11294,"à¤ĩ":11295,"ddhist":11296,"illi":11297,"Addr":11298,"Ġseen":11299,"printStackTrace":11300,"AsLong":11301,"à¦¤":11302,"closed":11303,"ĠcolumnTypeName":11304,"CESS":11305,"getSort":11306,"ĠattributeMappings":11307,"áĪĭ":11308,"Ġaccum":11309,"HasBar":11310,"ĠsecondaryTable":11311,"TOKYO":11312,"frica":11313,"ParameterizedQualifiedSourceName":11314,"BASE":11315,"Mismatch":11316,"ConnectionProviderImpl":11317,"JsoImpl":11318,"ĠbootDescriptor":11319,"ToEntityAttribute":11320,"intoString":11321,"Packet":11322,"ç¾¤":11323,"Delayed":11324,"voice":11325,"Ġviolations":11326,"STATUS":11327,".%":11328,"57":11329,"58":11330,"509":11331,"Distance":11332,"ILD":11333,"SAX":11334,"Was":11335,"spring":11336,"yg":11337,"{@":11338,"ĠLog":11339,"ĠResponse":11340,"asWidget":11341,"getG":11342,"Ġsynchronization":11343,"essThan":11344,"Ġcurr":11345,"Ġtid":11346,"setWidth":11347,"Ġbool":11348,"Ġda":11349,"ObjectException":11350,"DatePicker":11351,"project":11352,"Answ":11353,"toDateTime":11354,"ArrayOf":11355,"newBuilder":11356,"Ġword":11357,"ĠwrapperOptions":11358,"à¤¦":11359,"querySpec":11360,"JdbcConnectionAccess":11361,"AnnotationDescriptor":11362,"SqmSelectStatement":11363,"ĠGender":11364,"Readers":11365,"áĢĻ":11366,"ĠrootTableGroup":11367,"ðĳĦ®":11368,"Returning":11369,"devMode":11370,"writeInt":11371,"javac":11372,"interfaces":11373,"ĠparameterName":11374,"Tokens":11375,"ĠcheckSerialization":11376,"ĠarrayType":11377,"getElementType":11378,"MemberType":11379,"WorkDir":11380,"Ġuuid":11381,"Imports":11382,"ivery":11383,"FINEST":11384,"HostedMode":11385,"ĠjpaMetamodel":11386,"ĠSECOND":11387,"Ġdefine":11388,"PropertyValueException":11389,"ĠOracleDialect":11390,"www":11391,"à½´à¼ĭ":11392,"SerializableTypeOracleBuilder":11393,"ĠBlockScope":11394,"43":11395,"FFIX":11396,"JSO":11397,"Pag":11398,"Sv":11399,"]))":11400,"curr":11401,"half":11402,"iChronology":11403,"ku":11404,"nodes":11405,"nano":11406,"ven":11407,"ĠContainer":11408,"ĠIndexed":11409,"ĠOffsetDateTime":11410,"ĠStackTraceElement":11411,"getMap":11412,"getNumber":11413,"getDuration":11414,"getKind":11415,"thers":11416,"rea":11417,"unexpected":11418,"erscore":11419,"addProperty":11420,"ĠSpeedTracerLogger":11421,"TestCase":11422,"QueryWalker":11423,"Undefined":11424,"Ġlob":11425,"ĠBuild":11426,"à¤£":11427,"Ġdepth":11428,"ArgFunctionAs":11429,"OnError":11430,"CacheMissCount":11431,"ĠNor":11432,"linker":11433,"Ġsuperclass":11434,"ðĳĦ§":11435,"ComponentType":11436,"Contracts":11437,"ĠcollectionPersister":11438,"BigLong":11439,"ĠLongStream":11440,"áĪį":11441,"ðĲĲ¼":11442,"ConstraintDescriptor":11443,"Ð°Ðº":11444,"Modification":11445,"ValidatorFor":11446,"ĠQueryLiteral":11447,"áĭŃ":11448,"Collectors":11449,"ĠidentifierGenerator":11450,"CompositeType":11451,"áİł":11452,"Updatable":11453,"ImmutableType":11454,"====":11455,"DirectionEstimator":11456,"varchar":11457,"InstantiationException":11458,"Perform":11459,"ĠIterable":11460,"bindingProperty":11461,"copyOfRange":11462,"ĠceManies":11463,"getHuman":11464,"SUFFIX":11465,"Ġ3660":11466,"entral":11467,"runtimeModelCreationContext":11468,"ĠCompilationUnit":11469,"NotSupportedException":11470,"áĢŃáĢ¯":11471,"OccurrenceInQuery":11472,"SurfaceData":11473,"ìķĦ":11474,"63":11475,":\"":11476,"BIT":11477,"Dummy":11478,"Small":11479,"Ur":11480,"cr":11481,"global":11482,"nt":11483,"Ûģ":11484,"ĠEmbedded":11485,"alCode":11486,"getRegion":11487,"getOutput":11488,"getBaseType":11489,"Ġ\"?":11490,"tho":11491,"stmt":11492,"ĠtestInsert":11493,"ĠtestAssert":11494,"employees":11495,"ValueParameter":11496,"ĠsetFirst":11497,"toSource":11498,"Ġip":11499,"ByKey":11500,"MethodCall":11501,"Ġhand":11502,"ĠHql":11503,"percent":11504,"SourceFile":11505,"extended":11506,"shake":11507,"aryTables":11508,"Ġgrand":11509,"REE":11510,"findSubPart":11511,"lower":11512,"SqmFrom":11513,"SqmPathSource":11514,"ployment":11515,"StandardImpl":11516,"ĠjdbcParameter":11517,"subtract":11518,"TableGroupProducer":11519,"ĠWeb":11520,"à¨ķ":11521,"ĠInetSocketAddress":11522,"ĠsqmParameter":11523,"ĠServlet":11524,"ĠBasicTestEntity":11525,"ĠBasicAttributeMapping":11526,"canvas":11527,"Capt":11528,"Extends":11529,"Ġchars":11530,"Expos":11531,"EXT":11532,"ĠAnnotationFactory":11533,"ACC":11534,"roundHalf":11535,"ĠloadedChild":11536,"ĠMutableInterval":11537,"OOD":11538,"CREMENT":11539,"SelfReference":11540,"SemanticQueryWalker":11541,"ðĳĦ´\");":11542,"embedded":11543,"JSONObject":11544,"ĠDiscriminator":11545,"ĠprocedureName":11546,"laps":11547,"Steve":11548,"assertNumberOfOccurrenceInQuery":11549,"Ġnegated":11550,"origin":11551,"olatte":11552,"Ġassemble":11553,"okeStyle":11554,"ÑĦÑĢÐ¸":11555,"Ġaffected":11556,"Les":11557,"Pad":11558,"Tx":11559,"home":11560,"txt":11561,"uv":11562,"Ã»":11563,"æĭ":11564,"Ġ$$_":11565,"asi":11566,"isNative":11567,"isParameterized":11568,"getFoo":11569,"getDomain":11570,"getLockOptions":11571,"getUnderlying":11572,"received":11573,"repeat":11574,"Replacer":11575,"Ġbad":11576,"Ġmed":11577,"Ġmater":11578,"utdown":11579,"ĠSET":11580,"ansa":11581,"Ancestor":11582,"Ġjakarta":11583,"Ġcons":11584,"ĠClick":11585,"CollectionMapper":11586,"superClass":11587,"Ġ'\\\\":11588,"regex":11589,"ALF":11590,"getClazz":11591,"ĠexpectedXml":11592,"OptionsImpl":11593,"ĠSqmFrom":11594,"AndSet":11595,"Specified":11596,"áĢħ":11597,"ĠJsni":11598,"ATCH":11599,"NoCascadeOne":11600,"IsNull":11601,"ĠWeek":11602,"áŀĶ":11603,"Ð¾Ñģ":11604,"Ð¾Ð¼":11605,"StatisticsEnabled":11606,"binder":11607,"Ġ__":11608,"marshallingContext":11609,"fetched":11610,"ĠbindValue":11611,"áĭµ":11612,"ManyToOneSelfReference":11613,"ÙħØ§ÙĦ":11614,"runPass":11615,"à³į\");":11616,"SHORT":11617,"à«ĭ":11618,"updatable":11619,"00000008":11620,",?,?":11621,"LoggableString":11622,"getWidgetIndex":11623,"Ġ\":\"":11624,"MappingModelCreationProcess":11625,"iveness":11626,"Packages":11627,"Enumeration":11628,"MulIdEntity":11629,"ĠminuteOfHour":11630,"LICIT":11631,"isColumnPresent":11632,"åĪ©":11633,"ufffd":11634,";&#":11635,"Bang":11636,"Cat":11637,"Dock":11638,"Loop":11639,"_,":11640,"dynamic":11641,"jjs":11642,"Ã´":11643,"×Ĵ":11644,"ĠGenerated":11645,"trusted":11646,"getTableReference":11647,"getEntities":11648,"Ġsample":11649,"(\".*":11650,"ĠcorrelatedRoot":11651,"NameAnd":11652,"setString":11653,"setMessage":11654,"igr":11655,"ĠSecurity":11656,"ĠtestList":11657,"ĠtestCan":11658,"008":11659,"ĠvalueMapping":11660,"consumer":11661,"ForValue":11662,"ĠJBinaryOperator":11663,"ĠCON":11664,"ĠCockroach":11665,"MethodBinding":11666,"AttributeType":11667,"CollectionEntry":11668,"ĠDatagram":11669,"Ġdeque":11670,"FunctionFactory":11671,"LockString":11672,"ĠArrayHelper":11673,"ĠSqmRoot":11674,"Configurations":11675,"vide":11676,"ĠsqlSelections":11677,"longVal":11678,"linked":11679,"ReadWrite":11680,"ĠJsArray":11681,"à¸¢":11682,"áŀ¢":11683,"ĠtargetClass":11684,"ĠmetadataBuilder":11685,"reflection":11686,"ĠJavaScript":11687,"Calc":11688,"transport":11689,"InternalFrame":11690,"ĠChildWithBidirectionalManyToMany":11691,"ĠconvertToEntityAttribute":11692,"QUENCE":11693,"ĠYEAR":11694,"Ġpossible":11695,"Fonts":11696,"Suggestions":11697,"ĠEmployer":11698,"ovina":11699,"InvocationTargetException":11700,"getResourceRegistry":11701,"Summarization":11702,"Ġpeople":11703,"declaringClass":11704,"getSelectionExpression":11705,"Ġfilename":11706,"áĥ£áĥ":11707,"($":11708,"Casc":11709,"JParameterizedType":11710,"Mad":11711,"dest":11712,"fk":11713,"pg":11714,"Ò¯":11715,"×§":11716,"ĠLogger":11717,"lee":11718,"asz":11719,"getter":11720,"getConnection":11721,"getLimitHandler":11722,"getExpressibleJavaType":11723,"itted":11724,"anInt":11725,"Ġcud":11726,"retrieve":11727,"Ġbits":11728,"Ġbottom":11729,"EntityData":11730,"ĠĠĠĠĠĠ":11731,"Ġmask":11732,"Ġdot":11733,"ĠtestClass":11734,"ĠtestData":11735,"ĠtestNon":11736,"riends":11737,"TableMapping":11738,"ColumnSort":11739,"ĠCached":11740,"perm":11741,"ĠMod":11742,"Within":11743,"ociate":11744,"Compound":11745,"JsNative":11746,"getCategoriesWithDesc":11747,"ĠexpectedInitializedObjects":11748,"RootClass":11749,"ĠSqmQueryImplementor":11750,"SelectionEvent":11751,"ĠGu":11752,"áĢĲ":11753,"Ġimplied":11754,"ErrorReporter":11755,"stringType":11756,"áŀł":11757,"à´¨":11758,"ViewData":11759,"disabled":11760,"ĠhasSize":11761,"mappedBy":11762,"getSqlType":11763,"ldr":11764,"canUse":11765,"Comparable":11766,"ĠAudited":11767,"AutoClose":11768,"RunWith":11769,"millisOfDay":11770,"QUAR":11771,"ĠTemporaryTable":11772,"groups":11773,"ĠSqlAstTranslator":11774,"Ġuste":11775,"PropNamedId":11776,"dirty":11777,"ĠAttributeConverter":11778,"Permutations":11779,"ĠcompanyDto":11780,"Ġcontents":11781,"ĠBarb":11782,"ParsingTestEntity":11783,"ROWS":11784,"contained":11785,"DoNotRunWith":11786,"MEDIATE":11787,"CW":11788,"CLI":11789,"Jap":11790,"Mater":11791,"\\\");":11792,"mts":11793,"middle":11794,"ĠExtended":11795,"alest":11796,"ena":11797,"trict":11798,"trunc":11799,"getModel":11800,"getPost":11801,"ĠgetParameter":11802,"ĠgetReader":11803,"ĠgetTarget":11804,"ĠgetSorted":11805,"IdPropertyName":11806,"ĠSw":11807,"TestUtils":11808,"avg":11809,"Translation":11810,"Ġhigh":11811,"ĠBu":11812,"CollectionRecreate":11813,"Interner":11814,"opp":11815,"ĠexpectedReadOnlyObjects":11816,"ĠFru":11817,"RESOURCE":11818,"SqmExpressible":11819,"Ġunits":11820,"Outside":11821,"grand":11822,"SelectionHandler":11823,"readOnly":11824,"Ġsubtype":11825,"ðĳĦ¥":11826,"ĠVirg":11827,"Ð¾Ð¿":11828,"à¬Ĩ":11829,"NamedTableReference":11830,"jsUtils":11831,"('\"":11832,"LazyAttribute":11833,"1582":11834,"MIL":11835,"ĠChildEntity":11836,"648":11837,"SqlAstCreationState":11838,"áİµ":11839,"referencing":11840,"ĠreferencedEntity":11841,"Ġencoded":11842,"Ġspecification":11843,"SkipLocked":11844,"Ġnever":11845,"ĠdiscriminatorValue":11846,"NavigableRole":11847,"OrderedSet":11848,"Ġenhanced":11849,"JAKARTA":11850,"idental":11851,"DomainModelScope":11852,"UnaryOperator":11853,"Micros":11854,"Affected":11855,"Quoting":11856,"commendedJdbcType":11857,"Enclosing":11858,"ĠBuffered":11859,"getErasedType":11860,"ĠFruit":11861,"(()":11862,")*":11863,"53":11864,"Di":11865,"Datetime":11866,"DatagramSocket":11867,"Farm":11868,"Gine":11869,"]]":11870,"awt":11871,"aÅĭ":11872,"bi":11873,"sink":11874,"uced":11875,"á»":11876,"ä¸":11877,"ĠArgument":11878,"Ġà¶":11879,"ĠArchive":11880,"onBrowserEvent":11881,"()\"":11882,"isConnected":11883,"getMin":11884,"getAuditReader":11885,"ars":11886,"assertDebugId":11887,"Ġfn":11888,"Ġfmt":11889,"setPerson":11890,"EntityProxy":11891,"iving":11892,"ĠgetOffset":11893,"ĠgetBuildingContext":11894,"Ġocc":11895,"Ġproto":11896,"OrBuilder":11897,"MethodId":11898,"Email":11899,"ĠMONTH":11900,"ignore":11901,"StatementRanges":11902,"Grouping":11903,"FileType":11904,"LongEmul":11905,"UpdateClause":11906,"AsStream":11907,"ĠkeySet":11908,"DayOfYear":11909,"CEND":11910,"ĠGrenad":11911,"StandardOffset":11912,"ĠsubType":11913,"SimpleNaturalId":11914,"NoWrap":11915,"ðĳĦĩ":11916,"Ġservlet":11917,"CaseStrategy":11918,"VALUES":11919,"ĠSQLServer":11920,"NotFoundAction":11921,"Ġ\"'\"":11922,"ĠAuditReader":11923,"ĠEventListener":11924,"ĠSessionFactoryBuilder":11925,"WrapperOptions":11926,"Advice":11927,"works":11928,"ĠNativeEvent":11929,"download":11930,"Biowning":11931,"lazySession":11932,"ĠhintName":11933,"âµīâµĶ":11934,"getSuperClass":11935,"TestingImpl":11936,"ĠAssertionError":11937,"getFirstChildElement":11938,"reqs":11939,"resultSetMapping":11940,"getPhones":11941,"BeanInstanceProducer":11942,"').":11943,"(<":11944,"=*,":11945,"Fake":11946,"HALF":11947,"NON":11948,"Rules":11949,"bits":11950,"jector":11951,"uc":11952,"Ð£":11953,"ĠParameters":11954,"ĠCondition":11955,"etitor":11956,"getArguments":11957,"ito":11958,"(\"$":11959,"quantity":11960,"olume":11961,"setTarget":11962,"ClassInfo":11963,"IdEntity":11964,"ĠtestSelect":11965,"ĠJTS":11966,"Seq":11967,"ArrayEquals":11968,"createElement":11969,"newValue":11970,"ByType":11971,"ĠCSS":11972,"MethodCreator":11973,"ĠMari":11974,"ocity":11975,"ĠpropertyValue":11976,"encoded":11977,"complete":11978,"Pojo":11979,"TIES":11980,"Ġorm":11981,"ĠtableInformation":11982,"AsProxy":11983,"à¦ĩ":11984,"ListenerWrapper":11985,"rootEntityDescriptor":11986,"ĠSqmFunction":11987,"SelectionPolicy":11988,"eried":11989,"olog":11990,"StandardFunction":11991,"ĠattributeSource":11992,"Ġyet":11993,"javax":11994,"MetamodelClass":11995,"ĠdataSource":11996,"JMethodBody":11997,"Matchers":11998,"LineItem":11999,"ĠÐ¡":12000,"ĠlocaleData":12001,"DatabaseColumn":12002,"Optimize":12003,"Visibility":12004,"Ġ\"'\");":12005,"ughtworks":12006,"ĠapplySqlSelections":12007,"ĠMappingModelExpressible":12008,"processSql":12009,"Password":12010,"Divide":12011,"Stylesheet":12012,"GenericClass":12013,"Lenient":12014,"ukasz":12015,"ILING":12016,"cssTree":12017,"SKIP":12018,"CALL":12019,"getComponentType":12020,"getStartMillis":12021,"ĠunwrapType":12022,"SampleMaps":12023,"ĠfromClauseAccess":12024,"uryOfEra":12025,"ĠinverseJoinColumns":12026,"Decorator":12027,"ĠtreatTargetType":12028,"CodedOutputStream":12029,"ndiName":12030,"MULTICAST":12031,"assertFileExists":12032,"createTempFile":12033,"IntegralDataType":12034,"SpatialFunction":12035,"ĠsubtrahendInstant":12036,"inidad":12037,"IntegralDataTypeHolder":12038,"Far":12039,"Folder":12040,"HAND":12041,"SING":12042,"Synchronize":12043,"ded":12044,"direction":12045,"ef":12046,"ga":12047,"iInstant":12048,"ÖĤ":12049,"Úª":12050,"Ġut":12051,"ĠON":12052,"Ġast":12053,"ĠEnhancement":12054,"erialized":12055,"getMetamodel":12056,"getEmbedded":12057,"getQualifier":12058,"getLanguage":12059,"getSelections":12060,"getParameterizedQualifiedSourceName":12061,"orter":12062,"ingEvent":12063,"Ġnature":12064,"Ġ(?":12065,"Ġcd":12066,"Ġtyped":12067,"Received":12068,"Stand":12069,"Ġbaz":12070,"ĠgetText":12071,"Ġlateral":12072,"failed":12073,"Ġrecursive":12074,"Ġreceived":12075,"toText":12076,"Ġwa":12077,"cessary":12078,"ĠClob":12079,"ĠPrimary":12080,"ĠObjectOutputStream":12081,"Ġ'('":12082,"ĠaddDomHandler":12083,"REN":12084,"getTransactionManager":12085,"BasicAttributeMapping":12086,"LoadCount":12087,"Ð¸Ð¹":12088,"Ø§Ø¦":12089,"Ð½Ð´":12090,"ðĳĦª":12091,"ificate":12092,"aintColor":12093,"HtmlUnit":12094,"UserTransaction":12095,"à®²":12096,"getJdbcJavaType":12097,"ĠSqlStringGenerationContext":12098,"eventBus":12099,"áĪĬ":12100,"ÃŃa":12101,"AbstractResource":12102,"ĠcacheKey":12103,"CustomType":12104,"Ġlocalized":12105,"Marshall":12106,"Ð»Ð°Ð½Ð´":12107,"ĠJoinColumn":12108,"ĠMockHasData":12109,"Ġprocessing":12110,"ESCAPE":12111,"Queued":12112,"ĠMathContext":12113,"ComplianceEnabled":12114,"ARRLEN":12115,"LeafType":12116,"Î¹Îº":12117,"ĠyogiExpected":12118,"ĠprocedureCall":12119,"ĠAmerika":12120,"Ġowning":12121,"ĠAutoBean":12122,"FLOAT":12123,"alyze":12124,"thoughtworks":12125,"'>\");":12126,"ADED":12127,"JRunAsync":12128,"Mor":12129,"cD":12130,"fallback":12131,"mce":12132,"pers":12133,"same":12134,"zh":12135,"Ã¸":12136,"å¤":12137,"ĠRegExp":12138,"()'":12139,"isIn":12140,"getJ":12141,"getBind":12142,"getScope":12143,"getPrefix":12144,"getTop":12145,"ulated":12146,"Ġcourse":12147,"Ġtoo":12148,"olated":12149,"elocity":12150,"Stale":12151,"setY":12152,"setChild":12153,"setUser":12154,"EntityOfBasics":12155,"ĠgetFunctionDescriptor":12156,"Ġdirectory":12157,"ĠSO":12158,"Quantity":12159,"QueryBuilder":12160,"Ġlib":12161,"KeyColumn":12162,"ĠJohn":12163,"Ġremote":12164,"ByAlias":12165,"ĠHANA":12166,"iaDB":12167,"ĠpropertyAuditingData":12168,"ARED":12169,"ĠcreateTestData":12170,"ĠexpectedParameterTypes":12171,"SubEntity":12172,"doesNot":12173,"ĠEntityB":12174,"Ġunion":12175,"getSymbol":12176,"AndCompare":12177,"ConverterManager":12178,"ĠjdbcValues":12179,"Ġmaps":12180,"à²²":12181,"setParameterTypes":12182,"JpaPredicate":12183,"EditorWith":12184,"versions":12185,"jdbcParameterBindings":12186,"IfEmpty":12187,"Ġ127":12188,"Conditions":12189,"ĠMetadataBuilder":12190,"áıį":12191,"SqlAstTranslatorFactory":12192,"Clients":12193,"ĠDoubleStream":12194,"DirtyTracking":12195,"Splitter":12196,"ExecutionCount":12197,"ĠauditReader":12198,"CfgNode":12199,"ĠSAXParseException":12200,"Estimate":12201,"Latn":12202,"NATIVE":12203,"DerivedJoin":12204,"CURSOR":12205,"ĠalternativeContacts":12206,"AssertionError":12207,"RealClassType":12208,"enclosing":12209,"ĠBYTES":12210,"ĠJsNameRef":12211,"ĠinheritanceState":12212,"Pit":12213,"Pending":12214,"Xsrf":12215,"eget":12216,"gor":12217,"ggle":12218,"hes":12219,"ko":12220,"lizer":12221,"menu":12222,"saved":12223,"ÐĶ":12224,"Ġà´":12225,"getInterceptor":12226,"getSubclass":12227,"getGetter":12228,"getMaximum":12229,"icast":12230,"arable":12231,"ĠcScale":12232,"Ġcorrect":12233,"assertIs":12234,"Exist":12235,"EntitySource":12236,"Ġnullable":12237,"ClassPath":12238,"ListJoin":12239,"ListSignature":12240,"stances":12241,"Ġtrace":12242,"createStoredProcedureQuery":12243,"ĠisSame":12244,"ĠentityMappingType":12245,"INCREMENT":12246,"StatementLogger":12247,"typemodel":12248,"ANT":12249,"Ġattempt":12250,"angle":12251,"ĠUnmarshallingContext":12252,"Ġcompiled":12253,"à¥Ī":12254,"Ġcompl":12255,"nextToken":12256,"ĠRoundingMode":12257,"ErrorHandler":12258,"Decoder":12259,"ĠWindow":12260,"ĠCollectionPart":12261,"ÐµÐ·":12262,"Startup":12263,"DomainPath":12264,"getJdbcMappings":12265,"withChronology":12266,"NamedParameter":12267,"Ġtransport":12268,"Suppressed":12269,"Aggreg":12270,"à¶½":12271,"Multiply":12272,"joinType":12273,"ĠFileDescriptor":12274,"dtd":12275,"errn":12276,"ĠreadResolve":12277,"manuel":12278,"ImplicitNamingStrategy":12279,"=\\\"{":12280,"Ignored":12281,"getParents":12282,"Toolkit":12283,"Ġoverridden":12284,"tracev":12285,"extracting":12286,"Printed":12287,"ollar":12288,"à©ĩ":12289,"à¥Ģ\");":12290,"CatalogName":12291,"ĠcompileSnippet":12292,"ĠgetTestSrid":12293,"amples":12294,"ĠIslands":12295,"RollbackOnly":12296,"buggyCode":12297,"Ġmembership":12298,"agnost":12299,"ĠconvertToDatabaseColumn":12300,"ĠenhancementContext":12301,"ĠDelete":12302,"Ascending":12303,"HANADialect":12304,"clauseStack":12305,"Ġtuples":12306,"UnserializableBase":12307,"QUARTER":12308,"52":12309,"878":12310,"=%":12311,"DW":12312,"Den":12313,"Fn":12314,"HINT":12315,"Sunk":12316,"\\\";":12317,"ele":12318,"hal":12319,"sam":12320,"ĠMan":12321,"Ġáĥ":12322,"Ġ.*":12323,"onClose":12324,"inline":12325,"getHTML":12326,"getIndexed":12327,"itel":12328,"three":12329,"StringConverter":12330,"Ġ)[":12331,"Inventory":12332,"adix":12333,"ches":12334,"setBody":12335,"Ġbrowser":12336,"Ġbaos":12337,"ĠgetException":12338,"ĠgetMaximumValue":12339,"ListContext":12340,"addWhere":12341,"ĠtestDelete":12342,"ValueOf":12343,"ĠJProgram":12344,"problem":12345,"SessionContext":12346,"Ġjohn":12347,"TableData":12348,"Ġher":12349,"Employer":12350,"assertThrows":12351,"à¦¡":12352,"Inspection":12353,"\\\">\");":12354,"TextBox":12355,"ĠSqmSelectStatement":12356,"Ð¸ÑĤ":12357,"Literals":12358,"LOADED":12359,"Ġcommit":12360,"ĠJsFunction":12361,"Disable":12362,"Ġpreferred":12363,"functionCounter":12364,"à¸¥":12365,"à¬²":12366,"ÙĪØ³":12367,"PrefixOperation":12368,"OwnerField":12369,"à§Ģ":12370,"matching":12371,"áĬŃ":12372,"ĠFileInputStream":12373,"JdbcTypeIndicators":12374,"ĠsecondOfMinute":12375,"Accumulator":12376,"White":12377,"CompositeKey":12378,"Passed":12379,"ĠPrimitive":12380,"à±Ĩ":12381,"àŃģ":12382,"workMethod":12383,"Ø¨ÛĮ":12384,"getEnrolments":12385,"systemDefault":12386,"getNodeName":12387,"define":12388,"ĠwhenFragments":12389,"âµĵâµı":12390,"287":12391,"Heading":12392,"ationalized":12393,"IMMEDIATE":12394,"Ġcollector":12395,"ĠInternalCompilerException":12396,"ĠpageSize":12397,"HttpServletRequest":12398,"eventListenerGroup":12399,"ĠPRIORITY":12400,"MILLI":12401,"Difference":12402,"JVM":12403,"Mac":12404,"PUT":12405,"Power":12406,"Papu":12407,"Roles":12408,"Sud":12409,"SCO":12410,"Scanner":12411,"Teacher":12412,"cu":12413,"gu":12414,"zeg":12415,"Ġil":12416,"ĠInsert":12417,"ĠStack":12418,"ĠEnhancer":12419,"aster":12420,"isEnum":12421,"getOr":12422,"getPredicate":12423,"edAs":12424,"std":12425,"setElement":12426,"setHTML":12427,"ĠtestBad":12428,"Timeval":12429,"ĠvalueUpdater":12430,"strings":12431,"toList":12432,"UncaughtException":12433,"newMergedPatterns":12434,"Ġhistory":12435,"JoinPredicate":12436,"astSessionServices":12437,"SubType":12438,"Once":12439,"ĠLimit":12440,"ĠGMT":12441,"Continue":12442,"áĢĦ":12443,"NoMillis":12444,"ISION":12445,"ĠsourceName":12446,"validator":12447,"à¨²":12448,"ĠÐŀ":12449,"ĠShared":12450,"SafeHtmlBuilder":12451,"ForeignKeys":12452,"ĠcopyFrom":12453,"ĠcomponentType":12454,"getColumnIterator":12455,"SqlAstWalker":12456,"ThreadPolicy":12457,"à±ģ":12458,"Owners":12459,"Ġencoder":12460,"áŁģ":12461,"srcMap":12462,"QualifierSupport":12463,"PerClass":12464,"ViolationException":12465,"ĠinitialValue":12466,"ĠLinkedHashSet":12467,"labels":12468,"Filename":12469,"pluralForms":12470,"Õ«Õ":12471,"Normalizer":12472,"OverlayFunction":12473,"NoSuchElementException":12474,"UIObjectTest":12475,"ĠJtaPlatform":12476,"closurePanel":12477,"ĠNamingException":12478,"versableResolver":12479,"ĠNevis":12480,"FACTORY":12481,"'));":12482,"/\"":12483,"BAR":12484,"Dictionary":12485,"Every":12486,"ITIAL":12487,"Ms":12488,"Ops":12489,"hid":12490,"rt":12491,"son":12492,"wice":12493,"zija":12494,"Ûĩ":12495,"Ġâµı":12496,"ĠNotAudited":12497,"getLazy":12498,"getSetter":12499,"(\":":12500,"Inches":12501,"olk":12502,"Const":12503,"setReference":12504,"izations":12505,"igu":12506,"ĠgetInterpreter":12507,"emf":12508,"ValueChangeEvent":12509,"ĠsetPerson":12510,"Ġli":12511,"Orm":12512,"ĠBlob":12513,"NullObject":12514,"ONENT":12515,"testDetermination":12516,"Ġdepartment":12517,"JsBinaryOperation":12518,"LongValue":12519,"ĠcreateUint":12520,"RefColl":12521,"CachePutCount":12522,"ĠSqmSelectionQuery":12523,"DialectResolutionInfo":12524,"âµ¡":12525,"ĠsubMap":12526,"Retain":12527,"AllWKT":12528,"ĠMaps":12529,"currentState":12530,"withLocale":12531,"áĪĽ":12532,"ðĲĲ»":12533,"Weekyear":12534,"ĠmappingType":12535,"ÑĥÑĤ":12536,"Fully":12537,"ĠAbstractHANADialect":12538,"AAAA":12539,"áİ¢":12540,"áī³":12541,"BrowserEvents":12542,"ĠNodeBuilder":12543,"Ġpoint":12544,"ĠmanagedType":12545,"BootstrapServiceRegistry":12546,"ComparisonPredicate":12547,"ĠcontractVariation":12548,"ĠprepareTestData":12549,"baos":12550,"ĠMultiple":12551,"createdOn":12552,"åħĭ":12553,"ĠcreateNativeSQLStatementAllWKT":12554,"CustomSqlDml":12555,"SelectQueryPlan":12556,"HexString":12557,"Provides":12558,"ĠOPEN":12559,"ĠBarbuda":12560,"RefCollEntity":12561,"ĠcreateNativeSQLStatementAllWKTParams":12562,"CustomSqlDmlType":12563,"Gavin":12564,"IDENTIFIER":12565,"JE":12566,"NClob":12567,"Pres":12568,"Pager":12569,"Ren":12570,"WAIT":12571,"aNumber":12572,"coder":12573,"pId":12574,"}\\":12575,"ĠEntry":12576,"ĠOR":12577,"ĠQualified":12578,"ĠâĢĵ":12579,"isor":12580,"isGenericType":12581,"getAll":12582,"getInitializer":12583,"Ġsec":12584,"ĠcOrig":12585,"Ġcandidate":12586,"TypeElement":12587,"Reason":12588,"EntityOf":12589,"Ġmixed":12590,"ĠSplit":12591,"ĠtestMap":12592,"Ġ--":12593,"employer":12594,"ValueEditor":12595,"ĠsetString":12596,"conn":12597,"servlet":12598,"Ġcontribute":12599,"ĠentityInstance":12600,"PathPrefixSet":12601,"Ġhide":12602,"ssss":12603,"ship":12604,"ALECT":12605,"Possible":12606,"checkEmpty":12607,"PreUpdate":12608,"ANCE":12609,"TextOutput":12610,"IdentifierHelper":12611,"ĠSqmExpressible":12612,"Ġpersistence":12613,"loadClass":12614,"ðĳĦ£":12615,"ĠpreparedStatement":12616,"ĠXClass":12617,"ĠsourceDocument":12618,"ĠCollectionClassification":12619,"3456":12620,"à®µ":12621,"ĠstartElement":12622,"Positions":12623,"elementType":12624,"columnName":12625,"TokenStream":12626,"áĪĿ":12627,"getKeyDescriptor":12628,"ĠÐĵ":12629,"resolveTableReference":12630,"','":12631,"DatabaseMetaData":12632,"ĠminimalRebuildCache":12633,"Ġ\"'\",":12634,"ĠcopyCache":12635,"getPrecision":12636,"AuditedEntity":12637,"ToolingHint":12638,"PostInsert":12639,"Selectors":12640,"CascadeDelete":12641,"Ġdelimiter":12642,"abcdef":12643,"ĠenumType":12644,"compilationMetrics":12645,"Redirect":12646,"RoundingMode":12647,"Ġdependencies":12648,"Ġapplication":12649,"Ġ3661":12650,"essimistic":12651,"Datas":12652,"ittleEndian":12653,"gorith":12654,"Ab":12655,"Audio":12656,"RST":12657,"distinct":12658,"spliterator":12659,"something":12660,"Ã¯":12661,"ĠResult":12662,"ĠØ§":12663,"ĠÐ°ÑĢ":12664,"ĠGeneratorContext":12665,"isLeap":12666,"Ġcr":12667,"ado":12668,"store":12669,"setF":12670,"Trinidad":12671,"IdGenerator":12672,"Ġdynamic":12673,"imeType":12674,"ĠJConstructor":12675,"ĠJob":12676,"ivePred":12677,"PropertyOracle":12678,"appendValue":12679,"ĠHOUR":12680,"à¤·":12681,"à¤ħ":12682,"ernary":12683,"ĠMal":12684,"Ġ'-":12685,"MessageInterpolator":12686,"FromElement":12687,"getCategory":12688,"ĠaddHandler":12689,"ZoneOffset":12690,"ManyToAny":12691,"Ġunderlying":12692,"Versions":12693,"à½Ħ":12694,"readAll":12695,"UnitTestTreeLogger":12696,"RowElement":12697,"getScale":12698,"anceled":12699,"áĢ¡":12700,"ATING":12701,"Aliasing":12702,"ĠvaluesConsumer":12703,"CaseSimpleExpression":12704,"userAgent":12705,"oldier":12706,"áŀĺ":12707,"sourceMap":12708,"ĠoutputStream":12709,"personId":12710,"ĠoffsetExpression":12711,"Modifiers":12712,"getRight":12713,"à¶Ń":12714,"MultiValued":12715,"SubclassEntity":12716,"bitAccount":12717,"ĠcacheAccess":12718,"ĠuserAgent":12719,"LastModified":12720,"TATION":12721,"áĭ°":12722,"Configured":12723,"debuggee":12724,"àµĭ":12725,"CteContainer":12726,"WindowFunctions":12727,"MutableInterval":12728,"ĠsimpleEntity":12729,"Ġvalidation":12730,"Ġconstruct":12731,"flip":12732,"SHARED":12733,"Ø¨Ø§":12734,"CompilerEventType":12735,"detach":12736,"ithmeticExpression":12737,"ĠJaxbEntity":12738,"ĠNamedTableReference":12739,".*\"));":12740,"Exactly":12741,"getOffsetHeight":12742,"configurationValues":12743,"getRoots":12744,"GroupsMetadata":12745,"Malformed":12746,"negative":12747,"LikePredicate":12748,"ĠPersistenceException":12749,"áĢ¸\");":12750,"CompiledClass":12751,"getFromTypeMap":12752,"adaptivePred":12753,"TURN":12754,"LazinessInterceptor":12755,"Performance":12756,"AsProxyLazinessInterceptor":12757,"DWP":12758,"itelist":12759,"adaptivePredict":12760,"929":12761,"GO":12762,"lers":12763,"mate":12764,"missing":12765,"sockopt":12766,"å·":12767,"ĠConstructor":12768,"ĠNamespace":12769,"ĠForeignKeyDescriptor":12770,"ľáĥ":12771,"install":12772,"getBasicTypeForJavaType":12773,"Ġctrl":12774,"assertArrayEquals":12775,"Ġflow":12776,"Ġeq":12777,"setDisplay":12778,"IdTestEntity":12779,"ĠtestCollection":12780,"ToInt":12781,"ToCreate":12782,"Delegating":12783,"ForClass":12784,"Ġreceive":12785,"Ansi":12786,"Attempt":12787,"MethodIds":12788,"mother":12789,"STRI":12790,"EventReader":12791,"superclass":12792,"Ġdelay":12793,"clinit":12794,"getCode":12795,"++,":12796,"ĠEntityIdentifierMapping":12797,"SqmFunction":12798,"Ġannot":12799,"ĠSqmPathSource":12800,"ĠSqmCorrelated":12801,"ĠparentTableGroup":12802,"removeFrom":12803,"Aliased":12804,"ðĳĦŁ":12805,"BooleanExpressionPredicate":12806,"initializer":12807,"getJdbcValue":12808,"1189":12809,"ĠsqmFrom":12810,"LazyLoading":12811,"targets":12812,"à¶¸":12813,"FIRST":12814,"ĠjsProgram":12815,"getSqlExceptionHelper":12816,"Ġexecution":12817,"Ġdoesn":12818,"àµ»":12819,"ĠAuditCriterion":12820,"Batches":12821,"ĠconfigValues":12822,"ãĥ¼":12823,"PluralAttributeSource":12824,"àŃĭ":12825,"finishedMessage":12826,"MouseWheel":12827,"ĠconverterLookup":12828,"ĠDurationField":12829,"ĠbasicTypeRegistry":12830,"à©ĭ":12831,"ThisRef":12832,"floatValue":12833,"getOffsetWidth":12834,"STICS":12835,"ÐľÐ°Ð»":12836,"ĠNameCoder":12837,"ĠsystemId":12838,"revisionInfo":12839,"ĠunknownFields":12840,"presentationStrategy":12841,"ĠGraphSemantic":12842,"PATH":12843,"Showing":12844,"getEndMillis":12845,"VOKE":12846,"dispatchEvent":12847,"Ø³ØªØ§ÙĨ":12848,"NativePreviewHandler":12849,"ĠPermutation":12850,"APPLE":12851,"ittedArtifact":12852,"112":12853,"87":12854,"92":12855,"AIN":12856,"Cookies":12857,"Ge":12858,"House":12859,"Ku":12860,"OLD":12861,"Xsd":12862,"_-":12863,"fn":12864,"flag":12865,"gres":12866,"men":12867,"Ñħ":12868,"Ġ.":12869,"ĠÕ":12870,"Ġes":12871,"Ġoid":12872,"ĠEmpty":12873,"etary":12874,"getArgs":12875,"Ġscan":12876,"abstract":12877,"TypeInfo":12878,"TypeDeclaration":12879,"elm":12880,"Ġpack":12881,"Ġpair":12882,"Ġpadding":12883,"Recogn":12884,"une":12885,"Stamp":12886,"setFieldIn":12887,"Ġbag":12888,"Trivially":12889,"ListBox":12890,"tryCreate":12891,"ĠtestCreate":12892,"Ġinferred":12893,"QueryExecutionContext":12894,"ValueChangeHandler":12895,"SetEntity":12896,"createEntityGraph":12897,"ĠisHtml":12898,"Ġweb":12899,"DesignTime":12900,"Ġhis":12901,"mouse":12902,"ĠMAIN":12903,"allet":12904,"Ð°Ñģ":12905,"Ġemulate":12906,"JdbcParameterBindings":12907,"listOf":12908,"DEL":12909,"ResourceGenerator":12910,"CacheDir":12911,"à¦ļ":12912,"Offsets":12913,"ORK":12914,"Africa":12915,"SerializedType":12916,"ĠloadQueryInfluencers":12917,"writeString":12918,"BeanManager":12919,"Started":12920,"HibernateFlushMode":12921,"NamedStoredProcedureQuery":12922,"ategor":12923,"à¨Ĩ":12924,"Ġdisabled":12925,"JpaWindow":12926,"ĠJdbcTypeRegistry":12927,"ĠAnchor":12928,"getNodes":12929,"jdbcTypeCode":12930,"AuditReaderImplementor":12931,"populate":12932,"AssociationType":12933,"AssociationKey":12934,"Ġresolution":12935,"Varchar":12936,"Ġxmlns":12937,"IndexedListJoinColumnBidirectionalRefIngEntity":12938,"Ġpolicy":12939,"ĠEmbeddableAggregate":12940,"STATI":12941,"Ġtokenizer":12942,"735":12943,"2922":12944,"SimpleFooRequest":12945,"ĠdiscriminatorMapping":12946,"transactionCoordinator":12947,"Ġspaces":12948,"ĠJSONObject":12949,"VARBINARY":12950,"Ġattrs":12951,"Ġrequire":12952,"FragmentsRequested":12953,"BEAN":12954,"CacheableItem":12955,"setCurrentMillisSystem":12956,"COLUMN":12957,"ĠescapeChar":12958,"CURRENT":12959,"avingClause":12960,"Privileged":12961,"áĥĿáĥ":12962,"ĠNANOSECOND":12963,"ClampedArray":12964,"flatMap":12965,"ygon":12966,"ProvidesKey":12967,"å·´":12968,"SerializedTypeViolationException":12969,"-\"":12970,"110":12971,"90":12972,"Ben":12973,"Epoch":12974,"Sal":12975,"Sync":12976,"Vehicle":12977,"cv":12978,"job":12979,"pow":12980,"rchase":12981,"ses":12982,"ually":12983,"ĠOrigin":12984,"ĠReflectHelper":12985,"alHistory":12986,"always":12987,"iska":12988,"getNamespace":12989,"getLeap":12990,"orElse":12991,"Ġ\")\"":12992,"Ġsince":12993,"Ġ('":12994,"Ġcldr":12995,"Incompatible":12996,"assertFragmentsRequested":12997,"uni":12998,"Ġ170":12999,"ansion":13000,"ĠvalueOf":13001,"SetJoin":13002,"Ġexist":13003,"Ġexpressible":13004,"Ġtranchenmodell":13005,"ĠisTerminal":13006,"ĠCount":13007,"MethodVisitor":13008,"Ġhierarchy":13009,"Ġloc":13010,"ResultAssembler":13011,"STE":13012,"ĠDog":13013,"ParserTester":13014,"Preconditions":13015,"DEPRE":13016,"edicalHistory":13017,"aff":13018,"ANY":13019,"Ġant":13020,"ĠHibernateCriteriaBuilder":13021,"à½Į":13022,"codePoint":13023,"getScript":13024,"removeChild":13025,"IsValid":13026,"ĠparseTree":13027,"MinorVersion":13028,"àºµ":13029,"à®ļ":13030,"withType":13031,"Ġtransfer":13032,"ĠwithLocalMillis":13033,"columnType":13034,"reflect":13035,"RevisionNumbers":13036,"áĪ«":13037,"ĠfirstStatement":13038,"IfNeeded":13039,"à¶´":13040,"DownHandler":13041,"Equality":13042,"9876":13043,"JdbcTypeCode":13044,"Acc":13045,"\"}},":13046,"getQueryPart":13047,"ĠextractRevisionNumbers":13048,"EXCE":13049,"viewer":13050,"ĠcteStatement":13051,"MinuteOfHour":13052,"ĠhbmClass":13053,"Books":13054,"ĠroleName":13055,"basicTypeRegistry":13056,"ĠLazyEntity":13057,"realClass":13058,"ĠDynamicFetchBuilder":13059,"ĠpartialPath":13060,"registration":13061,"Ġdependent":13062,"relative":13063,"Õ¸ÖĤ":13064,"operation":13065,"ĠintegrationSettings":13066,"Ġ3600":13067,"self":13068,"anese":13069,"ĠApiChange":13070,"ĠComparisonOperator":13071,"edonia":13072,"onald":13073,"ÙīÙĬÛķ":13074,"Antigua":13075,"ÑĦÑĢÐ¸ÐºÐ°":13076,"æĭī":13077,"Madag":13078,"HANDL":13079,"ĠPrimaryKey":13080,"STATISTICS":13081,"Home":13082,"Px":13083,"PTION":13084,"Pixel":13085,"Tur":13086,"mk":13087,"å²":13088,"Ġ^":13089,"Ġite":13090,"ĠÐ¸":13091,"ĠÙĪ":13092,"inferredData":13093,"getTr":13094,"getVariations":13095,"arib":13096,"Ġsess":13097,"remaining":13098,"Ġvehicle":13099,"StringValue":13100,"ador":13101,"ĠnewBar":13102,"ooser":13103,"upper":13104,"uta":13105,"uting":13106,"ĠgetTag":13107,"ListEntity":13108,"added":13109,"ĠtestNot":13110,"forPattern":13111,"Ġlc":13112,"produ":13113,"Sequences":13114,"Through":13115,"Ġcontrib":13116,"Ġwait":13117,"ĠCap":13118,"ĠCore":13119,"PathPrefix":13120,"INF":13121,"à¤¼":13122,"ĠASS":13123,"ĠAND":13124,"Notification":13125,"ĠObjectInputStream":13126,"ufact":13127,"illy":13128,"ĠcreateTest":13129,"ĠcreateDomainResult":13130,"Ġrm":13131,"dog":13132,"logical":13133,"logError":13134,"SqmStatement":13135,"Ġanchor":13136,"paint":13137,"AuditExpression":13138,"ORIAN":13139,"ĠWHEN":13140,"à¸ķ":13141,"ĠendInstant":13142,"à°Ĥ":13143,"à²µ":13144,"columnReference":13145,"ĠselectStatement":13146,"mappings":13147,"ĠQueryException":13148,"PERSIST":13149,"ÙĦÛĮ":13150,"manies":13151,"SchemaManagementTool":13152,"ĠerrorManager":13153,"modelPart":13154,"divid":13155,"CteTable":13156,"ĠselectionModel":13157,"ĠassertTyping":13158,"OtherEntity":13159,"745":13160,"Ġquoted":13161,"Ú©Ø§":13162,"Ġusers":13163,"###":13164,"enums":13165,"getParameterTypes":13166,"ymorphism":13167,"[],[]":13168,"definedIn":13169,"MappingModelExpressible":13170,"slash":13171,"Allowed":13172,"Duplicates":13173,"amplingOrder":13174,"GENERATE":13175,"integration":13176,"Organization":13177,"REGORIAN":13178,"[[],[],[]":13179,"gorithm":13180,"/>":13181,"47":13182,"Mixed":13183,"Publisher":13184,"Slow":13185,"SÃ£o":13186,"aCollection":13187,"hav":13188,"iant":13189,"mi":13190,"qnameMap":13191,"uuid":13192,"Ûĭ":13193,"ĠReader":13194,"ĠCharset":13195,"entries":13196,"async":13197,"isJsNative":13198,"tros":13199,"getAssociated":13200,"getActual":13201,"getNoProxy":13202,"aning":13203,"Ġsrid":13204,"ConcurrentHashMap":13205,"setTop":13206,"prite":13207,"Prod":13208,"ĠgetRe":13209,"ĠgetAnnotation":13210,"ĠgetSelect":13211,"ĠgetTypeConfiguration":13212,"ĠSpec":13213,"ĠtestParse":13214,"could":13215,"avings":13216,"ToLong":13217,"ĠsetAccess":13218,"createAggregate":13219,"perly":13220,"EventHandler":13221,"WithDefault":13222,"Always":13223,"testAdd":13224,"cls":13225,"PreDestroy":13226,"printTo":13227,"Initializers":13228,"FetchQueue":13229,"ĠkeyCol":13230,"EmptyList":13231,"ENTRY":13232,"getSup":13233,"Characters":13234,"ATIN":13235,"buildPartial":13236,"Ġfetches":13237,"Ġasc":13238,"à°Ł":13239,"validation":13240,"à¬ª":13241,"à¬®":13242,"àª®":13243,"ĠOUT":13244,"Ġregex":13245,"ĠwithMillis":13246,"ĠparamName":13247,"Ð°Ð³":13248,"Building":13249,"Ġformatted":13250,"ĠreadObject":13251,"HandOperand":13252,"Edges":13253,"bySimpleNaturalId":13254,"ambod":13255,"MOVE":13256,"runTest":13257,
[...]
