#version: 0.2 - Trained by `huggingface/tokenizers`
e r
) ;
e t
o n
i n
e s
a t
a l
e n
i on
Ġ {
l e
a s
Ġ =
( )
i s
t r
c t
g et
i t
o r
a m
p u
i c
a n
i d
in g
a r
as s
en t
u r
e d
r o
Ġ "
p e
Ġ n
a p
Ġ s
Ġ );
at e
Ġ Ġ
er t
t h
c e
r e
l ic
u l
es s
b lic
pu blic
Ġ (
( );
S tr
t e
Ġ v
" ,
( "
Ġ c
y pe
M ap
am e
Str ing
Ġ )
p t
d e
i l
e w
u e
I n
ass ert
es t
r et
ur n
a b
T ype
a d
is t
l ass
i f
ret urn
" );
it y
Ġ t
q u
c h
s e
o id
o l
ess ion
E x
m ent
Ġv oid
e l
ab le
i m
pu t
ct ion
E n
Ġn ew
o m
Ġ p
ul l
N ame
s t
v er
Ġ f
am es
at ion
R e
in t
Ġ e
() .
l o
pt ion
C on
u n
th is
qu al
a g
al ue
n ames
in al
names Map
qual s
u m
er s
il d
o o
u p
x t
ul t
En t
S t
s et
r id
a ct
p r
Ġ b
e ct
O ver
Ent ity
Over rid
o de
i z
Ġn ull
E quals
Overrid e
i g
c k
assert Equals
f inal
ce ption
P ar
o d
Ex ception
ĠĠ ĠĠ
Ġ m
o t
u t
c lass
a y
P ro
C lass
i b
T r
en d
i v
Ġ get
L ist
er y
b j
r es
ad d
L o
I d
tr y
Ġ o
t er
Ġ d
u ild
Ġ S
Ġ 1
Ġ +
Ġ String
bj ect
Ġt est
o ur
ro w
c o
() );
or y
F i
C ol
Q u
e y
p ert
Ġ in
p l
le ment
T est
Ġ *
A r
Ġ 0
te xt
i al
im e
at a
el d
Ġ -
a v
O bject
an s
R es
ent ity
0 0
act ory
pert y
Ġ th
st an
re ate
C h
T o
Qu ery
() ,
) );
e m
ct ed
g er
uild er
f or
F actory
at or
q l
M an
r i
ap p
u te
Ġ !
M et
co pe
our ce
V alue
le ction
Ġs t
it er
an d
Ġs et
in d
Ġ= =
Ġ l
Tr ans
T ime
a ction
iz e
ro m
D e
St ate
um n
O f
as e
le an
om p
Map p
Ġv alue
tr ib
u b
h od
en er
B uilder
ag e
f a
oo lean
r ay
Ġ res
S et
c on
K ey
F or
[ ]
al se
s tr
f er
I m
c al
D ate
Ġ J
Fi eld
s ession
ers ist
p ro
Ġe x
S e
at h
Ġ re
Con text
c ri
Trans action
Ġ a
T h
or t
Mapp ing
o un
ag er
at ch
s er
Ġ <
pr ession
A n
Ġ! =
t o
trib ute
U n
Ġ i
S ession
A t
Ar ray
am et
Ġ tr
c reate
Ġs ession
Ġ j
av a
Man ager
Ġ int
Ġp ro
p ar
Ġc on
T able
a in
n ew
v ent
iv e
le ct
a ch
Ġ id
Ġ- >
Ġ is
en ce
it h
stan ce
o in
Ġ w
up er
Ġ entity
n e
c ess
on g
Pro perty
cri pt
i r
e x
O r
app end
ĠĠ Ġ
Ex pression
Ġ) .
B y
de x
Col umn
iv ate
r iter
E lement
Ġ 2
d b
Ġp ar
Ġn ame
el se
amet er
is it
Ġ C
< ?
row s
pr ivate
db c
P ath
D es
Met hod
if i
Ġres ult
Ġ h
at ic
Ġ H
D ata
s s
o w
u s
Ġ :
a ck
S er
Ġ P
Re g
ĉ ĉ
Ġ lo
ial iz
d er
M ode
Res ult
I N
on e
Ġ B
te m
b er
n ot
Ġt ype
In te
N ull
q m
Date Time
à ¤
Ġ this
it e
E R
At tribute
) .
Col lection
Inte ger
i a
e am
o f
u ment
m o
pe cted
Ġf alse
ad er
at ed
p er
o s
n ame
e ck
E m
v e
Ġb oolean
oun t
en g
un ction
v ic
S T
g ger
cript or
ro up
Par ameter
al u
er n
fa ult
eng th
Tr ue
Ġst atic
f i
Ġ M
ig n
a c
g e
p ort
m at
Ġth e
Ġ A
Des criptor
et ch
Reg is
E vent
assert True
ess age
s ize
i es
d ate
Ġth rows
State ment
p le
um ber
ers on
W ith
d it
l a
l er
te cted
vic e
Ġ T
u st
o c
Ġtr ue
u se
Ġ }
ar t
S ource
y p
N ot
U p
Ġt o
al l
ur ation
Ġin stance
A l
pro tected
at ive
Ġ D
Ġ Object
th row
g y
c cess
<? >
k ey
) )
alu es
Lo cal
a k
s uper
e e
O N
C omp
t ain
t est
qu ery
Regis try
Ch ild
stan t
p lement
et e
G roup
ption s
Ġc ol
ib ern
ibern ate
in Transaction
Re fer
f ig
ur e
le g
ach e
m l
Ġ de
ct x
u f
J oin
f o
J ava
e c
Ġc h
ad ata
Ġs cope
In ter
S ql
Ġ 3
Ar g
c ase
C ount
as h
N ode
c l
ifi er
yp es
create Query
v alue
P r
and ler
d d
e xt
a x
Ġpro perty
get Name
Ġ I
it ion
ur r
en c
c om
not ation
ar get
a ce
" )
assert Th
Str eam
Ġ '
Par t
J s
Fi le
Ġinstance of
assertTh at
re e
N umber
as t
ial ect
ust om
o ut
& &
In dex
Ġ x
G ener
ing s
M essage
Session Factory
A R
oo t
il l
Ġm et
v ert
l ength
Ġf rom
e ar
l y
F rom
L ong
C om
s h
Ġc reate
r ess
in e
B ind
n er
re g
riter ia
ar y
p ersist
Im pl
A L
as ic
ent ifier
P o
T E
im ple
Im plement
s cope
Ġ ar
Refer ence
() )
i as
In it
h er
Ġl ist
S cope
Ġ r
in k
f set
Par ser
ar d
Ġ g
u ct
o p
A ccess
Ġc atch
For mat
r ap
Ð °
Ser vice
al id
A dd
tr act
r on
u le
e quals
" ;
h t
i le
th er
or d
F unction
Ġs tr
O ne
get C
L E
a il
Ġo f
Up date
T I
Ġ ctx
ch eck
e g
Ġ add
T ree
P re
Ġ ?
Implement or
Par ent
In fo
w t
f rom
Ġ else
P ersist
mo ve
En try
up port
Ġe m
ce pt
J dbc
urr ent
H andler
t ype
l ist
u g
fig uration
ter n
Ġs e
M E
Ġ or
y n
Ġt able
A ss
Ġex pected
Ġ F
Re f
Ġ &&
ers ion
Ġ al
C ode
S ub
Z one
Ġn ot
u dit
Ġf or
N ames
d o
ill is
Arg ument
Ġ) ,
Ġ query
get Id
Ġf inal
pr int
qu est
R E
Ġ Ċ
y s
Ġv isit
De fault
A s
B e
Init ializ
N ative
An notation
con d
pt y
un t
Lo gger
) ,
se lect
y le
f ind
ub le
c omp
Ġ 4
D E
entity Manager
im al
+ +
Met adata
on ent
lo g
ed ic
Res ource
fa il
O n
t es
y te
O ptions
b oolean
an ge
la use
o ck
C ache
oun d
à ¦
r or
i p
I tem
lo w
a f
Ġ Entity
re ation
Ġ return
In s
Se lect
List ener
F etch
A N
n ull
c ol
R oot
end er
F alse
R O
1 2
Man y
Ġ |
In stance
on th
edic ate
S E
ro ot
ur al
Ġ at
leg al
T ypes
get Transaction
Re ader
r ite
W id
Ġcon text
Ġe xt
\ "
l legal
pe c
S qm
c lo
Lo ck
or e
assert False
C lause
an g
Ġ key
end s
vert er
Ġ en
Ġc lass
Ġ public
for m
ode l
Ġ un
de l
Ġcol umn
< /
T ext
In t
O per
V isit
tain s
iter al
c es
} ;
Or der
Id entifier
V alues
* *
Ġ an
Ġmet hod
Ġ Array
Ġ if
b ack
Ġf i
Q L
Ġ{ @
1 0
p a
ĠS qm
b ed
" ));
p re
res ult
Ġ >
Ġ Un
Ġ @
S ize
U t
to String
Mode l
Re quest
os ition
s ion
ow n
le ar
Con figuration
O ut
cal e
g r
ĠH ibernate
SessionFactory Scope
E r
f in
S h
g oo
V ersion
By tes
ql Parser
ustom er
a z
Java Type
bed d
Ġ L
Ġpar ent
re ak
m et
ĠĠĠĠ ĠĠĠ
D ay
x y
Ġ N
m it
D ialect
at tern
is ion
om ain
C E
Local e
M illis
B asic
ist er
her e
Se lection
Ġb e
Lo ad
Ġar g
v id
à ½
ig ht
re ad
fi x
l l
ar ed
â µ
Not Null
Ut il
ut ion
p lic
ne ction
g wt
ate gy
Po int
get Type
Ġentity Manager
er i
ic s
c ed
Ġc omp
Ġs ql
o uble
Ġ G
am ed
c ode
q ue
v oid
Of fset
Em pty
> ();
Ġ List
Ġo bject
Ġfi eld
r en
Ġext ends
00 00
i re
H H
g le
ys tem
Un it
St at
Ð ¸
St yle
it em
ar e
Ø §
and ard
p lo
A udit
E N
rap h
Y ear
ol o
uf fer
C all
: :
Com pl
plo y
l ong
Ġ on
av ig
ifi ed
t ml
En um
l ink
W riter
Ġ Exception
pert ies
er m
our ces
goo gle
R ow
L iteral
get S
Con str
Entity Manager
ex ec
i ent
H el
L O
avig able
ate ment
olo gy
del ete
Ġp ersist
ax b
ic al
ron ology
Ġ* /
ul d
con tains
St andard
od ule
fi eld
an t
/ **
An d
Ġ DateTime
Add ress
b eg
im it
Con verter
Ġj dbc
Pr edicate
Gener ator
Re ad
Ġs ub
O R
re move
for e
oo k
( (
o uld
pe ct
ex pected
S pec
R et
u d
clo se
plic it
oc ument
Ġe lement
Lo g
M L
Ð ½
Ch ar
il ter
el l
Initializ ed
pl y
an el
vid er
Ġ Class
F r
Wid get
ac le
In stant
Con t
s ub
T arget
> \
L e
pl ace
Al l
0 1
Ġ 5
s um
an ce
Ġin dex
c lear
pr ess
l n
av e
b reak
am p
á Ģ
à ¥
Ġc om
Ġj oin
le m
ch em
U R
tr ue
Ġs uper
af e
Ġ( !
Ġat tribute
Ġ| |
Ġ root
Ġch ild
] ;
mo te
i ew
A p
Res ol
h as
w ner
Str ategy
u ite
put Stream
á ĥ
ĠJ s
eri od
P l
Pro xy
A T
D is
par am
Ch ronology
Bind ing
print ln
Ġ im
b uild
Ġ 6
ne xt
Ġe vent
chem a
ut ation
Set t
Ñ Ģ
V alid
assert NotNull
2 00
ĠS et
s w
ash Map
op y
Hel per
lo gger
upport ed
com mit
S imple
Argument Exception
llegal ArgumentException
r app
Al ias
Table Group
I D
Ġ y
lo ad
ut able
By te
f oo
ar i
c atch
iz ed
Oper ation
Ġ R
str act
ib le
Tree Logger
ir st
N o
A f
in ator
Ġ [
lo ck
k en
ap ply
ĳ Ħ
ist ics
Ġd o
gr am
ð ĳĦ
ig inal
v isit
Ret urn
Ser ializ
reg ister
I s
able d
us h
p or
avigable Path
cri ption
Er ror
de v
exec ute
ol ve
P erson
lo at
leg ate
Ch eck
v ision
De c
To One
Persist er
Ġv alues
Ġs er
Ġ Integer
Em bedd
M onth
P A
b m
De cl
Comp onent
ut es
ak e
if ic
riteria Builder
Pro vider
p en
a int
Ġm ap
Ġp re
az y
i k
Ġ X
Ġlo ad
l ush
H tml
S up
b yte
qu ence
Ġj ava
ee k
I S
Con tract
> (
Ġ V
ol der
pt im
s ing
Ġ1 0
Ġpar se
fa ce
c a
Ġf etch
Or acle
Ġcol lection
U ser
ĉĉ ĉ
ent er
Ġ Th
Ġsession Factory
amet ers
U T
in dex
Pro cess
Column s
T Y
. .
f unction
able To
Ġ as
Ġm app
ro ll
U E
tain er
O Exception
o st
Class Type
p on
u al
Field Type
T em
im est
d uct
i que
ag ment
imest amp
ar n
w rite
B ase
Ġs ource
A st
up le
S cript
am odel
F oo
C H
m ap
l es
st art
v el
Ġs h
ĠP erson
S ame
str ing
ĠArray List
th rows
D el
ploy ee
C O
Util s
pon se
ð Ĳ
unt ime
ch ar
M in
j ava
Ġo ther
Ġ W
à ¸
Ġb y
co unt
P anel
str eam
Lo ader
at ure
Be an
Ins ert
Ex ec
C ase
ult i
co p
} );
v al
Compl ete
} ,
de fault
ar g
Service Registry
an y
t able
Ġ( (
d ata
Ġ Collection
ack age
Test Entity
o x
i ation
P attern
To Many
Pro perties
f alse
Ġset Id
Dec imal
" ).
Ġ item
H qlParser
Met amodel
iter ator
ac cept
o ther
Ġd ata
Se cond
B oolean
Ġ end
at ural
S S
D ouble
u ser
Visit or
3 4
r im
Ð µ
ol d
it s
á ŀ
par se
par ent
D ir
Ġg ener
à º
la z
St art
à ®
in it
Ġb uild
Ġw here
Con nection
Par am
Ġst art
Child ren
om e
get Class
reation State
B uffer
G raph
execute Update
s ource
P osition
get Entity
Th e
à °
b stract
B ig
Ġ Map
Af ter
met hod
r ed
à ²
G et
ial ize
S QL
W arn
Field s
Ð ¾
ific ation
V AL
v alid
cop y
à ¬
Ġal low
is Initialized
s ql
Ġst atement
D omain
T H
Ġd ate
Ġde fault
ĠB ig
à ª
get Jdbc
E dit
E ach
ab el
c urrent
Ġt arget
do In
H ibernate
assert Null
00 0
ch ild
at ab
Ġb yte
w ith
On ly
D ocument
Complete Exception
atab ase
pl ay
Ġst at
ableTo CompleteException
N amed
yn c
Ġo ptions
Û Į
() ));
Ġtr ans
iz er
Ġn ode
Par se
Ġ 9
il ity
enc ed
i o
N on
Ġ O
Ġp erson
g reg
f t
set Parameter
ire ction
Ġl ong
Ù Ĩ
I ter
ate g
Time Zone
sum er
h s
Ass ert
Ù Ī
Ġen try
atural Id
Sup press
th e
S ystem
7 8
or k
for mat
get Result
pro perty
od y
Ġmet adata
M A
ing le
b uf
if y
u i
get Value
T R
Warn ings
Attribute Mapping
Ġin it
o k
à ´
le cted
S p
Ġtr ee
o g
Qu al
Ġre fer
C T
] );
cept or
++ )
De fin
Ġre g
uct or
à ¨
or re
int er
Ġallow ed
S ign
b e
P E
as k
A TE
por al
ar ch
Ġresult s
St ack
Embedd able
r st
s ert
1 1
not ated
U L
m b
En abled
â ´
Ġd ialect
Ġor der
Ġ Test
VAL UE
b ug
Fi rst
rapp er
m in
Be fore
v ed
Sett ings
Ch ange
Ġlo ck
d u
S afe
Ġ %
Ġd es
row able
Stat istics
Suppress Warnings
C lo
in ary
Ġp ath
laz z
Ġd is
ĠC omp
Format ter
D uration
Ġw ith
beg in
5 6
A ME
Ġ In
Ġ /**
od es
Ġs qm
e ign
Con stant
w h
ĠUn ableToCompleteException
C opy
Ġlist ener
Pre fix
ock et
Name Map
em ber
Ġth at
V iew
Ġo ut
er ge
e lement
Par ameters
h ibernate
s ed
y ear
ĠS er
H e
Ġpar ameter
set Name
Ġb uilder
append Sql
A B
ach ed
J ClassType
d ay
Ø ±
Ġint er
J pa
U N
col umn
Edit or
< >(
H older
w ord
c rim
vice Registry
ing State
R ule
j s
s r
( '
is h
pect or
To ken
2 0
ĠI OException
Ġp r
b ar
Array s
ST AN
c re
is Empty
re f
Ġlo gger
Ġ Long
d es
Inter face
ut o
P eriod
id e
V ari
Ġ er
trib utes
c roll
her it
getResult List
f f
ash Set
lo cal
p h
ab ility
ĠS ql
Re vision
a Key
S uper
Ġ z
an n
e vent
d is
For m
am ple
ĠJ dbc
] ",
IN G
N O
le d
Ġ2 0
or der
] ,
á Ī
ðĲ Ĳ
L azy
os ite
Fr agment
k er
session Factory
Ġ An
Ass ign
Ġse lect
Ġal ias
w riter
J PA
ing Context
Ġ E
it ies
ĠS QL
s upported
Ġo pen
p erson
en sion
Ins pector
Con tainer
L A
F ilter
ash Code
TI ON
C o
M P
re place
Resol ver
D et
Mapp er
comp are
HH H
Del ete
Ġex pression
B ar
Ġ Type
IN STAN
Ġpar am
S I
> )
Ġ3 0
greg ate
Constr aint
Ġt ime
crim inator
TI ME
up date
Ġof fset
C riteria
Ġc all
Ð° Ð
Ġc urrent
g n
get Key
ir aKey
Con sumer
par e
Ex pected
ĠSet s
n own
H bm
Re mote
L ength
or m
ĠJ ava
g ener
Native Query
b ind
INSTAN CE
ud ent
s b
Ġn ative
3 0
Em ployee
act ual
M odule
res ent
m and
s ave
Mapping Type
Ġpersist er
En d
n o
1 5
it ch
- -
ĠH qlParser
dit ion
B uild
Ġentity Name
ver sion
oc iation
value Of
enc y
get N
Ġf irst
T uple
a w
( -
J Method
o le
Pro to
Se quence
Of Day
Ñ Ĥ
Ġm essage
Table Reference
Res ponse
Ġor iginal
UR L
j dbc
i er
ared Session
W eek
c ord
pre c
A g
Ġch eck
Ġf ind
> ");
p end
final ly
Ġstr ing
] .
M atch
p ace
M ax
Ġh as
à ·
Inter ceptor
ĠI llegalArgumentException
Cont ent
Constr uctor
Des cription
H our
M od
Le vel
I f
Ġs ize
Persist ent
get Instance
beg inTransaction
S u
con t
ateg ory
ch ron
Audit Reader
v ir
Iter ator
axb Hbm
get R
aredSession Contract
F loat
Ġ text
Defin ition
A D
O wner
Im age
< >();
F ound
ag ed
l ine
en ers
ĠS imple
L I
ĠĠĠĠ ĠĊ
con text
Ġin stant
v alues
Ġ row
R I
Ġo bj
ĠS ession
end ar
ss ue
Ġsh ould
ann el
t arget
get Property
ĠB asic
F ail
Ġd p
{ "
I ssue
l ast
t y
S uite
à ¶
Ġ ass
Result s
Ġmapp ing
Reg ion
Col lect
> >
al ias
eign Key
D own
For Issue
C al
Test ForIssue
k a
I llegalArgumentException
Ġ _
b uilder
m app
Ġar ray
ced ure
Method s
aredSessionContract Implementor
T ER
N AME
Ġa c
L ine
ation s
Ġ Ð
at es
l ient
Entity Name
à ¼
EntityManager Factory
k nown
t on
M ulti
à §
act er
entityManager Factory
E qual
f lush
pl it
Ġ1 2
Ġ Property
Ġopen Session
F I
as List
j oin
o use
c ur
or g
res olve
Ã Ń
ar ray
il ation
Ġo wner
ort ed
Bind er
Ñ ģ
s g
ge om
ver se
ip p
C K
Ġres olve
Valid ator
Type Registry
ind ow
fi le
C ell
P AR
h e
H ashMap
R ange
Ġ Date
ri ver
Ġj s
pl ate
C ON
un d
D O
Ġre v
Cont act
B lock
Ġ Query
Ġv ersion
re mote
Ġc ount
Ġvisit or
H as
l et
en try
Ġ{ }
assert Same
il er
lo b
' ,
vir on
get Sql
viron ment
Ġ le
sw itch
C ustomer
r y
9 9
Ġ Context
C A
S ocket
T ag
f g
ĠP ersist
get Element
T imestamp
ut ton
em b
sh ell
Ġ 7
v ail
vail able
doIn JPA
à¤ ¾
Ġim plement
Ġ Standard
Ġproperty Name
reation Context
m atch
Model Part
w rap
A bstract
Ġjava Type
est ed
Lock Mode
In putStream
Inter n
Ġ &
u th
f irst
S O
Class es
TE ST
it le
Ġf actory
Ġb ase
Class Name
Sub class
on t
Ġde legate
tr ans
Entry Point
b o
n i
Ġn o
H T
Se lected
En vironment
P erm
Ġf ile
Ġget AuditReader
; ",
b it
á Ĭ
t x
Ġm ake
Co ord
X ML
Ġ old
V E
in stant
ag es
remote ui
Ġ Local
wh ile
S n
Ġ File
Ġtable Group
i e
st atic
S ources
3 2
Ġlo cale
upport s
Initializ er
a use
d t
st atement
imit ive
Ġlo g
m ar
ay out
Ġw h
Ġ and
Ġ K
M y
Qual ified
ab les
P h
D atabase
U S
ĠS e
UT C
ca de
o b
Ġl ength
Join Column
B inary
it or
Of Year
at ing
ver s
7 6
l d
Ġan notation
f etch
Ġa Number
In ner
yn chron
M utation
p ath
W T
As ync
Ġ" ,
Ap p
Message Proto
Remote MessageProto
A ction
Ġc ache
Mapping s
Ġo ver
as cade
X ml
Ġ ed
L ink
at al
Ġset Name
ĠJ pa
9 8
ect or
an ch
B id
G E
P resent
Ġc riteria
à¼ ĭ
Ð º
Jdbc Type
c an
Ġ 8
LO G
p ret
er r
do uble
Source Info
urr ency
Ġfor mat
ution s
P ackage
Ġse cond
Pro duct
get SessionFactory
F A
x ml
ist ing
Not Found
Bind ings
n ode
pro gram
cre ment
C ap
ĠS h
Key word
Sh ort
Ġf oo
ĠArray s
C re
Ġ user
Intern al
P ER
Ġm in
ut or
Ġarg ument
Call back
Coord inator
tr ation
M I
") ,
Con trib
ĠSQL Exception
enc es
.. .
id get
x stream
l ator
Ex t
Char acter
O ptim
Ġc lazz
Ġ4 0
Ġ actual
ĠString Builder
C an
Ġex ec
get Message
à¥ į
Ã ¡
form ation
Stat us
iz ation
function Factory
Ñ ĥ
y a
At tributes
A c
Ġn ames
R ender
" }
ON E
B ound
Part ial
Ġser viceRegistry
se cond
atal og
Ġre ad
H and
y mb
m y
Ġ tem
r l
Constant s
ializ ation
col lection
L imit
set State
in fo
Test Suite
An notated
S cale
if act
pro to
Ġa ccess
Out putStream
i ct
ur l
fer red
Out put
ire ct
ymb ol
} .
Ù Ħ
ence Context
C reate
Operation Exception
Wid th
ĠHibernate Exception
orre ct
L ast
T A
Decl ared
" .
Ġc riteriaBuilder
Mapp ed
N ext
Ġ q
2 3
M ock
Ġ" .
Java Resource
B ox
V is
Ġ append
at tribute
Ġ+ =
Ġl ast
l ang
Ġ Re
Ġe lem
c er
ro p
Gener ated
s uite
Ġch ar
' :
Arg s
Oper ator
Safe Html
l ag
am ic
able Type
tr a
Ġf unction
Script Object
Ġn umber
For eignKey
vailable Settings
St or
Ġun it
Or ig
\ \
AB LE
s ure
m an
t s
Ġb ind
ĠĠĠĠ ĠĠĠĠ
Big Integer
á ĭ
Pro cedure
l ural
A Y
p s
Ġc ode
ug gy
E d
S chema
supported OperationException
Ġp osition
l ation
ĠBig Integer
A ct
Table Name
Ch ang
prec ated
C ustom
get JavaType
w n
Type Name
A m
i an
check ed
sub string
Ser ver
Ġstat s
local ctx
t a
T O
m onth
Ġ" '
Ġd et
b y
ug ht
ment s
DateTime FieldType
Ġadd ress
Result Set
K E
B ody
Ġarg s
untime Exception
c ation
i ate
Com mand
im ary
R ole
un ique
Im plicit
in sert
C reationState
M e
ail s
irection al
W rite
Ġc an
Super class
Ġ apply
register Keyword
a a
j ect
Ġ ;
A X
j iraKey
am b
par ator
proto buf
Ġc ustomer
Ex tract
Con fig
add ress
Many ToMany
0 5
h ashCode
w er
yn amic
n umber
C urrent
H int
ay be
ĠH ashMap
im um
at er
ile d
Ġc opy
ay s
Comp ar
str ap
Ġcon nection
U rl
am ing
Source Name
Ap i
1 4
Ð ²
oot strap
L abel
k ip
Ġt ypes
p o
get Pre
0 2
O ption
Ġcomp onent
uth or
Byte Array
Sett ing
Vari able
0 3
G ER
o ptions
er e
â´ °
ipp et
Ø ³
de bug
S upport
Type Code
y c
Ġ one
list ener
Ġ Child
Collect or
Ġc b
Ġ Parent
Ġex ception
Con dition
Ġ Metadata
Ġlo cal
Many ToOne
v ok
Ð° Ð½
M O
rapp ed
Ġdo es
à µ
um an
ServiceRegistry Builder
ĠBig Decimal
= \"
Ent ities
Ġres ource
N T
Ġ{ ",
ĠB oolean
ĠA udit
Ù ħ
M ar
p c
Ù Ĭ
á ı
Ġre f
m erge
Sn ippet
Ġ U
Ġpersist ent
i ction
Ġid entifier
r ender
Read Only
| |
or iginal
Ġer ror
W h
i ed
É Ľ
Ġh ave
Ġ Mapping
L ib
Res ources
F ull
et ry
h our
Ð »
String Builder
Ġ" <
St atic
orm al
6 4
P os
Ġ< /
Ġre move
m odel
t ypes
ializ ed
m t
I gn
Ġ Event
RO R
d iv
il es
Pr imitive
Ġcon figuration
in put
ER ROR
E D
In formation
alu ed
Ġm an
ĠH ashSet
C ast
UL T
1 6
er ies
ct e
Re move
is Assign
ce ll
Audit ed
ĠP eriod
Serializ ation
Ġ ab
State Exception
<?> )
get Query
à¤ °
M M
Ġ> =
C ss
1 9
De precated
Ġ' "
r un
Contrib utions
F O
m utable
cl ient
Ass ociation
Process ingState
Basic s
un checked
Ġres ol
à¤ ¿
Decl ar
e om
Ġd t
Property Name
Comp osite
Build ingContext
get Default
Fail ure
Ġ it
Serializ able
ĠJ oin
ĠM ock
Th rowable
B atch
N aturalId
C te
Ġs b
an notation
One ToMany
Ġ[ *
poral Type
_ .
b ase
erm ine
Big Decimal
t ime
G wt
get Parent
Ġm odule
Ġth row
Ġcon fig
c orrect
Ġh e
set Id
Ġin fo
S croll
T im
En h
Ġg roup
Ġend Visit
bit Field
pr es
em pty
V alued
Ġd omain
od er
E E
add TestSuite
c ate
y les
Ġ IN
To p
Ġn ext
able From
I T
get Annotation
Ġre ader
ĠSession Factory
A S
N um
N avigablePath
W rapper
m ake
Ġpro cess
set Property
Ġcon vert
Ġstr eam
Read able
MA X
b ox
Ex p
ack er
Ġimplement ation
N ew
Ġ te
Ġpro du
vic es
ĠEntity Of
press ible
Ġgener ate
ingle Result
D B
à ¯
st at
Ar t
Pl an
get Column
FA ULT
= '
Ñ ı
gener ate
get Child
ol low
M ember
b s
W indow
Pro gram
Ġex tract
i ol
In g
Ġ Expression
Ġ Number
De f
pro cess
0 4
P ass
ver ify
ST R
ĠA vailableSettings
en u
Inter val
Gener ation
Ġr ender
Ġf r
E X
O pen
in herit
Ġ< <
Ġh andler
A d
To ol
ĠA bstract
Argument s
yp ed
r anch
lic y
Ġc reationState
Ġe quals
Spec ification
A uto
Ex pr
Regis tration
Ġover rid
W ork
w here
Ġclass Name
Tem plate
Mod ified
I C
us ed
TY PE
c ore
B utton
ess ages
(" <
ern al
O T
HT ML
llegal StateException
in ue
o ver
ic k
met adata
App ender
Ġn avigablePath
RO M
get Millis
Ser vices
U s
Ð ´
row ser
A A
M utable
R el
Ġ action
Ġ Order
Un ique
ĠTh rowable
Po st
of fset
Sql Ast
c ap
D iv
id d
E S
EntityManagerFactory Scope
v iew
ã ĥ
x ed
à ³
ution Context
CO DE
Parse Tree
Ag gregate
0 6
par t
Ġw riter
R un
Trans form
pare Statement
NotFound Exception
isAssign ableFrom
Ġex it
12 3
D oc
O F
8 4
m illis
Ġs sr
compare To
Ġ Annotation
lic k
ul a
Ġw rite
getS ingleResult
S ON
V ar
ron o
Vis ible
Join s
al ker
bo ard
w o
Ġ enter
Th read
B its
I G
Ġ \"
V al
á İ
ĠP r
field s
Ġm ax
U M
Ġin sert
L ayout
Ġ Employee
ĠC ustomer
Pl ural
OR M
Ġse lection
Dis criminator
ĠPersist ent
Bid irectional
Ġ /
is Equal
re fer
Ġem bedd
View er
A C
un k
Object s
à ±
an i
Embedd ed
S upported
io us
Ġrefer enced
la ce
( _
I OException
M IN
S ort
Pro du
th ing
is on
Trans lator
Ġ assert
ĠX ML
1 3
g ed
Tr ace
Ġ1 9
Met a
ĠCollection s
Art ifact
i ated
Pr imary
Le ft
ializ able
ical Name
o bject
Ġst ate
Collection s
Point er
Ġrefer ence
Sign ature
L ang
Ã ©
add Snippet
Man aged
tr iction
Ġresult List
ĠT ree
E T
e b
v ious
c ision
Ġ ret
er o
Ġs imple
Select able
Ġtype Configuration
" ))
D om
ic e
<? ,
ary Table
ĠUn supportedOperationException
() ).
Refer ences
D river
get Field
St udent
Ġl hs
' );
Ġcon t
ier arch
Re place
Ign ore
Expression s
Ġ Table
getId entifier
á ī
ĠM y
He ight
F lush
Ġ[ %
> ()
get Statistics
Qu eries
ĠJ axbHbm
Ġp h
Re cord
DateTime Zone
CON D
Ex pressible
Key s
Ġpro gram
Js Type
Ġv alid
ist s
Refer enced
à Ń
Ġ Locale
ro und
Ġex isting
Ġcon str
CH AR
Q ue
Ġ k
Se arch
Criteria Query
Cre ator
Lock Options
roll back
sh ot
Ġm atch
' )
. ",
v let
Ġ Builder
ap shot
Class Loader
Ġ Column
C lient
Ġf ilter
Of Month
f r
u age
St yles
Ġ User
an e
Q U
D ig
Ġin put
get Session
Ġload ed
cal l
Up d
B o
at form
Id s
Fr ame
W rap
In put
Ex plicit
Re qu
U se
Data Point
inherit Doc
doIn Hibernate
Access or
ðĲ ĳ
Exec utor
LE CT
An y
Ġm odel
N aming
Cal endar
iv ed
Ġ1 00
B U
c ast
fin ish
ff ect
Ġf ollow
Ġpar t
cont inue
par ameter
of t
O wn
add All
U i
Ġm sg
Ġprodu ced
ist ory
ir ed
Null Pointer
NullPointer Exception
P RO
ing Mode
e at
de legate
ĠM ath
Clo se
O ther
Ġ Element
Ġf ound
Ġm od
à¤ ¨
Ref Ed
Param s
Ġac cept
E lem
V ector
Ġpro perties
ik e
( ?
Dis play
Ġ u
ĠR untimeException
unique Result
Ġ[* ]",
ex pression
uf fix
Ref Ing
) ));
J Type
is e
u de
¾ ");
Str uct
ch ed
im pl
Id entity
ĠM utable
d a
n ect
t p
() [
N eg
j a
Con tain
Ġentity Descriptor
Ġar e
w ork
Ġstat istics
f l
s With
t d
m ax
er ged
Det ails
S ER
Ġ url
Im port
ul ar
em ant
Comp ilation
Po licy
Ġ Enum
Ar ia
Ch annel
Ġst yle
Gener ic
m od
tr ies
Or d
mapp ing
D D
Ġ enc
get Children
L L
Ġ update
<?> >
De legate
J axb
h n
is sion
H ashSet
O M
De pend
Sh aredSessionContractImplementor
Ġle ft
Ø ª
7 4
ion s
Ġre vision
w eek
Pl atform
Chang ed
l ay
in ish
_ _
r it
er ror
En g
lo cale
Ġo ptim
Im mutable
V ER
h andler
ĠĠĠĠ Ġ
Ġx ml
++ ;
ĠSh aredSessionContractImplementor
ed s
S H
12 34
200 4
ĠF etch
Produ cer
ment o
and le
ĠT em
Annotated Class
D o
Ġ Identifier
c ache
oun try
Ġbe an
Return Type
Ġo per
ĠD ouble
O O
Parameter ized
sh ould
ed Type
on es
Su ccess
Map Key
has Next
D irect
P C
Ø ¨
isEqual To
ac y
o hn
In d
Year Month
pu sh
sing Type
m a
Sp an
J axbHbm
M T
g roup
ag gregate
7 2
s imple
à «
Ġ+ +
for Each
p atch
p os
In valid
N odes
s p
key s
Ġs chema
Ġ! (
getC riteriaBuilder
TI VE
getType Configuration
KE Y
Ġv er
Ġse quence
ME NT
l and
r c
e ature
r a
par ser
Ġselect able
emb ers
Col or
Day s
m odule
dis play
Eng ine
ĠB ind
Que ue
H ql
Ġp attern
Ġpro duct
; \
Ġde cl
Select or
T ab
z one
Ext ension
Ì ģ
Ġ" "
up d
Lo wer
ĠS ystem
C riteriaBuilder
add AnnotatedClass
ys ical
V iol
Ġd ouble
() ))
arg s
pareStatement Count
id th
el f
Statement Inspector
yc le
B A
in stance
char At
le ase
Ġc l
ex pect
Column Name
getPre pareStatementCount
) ");
e lem
Ġset Up
M ouse
all back
Transform er
pu te
SE T
Ġw idget
Hour s
o y
Ġto String
ĠTh is
Ġdet ermine
C I
S ymbol
. ");
u ch
Ġlist eners
fin ed
tr ace
get Attribute
Ġcon verter
Lo b
Domain Result
entry Set
C N
Item s
valid ate
l ated
Ġre quest
âµ ī
Log g
Dir ty
ow ner
Sqm Expression
Of Week
Inter pret
Ex it
Ġb ar
ĠI tem
SE LECT
N ested
Ġ ad
Ġex plicit
Sh ould
Load ed
ĠJs Context
Ġpr edicate
ĠSql Ast
M is
p osition
fi re
Event s
Ġch rono
Index ed
Bound s
Z E
p ackage
cl us
CH E
Ġdes cription
w are
p attern
Second s
B rowser
St ore
Un able
ĠA dd
ĠD uration
o bj
Ġc al
ca pe
w a
Ġm ust
At t
SessionFactory Implementor
He ader
d ialect
Un known
IN T
U P
Ġ Time
) ",
0 9
o te
pu p
ĠEntityOf Basics
K ind
get Text
Ġc ustom
getC urrent
N E
Ġh ql
ĠI SO
ug g
comp ile
á Ł
ed Statement
ac es
ht ml
B uggy
In line
Ġ à¤
Ġ geom
get Collection
Ġ LockMode
ch ange
Ex port
r u
con vert
des cription
C l
Ġ? >
DE FAULT
Ġ Y
ex tract
i ance
oc us
Ð° ÑĢ
w e
c ustom
y m
2 4
set Value
od ed
pro duct
Ġtrans action
RefEd Entity
Ġ Con
tern ative
in correct
Ġcall back
M ut
c at
re ader
ĠD ocument
Ġreg ion
Ġ cte
Ġb uffer
cl ude
After Each
rapper Options
Ġs pec
Ġab stract
y y
A bs
b ody
e v
lag s
Ġb asic
end ed
Element s
sum e
ance ment
Domain Type
i ver
Ġl en
to Array
get Qualified
ro le
sh ort
âµ ı
Ġgener ator
getEntity Name
F IN
Ġb uf
con fig
Pr int
One ToOne
UL L
ĠAdd ress
Ġ qu
List eners
Ġreturn s
contains Key
ĠS afe
Comp iler
Ġload NameMap
S ingle
e et
ĠI llegalStateException
v oc
par edStatement
load NameMap
ence Unit
RefIng Entity
= =
D irection
Perm ission
v ar
Ġd ir
Ord inal
D I
get Mapping
index Of
Min ute
f ilter
Row s
g raph
t ag
× Ļ
ol l
un it
ĠL ink
visit or
Ġ Value
Resol ution
Extract or
r no
s ome
Ġt uple
ĠAn imal
Ġ For
if fer
Ġreturn ed
1 8
C ascade
S kip
ed Procedure
st yle
H istory
Ú ©
Query Spec
Path Source
Ø§ ÙĨ
Ac count
G WT
(" }
Ex pect
set Default
ĠC ache
ĠF ROM
RO OT
) "
Ġ Z
op en
Ġlock Mode
; ");
L D
Ġ Node
ot ed
Parameter Bindings
Statement Interceptor
Ġfinal ly
err Handler
a j
er ic
String s
ch o
Ġr un
Ġchild ren
S C
Ġ Default
an ced
Ġn amed
Ġs ign
Ġp o
Min utes
voc ation
Ġ us
Ġ use
Null Value
200 6
U ri
Ġ Field
get En
Map s
ĠT ypes
ĠObject s
RE AD
ynchron ized
en ant
or ies
Entity Descriptor
Ġtest Get
Ġl azy
Ġpre fix
sr c
M enu
Ġ Embeddable
Ġset t
Ġl ine
Names pace
Ã ¨
Ġ Product
. "
C reation
P RE
į ");
un wrap
Array List
2 2
d l
i res
In crement
se mb
â Ģ
AR N
ĠSer ialization
Act ive
a ir
r am
Ġde l
Load ing
Ġfield Name
ist in
sh al
amb da
Declar ation
get Service
[] )
vers Service
S plit
emant ic
L ON
Ġs ort
Event Listener
ugg est
A re
an on
Ġcon tainer
Ġtable Name
re ated
Ġt ag
ĠS chema
à¤ ¯
out File
L ook
d et
ist ic
Ġout put
O P
In herit
Ġtype Name
Connection Provider
Form ula
W here
as on
Ex tern
Entity With
Ġh bm
Al ign
ĠG WT
ed By
SE COND
Compl iance
Ġreg is
istin ct
ĠS ub
Ġin vok
getC ache
Ġpersistent Class
B ook
M ask
S orted
b uffer
Join Type
Viewer Request
G eom
co gn
Ġy ear
F inish
l ate
Res triction
Comp ile
à¥ ĩ
ĠJava ScriptObject
o ptim
à ©
à ¹
Ġ( "
ĠMapping Exception
Ġb ook
Ġset Parameter
ST A
Exec ution
D ATE
D ynamic
m on
Time out
ust ed
Ġcolumn s
0000 000
start sWith
B ack
C ategory
c ustomer
Id ent
) ";
F iles
get Local
ing ular
ab c
m essage
Ã ł
im port
create NativeQuery
Ġquery Part
met ic
Ġdis play
4 5
Pro p
C TION
it ive
ith metic
ex it
Instant iation
Tem poral
init ialize
Stor edProcedure
m aybe
o e
get Style
get First
del ay
Version ed
Revision s
Bo th
ĠJ axb
ex ception
ĠEntity Persister
a iled
Entity Persister
v Mode
Ġ" );
ced ence
# #
b lem
Ġpar ameters
SI ZE
à§ į
e k
tr ol
up lic
ak art
As semb
IS O
month OfYear
Ġ Contact
tr ee
tr oy
an imal
Ġres Bytes
Get ter
s ign
Ġp lural
res ource
Lo cation
Test Data
Ġto ken
Annotation s
Ġdate Pattern
Stack Trace
à¤ ¸
Out er
Link ed
Ġw as
Ġthrow n
c c
ut il
Option al
7 5
Ġn um
Qual ifier
Lower Case
d ir
Ġ Native
et s
ĠM ar
Sql Selection
Ġem ployee
Ġtime Pattern
Look up
get SourceInfo
Ġa Bytes
rno Exception
ar Down
akart a
P er
s ync
ap i
Ġs n
Ex change
Class Decl
JoinColumn Bidirectional
Ġs upports
ĠD ialect
Number Of
0000 00
7 0
Ġc ast
ri e
Basic Type
child ren
Ġtrans form
Ġ" </
Ġ< =
C lick
Ð ¼
ĠJ Method
Ġa f
Th is
An n
F inal
f d
From Clause
Ġnode Builder
Rel ation
d own
assert Parse
ĠF oo
Duration FieldType
assert Annotation
ol ute
Ġtest Set
cl ud
Js on
. </
E s
P age
st ate
Ġm onth
o u
Ġget EntityManager
ĠSe lect
idd le
addSnippet ClassDecl
ser ver
DateTime Format
Statement s
Ġreg ister
Optim izer
Dig its
ã Ĥ
Ġser vice
Ġman aged
ched ule
getMapping Metamodel
u id
Ġext ension
ĠN amed
get Table
Ġt s
ĠP lural
oc iated
Me mento
Ġ{ \
ch annel
res h
pl ier
Ġtable Reference
7 3
b l
Ġ ing
at ag
Path s
Ġembedd able
Viol ation
. *
j e
res et
Query Part
Ġresult Set
yn th
Extern al
atag ram
Ġan y
EN D
78 9
Ph one
Wh en
Ġc a
B it
Z ero
Ñ ĸ
av in
Ġtr eat
Ġj iraKey
ĠA ss
à¤ ķ
Multi ple
i ator
Ġte arDown
= "
P ut
f loat
Ġ Attribute
Ġ Byte
fa ces
1 00
C reationContext
Ġ Root
get Factory
ri or
Ġr Bytes
Ġno thing
Tim ing
T yped
Ġattribute Mapping
Ġer as
statement Inspector
STR ING
L eg
P O
h el
Ġn on
Ġ2 00
ker Type
annotation s
Ġs uite
DO M
s ystem
od ing
res ol
To Copy
à¦ ¾
debug f
2 9
7 9
F eature
H ost
Ġ all
ar ing
comp onent
getSql Queries
ĠSessionFactory Implementor
C tx
Ã ³
De vMode
Perm utation
Ġn e
Des c
Hand l
5 5
Ġ" -
Ġs rc
arg ument
Ð ³
Ġ ign
Ġm illis
ot al
Java ScriptObject
ĠW rapperOptions
Assemb ler
Õ ¡
to LowerCase
Ġmapp er
Ġaf ter
F ont
c ent
visit Children
m e
m ed
w idget
Ð ±
Ex act
De bug
Ġargument s
Ġ TableGroup
Count s
Ġby tes
Both W
c riteria
à¤¾ ");
Ġresol ved
X ref
ce iver
Se parator
Stream Reader
Y E
e p
× Ĳ
at ible
Ser vlet
Ð¸ Ñı
Simple Foo
Ġparam s
BothW ays
get Node
For ce
Lang uage
T itle
s ive
get Offset
Con vert
key Set
Access Type
~ ~
List JoinColumnBidirectional
Ġ} ,
Ġ} ",
Declared Type
ParseTree Listener
i x
To uch
Th row
ĠF loat
Ġbe fore
Ġinit ial
ot t
Pre cedence
Er rnoException
Ð°Ð »
P ol
s qm
et ion
de cl
ok up
ability Exchange
get Path
get Metadata
Ġres ponse
Ġfor m
Ġinter face
oft ware
Test Finish
Ġre place
A M
Ġd ay
Array Type
Ðµ ÑĢ
J Expression
Ġin te
append er
Js Name
Ġz one
lob al
W N
Ġd b
ĠD OM
Us age
delay TestFinish
B M
get Chronology
cont ent
ê ķ
Join ed
à½ ²
Ġ Configuration
Str TestEntity
Ġun ique
ca ught
/ /
Ġ{ "
Ġor g
Ġfr agment
s ide
ĠComp onent
B as
ed Value
res Bytes
pl ied
con figuration
Ġfield s
getN avigablePath
Mock JavaResource
on ed
as String
Ġh tml
Com mit
Ðµ Ð½
Direct ory
B ootstrap
F F
p anel
Ġm any
Js o
Ġsql Ast
Ġ" +
Call able
Ġa udit
Com ment
Ġr s
ĠEntity With
s upports
Ġ cell
get Target
ĠĠĠĠ ĠĠĠĠĠĠĠ
[] {
Out Of
Max imum
pres ent
> ";
L Y
Pro file
con nection
Standard ServiceRegistryBuilder
Ġstatement Inspector
Ġen um
Valid ation
Ġ Int
if f
ig h
lean up
Js ni
LOG GER
ĠSerialization Exception
F T
n um
s plit
get D
assert BothWays
Col l
Local DateTime
rior ity
f low
is Instance
Ġlock Options
finish Test
Ø ¯
er ialize
Ar ithmetic
Before Each
RI TE
An al
Ġpro p
ang es
get String
ĠS T
ifi ers
Ġoverrid e
b ook
Î ±
to p
LA SS
E l
le ft
an a
ur i
" },
m any
Con trol
Ph ysical
p th
s afe
Ð ¡
Ġn aturalId
Ġp ackage
Ġnot NullValue
Compar ison
n a
s ort
Ġp ost
à¦ ¿
Ġkey s
Ġass ign
Ñģ ÑĤ
Mapped Superclass
l ess
en sure
pt ed
Ġdis criminator
Enh ancement
E ur
mo ved
getC anon
Ġcomp any
Ġjdbc Mapping
Ġjoin Columns
Cal led
C oder
get Time
Ġc ached
Ġb oot
Ġo p
ST IC
áĥ ĺ
Ġ[ "
in ation
id n
Ġv al
Ġt imestamp
Ġcon tains
Cache Mode
read y
hour OfDay
" :
m sg
v ari
untime Metamodel
Stor age
untimeMetamodel s
m ulti
end ing
Join Columns
getQualified SourceName
ĠLink ed
J ta
Ġ iterator
or ian
ĠP ost
Ġcan not
Tool s
board Selected
×Ļ ×
L en
W RITE
is Same
ĠP re
J ohn
c lazz
h bm
S ome
b ers
Ġd atabase
pl ac
ĠJ ClassType
Order By
d p
t imestamp
in Session
Ġpro xy
ĠI ter
Ðº Ð°
Flush Mode
u x
Ġm ember
Fetch Clause
Ġmethod Name
LO CK
Named Query
Compilation Unit
u k
et ic
getC ause
ĠSer ializable
ÃŃ l
$ $
R aw
n d
TE GER
DB C
Ġc ause
Ġp erm
à¤ ²
Persistent Class
Compar ator
F Q
Ġs cale
AR R
s chema
O p
um ption
Ġw alker
Function Registry
Ð¸ Ð½
áĥ Ĳ
HqlParser Listener
ĠHqlParser Listener
P lace
U B
c ator
É Ķ
à »
ption al
ind ent
Ġto p
Sub Query
por aryTable
"} ");
Of Hour
Ġw ill
Check er
trans action
c ret
ĠD E
Ġim age
' "
P T
im age
ig ger
C fg
H ER
Ġ" ]
Ġf ail
Ġca ught
T L
al es
Tr acker
bind ing
s or
Null able
Ref lection
Ġget Or
Root Panel
Ġcont ent
Ð ľ
al f
ed Entity
Entity Graph
Not Audited
Ġstr ategy
Select Statement
ph one
-- --
Ġbind ing
ĠMetadata Sources
ierarch ical
G u
M essages
O bj
P k
f actory
Ñ ĭ
Ġ ,
Ġ role
Re ct
res enter
Ġ1 5
stan d
FQ CN
int Value
um my
Ġcreate Native
t ers
Ġ Resource
get Root
iv ity
à¥ ĭ
Ġ Method
Ġp os
Ã¨ de
e qual
Type Check
ĠC O
refer enced
ott om
idn ight
b ranch
e es
Add Log
ploy er
Persistent Attribute
Ġ aggregate
goo d
Compl etion
D AY
ar ator
Ġt x
En tries
ĠD om
LE FT
result s
B Y
O b
T ask
p op
Ð ļ
Ġs p
Ġs upported
Or ÃŃl
Ġ3 1
ORM AT
, "
ul ate
Ġc lo
Ġt itle
Ch unk
ĠUn it
und le
ĠBind ing
S ide
b asic
Ġ TestEntity
Entity Type
ĠP AR
Stat s
rim ary
Ġgener ated
Ġsn apshot
I ST
r ag
de f
Ġ1 1
Ġcolumn Name
ĠL abel
Ġexec ute
' t
ach er
Å ĭ
Ù ī
Expression Resolver
Pr inter
out put
Ġclass Loader
Ġon Success
M AL
T ables
res ponse
ĠJ SON
Year s
p w
Ġget Class
Ġc ase
ay er
Ġst udent
Ġj axb
SQL Statement
Ġwh en
Link er
u it
get Format
get Version
am ount
ro l
ĠC om
Re build
Ġset C
G R
get Dialect
ex ample
ac cess
Ġinstance Of
log f
LO B
ateg ories
Duration Field
ĠJava Type
i ya
et ed
Ġs te
a it
as c
ĠString Buffer
our se
ri ka
{" +
I L
ator s
Ġ| =
ĠLocal DateTime
F ocus
U I
Ġ LockOptions
class Name
getJdbc Type
c ss
d en
an k
Ġcon tract
ear ch
Ġan notated
Ð¾ Ð½
day s
Ġinvok ingState
imal Rebuild
clo singType
Ġbuild ingContext
ynth etic
HER E
I TY
Ñ ĺ
get Method
con nect
ĠMap Key
R untime
Ġcon tain
File Descriptor
Char Sequence
Simple Entity
M on
T wo
Ġ ErrnoException
ĠD omain
reg orian
Ġpersist enceContext
200 5
OutOf Bounds
r and
res ources
Trans ient
Part s
âµ ĵ
ass emb
Ġp k
Ġm erge
List s
EN TI
Ġfetch able
Su ch
cur ity
imalRebuild Cache
6 6
YearMonth Day
Abs olute
D rop
m p
Ø ¬
id entifier
[] []
ĠC al
Ġg raph
get Properties
re port
Ġc lear
if t
Ġget Version
co un
Index OutOfBounds
Naming Strategy
stand ard
7 7
E ST
G L
p x
Type Oracle
Ġal ternative
ĠDateTime Zone
Can not
istic Lock
A Entity
N G
ĠS AX
to ken
Ġj pa
enc ing
Ġstr uct
Ġquery Spec
Sp ace
Ġtime out
PAR EN
g ress
t ual
pro perties
to ByteArray
Ġ' \
AL I
ynchron ization
Render er
× ķ
Persist enceContext
Ġy ou
Ġother Entity
day OfMonth
5 12
n avigablePath
in a
Join Table
Ġpre pare
áĬ ķ
B i
V A
t ed
le vel
Ġs up
st udent
STA MP
, ?
P K
get L
Ġm e
ĠJs on
Valued ModelPart
N a
m s
get F
à¤ ®
Local Date
à¥ Ģ
Serializ er
we en
P riority
c ard
m ember
et ween
Ġn ormal
Ġe qual
Ġm aybe
Fi xed
With out
uf f
J DeclaredType
R ight
Ġ Transaction
(" \
Update Count
Ġcom ment
SQL Exception
MP TY
IndexOutOfBounds Exception
M ath
U sing
in es
is Active
Assign ment
àµ į
ffect ive
Mut ability
getCanon icalName
V AR
d ent
l ight
Ġm ain
Ġat tr
Formatter Builder
C RE
M idnight
S uffix
Ġ Parameter
ap ter
Ġb ut
em ory
je ction
D AT
M ore
b in
al e
int ernal
Ġpar ser
ĠH ierarchical
Month s
C lear
C LASS
E st
es cape
Ġc ategory
ializ er
Up per
Clo b
N e
ed Class
Ġp l
St mt
con sume
Of Minute
apply Setting
Ġpre vious
SS I
Ġconstr aint
Ġ1 000
Not Present
Local Time
Ġem pty
ys is
Change Event
Primary Key
3 9
N ULL
Ġm utation
Ġen abled
Int f
Alias es
laz y
cur sive
Ġ". "
Ġ Name
Ġ" ";
st it
Ġre qu
Ġim pl
Fragment s
I llegal
T ABLE
Ġ qual
For Dialect
ach ing
Ġh ashCode
let on
Contain ing
Leg acy
Ġ URL
tr im
Ġp resent
ĠS ource
Ġor acle
AT OR
B u
en s
get P
Ġp eriod
Select Clause
Ġan imal
ook ie
Clo sed
LL IS
C U
get Descriptor
get Declared
In to
Ġre l
Reference Type
BU G
s By
re quest
(" ",
Ġx stream
DE D
getJdbc Mapping
vok e
Gwt Locale
Ġextension Registry
S A
n amed
Ð ĳ
Ġ #
ic u
Ġnames pace
pres enter
I con
J Field
h older
Ġb atch
Ġ2 3
ac ity
AR Y
Metadata BuildingContext
R PC
ur sor
Ent er
Ġh our
getType Name
Ø§ ÙĦ
Ġpre cision
Ġgeom etry
4 8
ert ical
Ġc ity
Ġc atalog
RE F
Selection s
ik a
UT F
ĠSimple Entity
mar k
ĠTem poralType
resol ved
B E
C ould
S elf
b a
d omain
p p
Ġ ()
Ġv ar
assert Not
Ġr hs
from Transaction
Ġsub class
Ġ6 0
ĠAudit Entity
ĠSafe Html
i ja
m ain
s cript
ib core
Reg ister
ĠB ook
af ter
Ġjdbc Type
Orig in
stat s
g re
min ute
Ġdes criptor
Vari ation
getR untimeMetamodels
Geom etry
C atalog
N ONE
l abel
Ġ Path
ing Data
ar m
Group s
Socket Address
MI STIC
part ment
get Reference
get Sub
re cord
field Name
ðĲĲ ²
Skip ForDialect
ĠCal endar
2 5
Ġ NullPointerException
Ġl ive
ResultSet Mapping
Layout Panel
D ON
F R
ifi able
all y
Js Function
LE MENT
getEn closingType
o pe
Ú ¯
Con version
ĠString Helper
Or After
sh all
Second Pass
ĠPeriod Type
Ġvalid ate
V I
Ġex ample
ends With
Style Name
Min imum
assertAnnotation NotPresent
: //
t ion
Ð ·
Ð Ĳ
Ø ¦
Ġs earch
(" -
Init ialize
TI C
OR D
Ġbyte Offset
orre lated
iler Context
Primitive Type
cret e
t itle
Ġ \
); ",
Ġc lient
de code
Qu oted
At tr
Expression Context
Al t
Ġat tributes
pre fix
getS imple
ĠClass Loader
LA Y
getField In
2 8
G A
or iz
Ġget Value
Ġres ources
ĠH uman
à³ į
oriz ont
0 8
C odes
Ġ1 3
Ġcomp osite
TR A
CA CHE
ĠgetOr Create
O UR
S uggest
t tp
en ame
Ġd oc
Ġh andle
Ġfor eignKey
Requ ired
ires Dialect
Are a
N avigable
Week s
Persistent Collection
FI X
Ġign ore
B ag
F il
h ashMap
Ġ Em
or ph
or ld
Ġs ystem
Access Strategy
pre pare
ENTI TY
P H
R anges
s te
in ner
get Body
get Referenced
un c
Ġd ocument
Ġinstant iate
Ġass ociation
à¯ į
S emantic
Ġ De
Attribute Source
be an
Att ach
M erge
ĠP h
Inte gr
ĠLocal Date
Depend ent
w as
set Current
Ġl ink
Time Millis
Ġlo cate
com pute
Row Count
SimpleFoo Proxy
isSame OrAfter
B J
n on
u blic
en um
Un expected
ĠT ext
sql Appender
property Name
ferred Data
ARR AY
W I
Ø ²
er ived
ĠL azy
Ġattribute Name
ĠStandard ServiceRegistryBuilder
getJavaType Class
R pc
Ġ Request
Ġs ome
Of Second
plement al
Ġelement s
Le af
Ġdate Time
orizont al
ent ities
st ack
set C
Un supported
Function Descriptor
200 2
Ġed itor
r ics
Ex ists
Ġf d
Initializ ation
function Contributions
red it
Logg able
vari ant
a h
n ative
Ġc reationContext
oun ter
Basic Types
Ġy a
W rapped
im ation
Ġget Property
Ġl imit
reg ion
PAR IS
Ind ic
clus ion
H it
et Address
Type Configuration
Ġget Default
Test Service
ser viceRegistry
Ġw idth
Property Initialized
Ġaccess or
Chang es
Run Async
Ġfollow ing
ĠMutable DateTime
OO LE
A TION
B O
s croll
Field Name
new Item
tern ate
AN D
Condition al
ĠNumber Format
fl u
S w
Ġ iter
Ġ Environment
En c
Ġget Chronology
Ġd uration
enc ers
Order ing
áĢ º
Ġdes c
flu encers
et ime
or Version
end or
Session Implementor
DateTime Utils
Parameter Xref
yn t
ðĳĦ ´
Process or
Ġz oo
I O
o v
s m
String Buffer
Ex tra
pl ates
Ġth ere
em bedd
Ġh older
TE D
Cache able
Sup plier
â´° âµ
> "
S K
m m
Ġ TimeZone
get Expression
ic h
Ġb reak
Ġh int
ht tp
ance l
wh en
config ure
uplic ate
A uthor
ch or
Dis patch
Ġappend er
ru pted
argument s
new Instance
Attribute Name
ang ed
Ġcom mand
mar shal
l hs
Ġm ode
Ġget Name
ĠH tml
8 2
Ġ `
Ġ Zone
(); ",
Ġtype Oracle
Am ount
al low
lo cate
An no
Annotation Present
que ue
ĠBasic Type
in te
ic le
se lection
ĠC ustom
Ġac count
iffer ent
h andle
Ġs cript
Ġp rimary
ild card
Ġin side
des troy
Constraint s
ierarch y
call back
A U
comp atible
EN CE
match es
Cre ated
s k
set Text
[] >
Ġpro vider
reation Process
source Info
ĠLocal Time
Parameterized Type
OOLE AN
O UT
c urrency
Ġn a
By Id
DateTime Field
Add ed
à¦ ¨
ĠStandard BasicTypes
âµī âµ
U ID
Ġb Number
0000 0000
Ad apter
sp an
C ached
N C
N ER
re qu
In vocation
Ġb ox
ĠH andler
Long Lib
Ġor ig
DE BUG
ê Ķ
at etime
Str ict
set Description
Se curity
Audit ingData
mapp er
("} ");
Force Inline
re vision
Ġp anel
Ġentity Persister
Ġto Return
find Type
** **
EN T
MO DE
Na N
B reak
I E
Ġ Data
em ployee
Unique Key
fr agment
B R
J SON
d st
d rop
Û ķ
Ġ{ ");
cal ar
per i
ĠM essage
ĠT I
++ ]
ĠSqm Expression
Ġsub query
Ġconfig ure
àŃ į
Pre cision
Order ed
Ġhe ight
j ar
is NotNull
Ġc reated
Ġm ar
entity Name
Ġre al
Ġpr int
TA G
w idth
et work
ic ode
Ġc ur
Ġin ner
Ġa uto
Ġwh y
Ġph one
oned DateTime
C AL
U int
b ad
n ia
á º
en i
ct or
Ġc ar
il i
Ġm erged
con str
ĠG eom
ploy ees
Ġver ify
rie ve
A GE
E LEMENT
in i
in ce
ĠJ akarta
ĉĉ ĉĉ
TE S
ĠG ets
Ġinter ceptor
ĠAn Entity
F k
P L
Ġc ss
ol ator
ĠJ Type
ition Exception
Hel lo
Ġinit ialize
Ġmod ification
ĠISO DateTimeFormat
cogn itionException
b Id
p ost
s o
t l
(" </
Con tains
ut ed
con verter
ex plicit
type Oracle
Mutable DateTime
Interpret er
T D
c reationState
Ġ up
get Resource
Ġs orted
Ġ1 4
Ġcomp are
current TimeMillis
og i
Binary Operation
à½² à¼ĭ
Overrid es
Set ter
Mapping Document
ĠB ar
ĠT arget
ĠN o
getS uper
lush Mode
ĠW ARN
init ialized
Inherit ance
S ingular
d oc
m d
s u
Ð ¿
get Component
Ġw rap
Pr ivate
out dent
Ø§ Ø±
he ight
Cap abilityExchange
hel lo
ĠgetOrCreate EntityManager
2 01
S Y
Ġ( ((
Met rics
Ġa uthor
By Name
plic ation
ĠTh ere
CO M
Non Null
Ġfollow s
ĠThere fore
' ;
0 7
F K
J O
at tr
is Supported
get Widget
ch ive
end Visit
Ġl abel
append Child
Ġ} ;
Ġ4 5
Ġon ly
Ġinit Data
Period Type
ĠSql Types
DD L
Ġsett ings
F lag
T enant
c fg
Ġ EntryPoint
Test Set
Ġa Scale
mo ck
Stream Writer
Function s
ĠDateTime Format
200 3
Ġoper ator
M embers
s cale
get Owner
Ġe v
Ġd iv
[] .
An t
art ifact
eg in
ĠDateTime FieldType
à· Ĭ
he ader
Ġexec utionContext
aa Entity
A G
d c
w rapped
à ¾
en able
Ġm y
Jdbc Values
getEntity Descriptor
H alf
Ġs w
Em ul
Has Data
ĠAss ert
ĠIter ator
$$ _
Ġ Character
Ġn ow
Ġ1 6
ĠB uggy
Sub graph
Ġjs ni
Identity HashMap
Õ¡ Õ
A SE
E CT
c um
m al
Java Script
persist er
comp ilation
Ġ5 6
build Metadata
UN T
Requ iresDialect
WI TH
C urrency
L at
Ġ upd
in voke
CO MP
ĠW HERE
He ad
SSI MISTIC
2 34
M ult
W alker
W eb
o pt
le x
Ġc q
In fluencers
To Entity
File Name
erm inal
IS H
Ġdefault s
Proto col
Logg ing
YE AR
ĠPAR SER
ĠTI ME
M o
y z
Î ¹
get Database
Ġs f
pl ural
For Update
Ġh ash
ON TH
Ġload My
Ġoverride Map
C L
M al
V er
t en
v m
Ġs um
assert UpdateCount
ay ment
Ġin crement
Inter rupted
ĠL ON
Char set
Ġpackage Name
P ublic
is PropertyInitialized
get Parameter
get Fetch
get PersistenceContext
re lease
Or iginal
Gener ate
por ter
ĠloadNameMap Native
5 9
A F
B ad
H ash
pe ek
de que
In verse
Type Descriptor
Ġcon sumer
()) ,
wt ypes
Ġal t
à½ ĵ
Fr uit
ĠTh e
orre lation
Ġle vel
Render ingMode
Meta Data
ra wtypes
ĠloadNameMap Java
loadNameMap Java
Hit Count
) {
p i
in ess
get Revisions
Type Names
set The
Ġget Query
ĠC ss
Ġr aw
from String
fore ign
by tes
à± į
loadNameMap Native
ĠloadMy NameMap
" @
b inary
c ce
get Length
ser vice
Column Names
ĠM on
ord inal
Function Context
Lock ing
ĠTest Suite
Ġcall ing
Upd ater
I P
Î ¿
Ġ RE
re al
Tree Node
Pre paredStatement
Model CreationContext
Ġ(! (
Error s
Ġtem plate
pc odes
EE K
idd en
ym orph
sign um
K Y
M erged
S um
Ġ Image
lo or
ant ity
clear Counts
Ġinter pret
ĠJdbc Type
B undle
W e
l iteral
n ested
Î ½
00 1
Pre view
ĠX ml
Content s
PER TY
Generation Context
Ġoptim izer
ĠTime OfDay
B IN
M S
r aw
Ġv iew
Ġb ody
add Descriptor
à¤ Ł
Stream Exception
Er a
sql StatementInterceptor
LON DON
I t
get ServiceRegistry
and id
ong Name
Selection Model
Log ical
Ġalias es
Collect ing
he ad
Mutation Query
clud ed
S R
Ù ¾
is AnnotationPresent
get Address
im ate
Test ing
Sql TypeCode
12 8
56 789
des c
Num bers
Search ed
Ġdel ete
boardSelected Row
f us
s end
Ġ Converter
ST MT
áŀ ¶
Match er
Ġregis try
) ).
4 0
h ql
at able
ic a
IN NER
User Type
with Zone
B us
J Program
Ġget Dialect
Query Influencers
Value Mapping
con tainer
[] ,
ĠA c
ĠD is
ĠV AL
Fail s
R untimeException
Ġ St
get Jpa
get Last
Ġ" :
Ġ" \
Ġf k
Path Entry
sing leton
Inner Class
eric a
peri od
8 9
I R
ro ss
Ġ" \"
Class ification
pro p
ĠA ccess
ĠD ynamic
copy Of
year s
Module Name
getInstance UTC
Interpret ation
ĠPh one
B lob
L C
P air
h ip
ä º
Ġ Widget
est ic
Res et
UR I
OF F
Ġequal To
get Item
get Description
ing Options
ed State
Ġp er
pr edicate
Man age
Ġl iteral
Ġl ik
Not Empty
Arg Handler
enc ies
Number Format
Init ial
Ġr ight
Ġg wt
Sub query
Sqm Path
ÛĮ ÙĨ
Ġinte gr
( @
X Property
× ¨
set t
to Return
Ġw ork
Ġun known
Assert ions
Ġrow ProcessingState
Ã ¢
Ã º
Class Literal
Fetch Profile
Ġcomp ile
Ignore Case
Bas ed
setCurrent Millis
( ",
> </
B uf
B ranch
D rag
E G
get Absolute
ation al
Ġ4 2
Ġen h
ĠHibernate Proxy
Ð¾ ÑĢ
getJdbc Services
be fore
áĥĲ áĥ
ynt ax
C t
C ursor
a Sign
Ã ¤
Ġ ce
Ġw indow
sh ared
Translator Factory
( \"
E v
J A
Ġ Instant
or age
act ive
Entity Entry
Part ition
ÙĪ Ø±
2 1
J td
DE LAY
ĠPersistent Class
U SE
b Number
Ġ" _
Ġd rop
Ġa Sign
ĠC riteria
do Test
Metadata Implementor
Anal ysis
G Y
Y LE
c s
s pec
Ġ DataPoint
pl us
Ġl ike
ST YLE
Ġde fined
Ġim plicit
ÛĮ Ø§
Parse Exception
Sn apshot
StoredProcedure Query
Ġperm utation
id ent
th en
un g
ĠS E
type Name
Ġen versService
param s
Div Element
c ity
d uration
i j
l ayout
á Į
Ġ Chronology
get Values
de fined
Ġf loat
Ġd st
Ġre ason
Un der
ly ing
ĠLong Lib
Render ing
Collecting StatementInspector
. <
c ategory
Ġ ~
Ġ Key
ce ive
Ġb Bytes
Ġm ulti
To String
Ġa aaEntity
ĠA sync
TableGroup Join
e q
get Start
co ver
At om
Column Reference
Po pup
vid ed
Char s
Ġmodule Name
Ġhe ader
Ġconstr uctor
N an
N ORM
Õ «
Ġ Ch
is Before
get Bytes
im ension
Native Event
LO AD
Generator Context
Instant iator
ĠSer viceRegistry
MI LLIS
Own ing
Ġenc lo
ĠDuration FieldType
ĠSelect able
ĠAssert ion
2 7
a Entity
c reationContext
d om
f ound
get CollectingStatementInspector
int o
Ġw rapped
IN FIN
Comp any
Inter faces
ĠVAL UE
INFIN ITY
N I
om et
lo cation
)) )
test er
Resol ve
Ġsh ort
TER N
present ation
W rit
Ġ Exit
an cer
Un supportedOperationException
Js Expression
Hand le
E MPTY
N UM
Z ER
Ġs ame
ce ived
Ġt z
ch ase
Th an
Ġde f
ðĳĦ ¨
Ġtem poralType
Exp and
ĠPr edicate
Ġpart ial
000000 01
TestSet Validator
P S
] ));
d river
p k
Ġ ByteArray
Ġs u
Un ableToCompleteException
Sql Appender
Ġse parator
Tem p
Ag ent
ForeignKey Descriptor
Manage ment
8 8
n ow
ir tual
Ġfetch Parent
Ext ended
month s
Cte Statement
PRO PERTY
assemb le
C D
I M
c i
m ary
get Hours
or ed
ed itor
Fetch Builder
col lect
read Object
Ð¸ Ñĺ
enter Outer
ĠtableGroup Join
enterOuter Alt
> ",
Ġ Statistics
Ġ" /
(" @
ut ome
Lo cator
Qu ote
ss r
table Group
Ġinter val
DomainResult CreationState
\ ",
Ã ¬
Ġn utome
ul Id
Ġget ter
Builder Impl
Array Position
Ġid s
Ġw eek
Ġentity Id
à¤ µ
eri ka
Mar kerType
ĠJoin Type
Print Writer
C ounter
t wo
String GenerationContext
con dition
à¤ ¤
Ġun wrap
Ġjoin ed
Tag Name
Procedure Call
addSnippet Import
B ER
O s
get Index
Ġ" {
add ing
à® ¿
Ġformat ter
atagram Socket
minute OfHour
5 4
s orted
t n
get H
Ġ" ",
Ġf ailed
add Attribute
Ġtest Property
Ġh el
ĠT imestamp
col or
init ial
inter op
ĠTest Tools
dis criminator
NO T
Wrap Field
Maximum Value
H BM
W ARN
b oot
l en
get Second
Ġtest Constructor
Ar chive
Descriptor s
Jdbc Value
Ġsql StatementInterceptor
Tem poraryTable
àº ²
cap ed
S o
W ildcard
Ġ amount
lo okup
Ġtest Is
To Use
Element Builder
à¤ ¡
Part y
reg is
Persist ence
gener ator
Visible Range
Ġdecl ared
Mis s
" };
N A
V ertical
b az
Ġ Token
el y
IN TEGER
Event Type
Ġproperty Holder
Insert Count
greg ated
getN aturalId
over rid
M emory
U LE
c b
j pa
l in
Ġ à¦
Ġ NativeQuery
Ġ Immutable
Ġt ask
Date Format
par ameters
out er
Ġcom pute
prec ation
B OOLEAN
P ort
s ynchronized
Ð ĵ
(" /
ib ility
Ġd river
Trans ition
ĠC fg
Comp are
leg acy
Control ler
TypeCheck Factory
H OUR
X Class
b ound
Ġ Function
it Set
se parator
rid ge
Ġ} \
ĠD oe
Implement ation
áĥ Ķ
Ġy ogi
Tem poralType
ĠO ther
Remote Service
Ġstream Reader
ĠTree Logger
Es cape
R ed
Ġ Lock
Ġ Student
es Not
ent ial
Ġc ap
Ex isting
Ġd est
Array Buffer
Identifier Mapping
sub query
getEntity Binding
NORM AL
N ormal
O pt
S upports
b u
l ing
s ources
able Results
av or
Res ize
Ġpro cedure
DE X
Ġmapping Document
J ar
s chedule
Ġc urrency
new ArrayList
ĠM ulti
Ġun ableTo
ĠR PC
Ġsource Info
second s
ootstrap Context
Eur ope
D erived
i y
(); ");
ist an
Con nect
Over lay
Ġth ing
ind er
Ġproperty Data
à¦ ¯
word s
Internal Name
Act ivity
Declar ing
Neg ated
à« į
ĠSqlAst Node
M iddle
S ave
S ample
r Bytes
u ction
} ",
Ġ Partial
Ģ à¸
in crement
Ġc fg
Over flow
end Instant
Table Expression
Default s
AT TR
Ġmap Key
ĠComp osite
Hint s
oll back
à¹ Ģà¸
Debug Id
ĠHandler Registration
H R
T T
g avin
s ample
Ġs uffix
il ing
Exception s
Ġd istinct
Element Type
à¤ ª
Dis abled
Component s
Sp aces
ĠJdbc Mapping
Det ach
Su cce
Cap acity
man ager
Ġeras Full
ListJoinColumnBidirectional RefEdEntity
M ed
V oid
l ap
z ip
Ġnew Value
Ġp lace
Ġget Type
Ġget Session
Or Null
ĠP o
Access Exception
Metadata Sources
TR UE
C V
C ore
P M
P ane
m utation
int ern
Entity MappingType
av ed
Ġpro ject
à¤ ¬
ĠDateTime FormatterBuilder
Serializ ed
herit ance
Level Cache
Am erica
CRE ATE
F ROM
J DBC
R ound
T W
T yp
h icle
l imit
Ã «
Ù ĩ
Ġ ]
Ġ Î
on Changed
get Year
Ġs croll
Re c
Ġe cho
iz able
Ġfrom Clause
Ġse lected
Ġvisit Children
RO P
UR CE
version Exception
Ġjs on
SO URCE
ĠSe quence
Ġmodel Part
Browser Event
coun try
k e
Ã ®
); ");
ed Node
Ġint f
DateTime Formatter
ĠL O
Del eted
à§ ĩ
áĭ «
stat istics
ParseTree Visitor
optim ize
Typ ing
M X
Ġ Enter
get References
ur y
ed ed
Ġtest Add
Ġint o
ĠD B
Ġmethod s
ĠList s
Ġmapp ed
à° ¿
Ġoptim ize
Align ment
El se
VAR CHAR
bin ed
Nan os
4 2
J Parameter
t ab
t ot
Ġ Visit
al t
Ġs plit
Mapping Model
UN D
Neg ative
ĠAc count
N ature
S aint
is her
Re mo
add ToCopy
Ġset ter
Se ction
cl one
Gener al
AR T
Selection Query
Ġjdbc Environment
CO L
}. </
Serialization StreamReader
Ġexit Rule
Ġenter Rule
gre SQL
il ities
Tr igger
ex p
Ġtable Expression
à½ ¼
Domain Model
Det ail
Binary Operator
) '
A vailable
G B
a i
it es
Ġf ull
Ġ} ");
Ġde pend
Ġch ronology
áĢ ¬
ÑĢ Ð¸
UT O
node Builder
Symbol s
ĠCon versionException
ĠCache Mode
Callable Statement
ur es
ed Bean
un known
Entity Key
Pro blem
Query Parameter
Un ary
ĠB ase
ac count
Ġ3 5
Ġsql TypeCode
Ġelement Type
has Size
Ġstat us
Form s
order By
ĠsetParameter List
uff le
H ashCode
J P
Ġ TableReference
ist ance
pro xy
Transaction Completion
Ġi Field
ĠM utation
ĠT EST
Js Array
Ġmet a
Ġr ange
cept able
Fetch Parent
Spec ific
cre ated
Constraint Violation
first Name
EX P
Styles Builder
Ġdecl aring
Arithmetic Exception
ĠDE FAULT
Atom ic
tot ype
i en
Ġ ArgHandler
get Re
un used
Ġin d
AL SE
Ġimplement s
double Value
ater al
áº ¹
I llegalStateException
S ur
X Stream
j o
get Source
Ġs upport
ul es
Fi red
ĠEntity MappingType
Ġjdbc TypeRegistry
No Such
Exec utionContext
ÙĪ ÙĨ
Jta Platform
Mutability Plan
Register ed
D K
H ttp
i able
n ormal
v as
Ð ¢
Ġ En
oo f
Ġo ption
par sed
Data Access
ĠD atabase
Persist enceUnit
Ass umption
AN A
Log Message
Tem plates
Named NativeQuery
PE SSIMISTIC
Change Handler
ĠAn notated
Enh anced
Readable Partial
getChild Count
Viewer Response
Generic Type
MAL E
sett ings
Ġ escape
get FromClause
ic ro
pr imary
Tr im
Set s
Non Entity
js on
getR ole
Ġwh ile
LON G
ĠMar kerType
Ġmany ToOne
ĠDomain Result
N D
X T
i xed
Ġin verse
Ġin ferredData
An imation
create MockJavaResource
Al ternate
persist ence
Clause Context
ĠL e
Ġbe en
Pattern s
Double Bits
chron o
ĠÐ Ĳ
ĠEnum Set
Ġcl s
iffer ence
Ġsign ature
w ays
get Data
(" [
set B
Th ing
Ġof f
à¥ ģ
â´° âµı
ĠMy Entity
ĠAsync Callback
words Sql
g ment
w ard
is Valid
Ġn ested
Re ceiver
Tr ack
Ġget Test
ĠS ingle
pl iterator
Ġreturn Type
à¸ ²
compare DoubleBits
à· Ĵ
Ġnumber Of
OFF SET
Ð¸Ñĺ Ð°
A E
H orizontal
d ie
Ï ģ
Ġ put
get Status
Ġf lags
add Item
Collection Persister
key wordsSql
Index Of
TE XT
Request Builder
Unit s
LO W
Ap plication
SI ON
~~ ~~
stit ution
áĥĶ áĥ
int f
Ġd id
atch er
à¤ Ĥ
Offset DateTime
getN ext
Ġ12 3
PRE FIX
SECOND S
Ob server
Ġlik ed
B LOCK
L ayer
S te
r ight
pu bl
Ġc o
Par sing
Ġex p
ss ible
sh ow
getC ustom
ĠF r
fin ition
Load able
Le ap
Ġconnection Provider
box ed
Sort Specification
artifact s
ZER O
V M
p Info
Ġ StrTestEntity
ad a
set s
ĠS oftware
entity Descriptor
Or g
Ġcol lect
Byte Buffer
Connection Access
min us
compare Float
TIME STAMP
FI E
ĠSe lection
Hql String
Ġeras Short
plac er
1 7
B l
c ascade
Ù ģ
Ġ" )
il y
Id Class
Ġre lation
Identifier Generator
Check s
ĠTh ing
js interop
Constraint Validator
Ġannotation List
Ã¡ n
Ġconfiguration Values
plemental Info
FIE LD
" <
4 56
C UR
H IST
T Z
r ange
} ");
Ñ Į
Ø ´
ab ilities
if ec
Pro tected
Ġtest Query
Ġid x
ĠH as
RO W
hour s
ĠTarget Type
compareFloat Bits
ifec ycle
3 3
C F
C aching
H ierarchy
S L
l ambda
Ġ NotFoundException
Ġtest Entity
str uct
urr ence
Iter able
Ġass ociated
Expect ing
ux ili
foreign Key
M ain
O D
f ect
r ary
s l
get Test
get FieldType
ar ison
ul ian
assert NumberOf
Man ies
Ġentity Class
ex ists
Ġ' .
select able
pre vious
Revision Type
t id
x x
get Minutes
id x
Ġc pe
Ġtr a
Property Data
from Int
Enum Type
ĠDateTime Constants
Contract Variation
à® ķ
Ġ9 1
det ermine
D istinct
P G
n s
is ReadOnly
tr acker
get EntityManagerFactory
get ReturnType
Ġc ountry
Value Converter
Ġpar sed
Ġlo okup
Ġcol or
Po ol
ĠG wt
column s
DO WN
ĠIN FO
ðĲĳ Į
Restriction s
Ġclo se
Ġalternative Contact
A P
G I
I BU
g en
im plicit
Ġre cord
equals IgnoreCase
ord ers
Ass ociated
âµ ľ
ĠX Stream
ph an
XML Element
anch en
ise lect
open Session
Ġregis tration
0000000 2
getMetadata Collector
Ġprimary Key
3 1
C Y
m ult
Ġ Connection
Ġt ab
Re v
Pro ject
Attribute Converter
ĠEntity Manager
à½ ¢
Ġ[ \
Dec or
GE T
ick Name
mod ifiable
uxili ary
G ender
r ong
Ã £
get Parameters
ur ed
iv en
ne g
IN DEX
ER ENCE
type Configuration
Ġ> >
Clo sure
Database Object
Ġspec ified
Enhancement Metadata
ĠSAX Exception
TRA CE
Ġorig in
We ight
A UTO
C G
Ġc v
assert Can
est art
se lected
Ġex pr
Table With
Property Names
Al low
Int TestEntity
getS chema
Ġ5 0
Assert ion
inter face
Ð°Ð ´
AC TION
DD HIST
Handl ers
ymorph ic
G N
f ull
get Sqm
Of Basics
new line
Ġ2 6
Row ProcessingState
Ġparse From
Insert able
HqlParser Visitor
MA P
NO W
getKey s
ĠHqlParser Visitor
Ġoverrid es
ev ict
Ġne eds
less Session
A Z
B B
L ike
S ite
a u
b b
j unit
Ġ pe
is sing
get FunctionRegistry
am pl
Ġm ock
Ġget Column
ir d
Ġde c
ĠF ORMAT
Ġfor Each
Ap pend
â´ ·
cont act
Ġold Value
ĠNative SQLStatement
Ġtreat Target
à» Ģ
×ķ ×
Interrupted Exception
i um
at tributes
ch anged
el ine
Overrid den
Ġtest With
Ġset Aria
An imal
Ġpro blem
parse From
Rule Context
Ð°Ð ¼
version ed
"} )
Mar k
ĠPr int
Att ached
("} \
clud es
ATTR IBU
F ailed
V G
a os
c atalog
o us
Ġ ui
Ġv ya
Re cursive
For Name
Jdbc Mapping
Ins n
ĠN on
amp ms
à¬ ¿
CT OR
second OfMinute
ĠColumn Reference
Upd ated
Ġschema Name
trace f
Increment al
embedd able
3 6
7 56
F OR
M D
P ack
a uto
an im
Ġget Aria
Ġset Value
Field Serializer
Ġtr acker
Or Update
ge e
As String
Fetch able
SE PAR
Ġcolumn Type
Er as
Exec uted
Ð¾ Ð»
ĠO ptim
Prefix Set
"} ",
Scroll bar
Ġsequence Name
Put Count
D ROP
R TL
b lock
Ġ entities
get Bean
get Loaded
In correct
Ġget Collection
Ġo s
IN E
Ġclass es
10 20
Enum er
Buffer Exception
à· ı
ĠQuery Implementor
Ġfile Name
refer ence
REF ERENCE
E ffect
L T
M Bean
M ONTH
i wa
Ù Ĥ
Ġ Managed
an ia
Ġ" %
Ġn eg
de c
Of Era
At Revision
Parser RuleContext
Check ed
à¬ ¾
(' .
Ġremove Aria
Invalid Protocol
áĥĺ áĥ
Miss Count
InvalidProtocol BufferException
Z A
Ġ CharSequence
get Em
pe at
Ġs ynchronized
ab s
oo p
con cat
Un initialized
Ġpro ps
us ing
à½ º
ĠDateTime Utils
à² ¿
ĠIn putStream
replace Me
Ġdp Orig
ĠPersist ence
ĠJpa Expression
empty List
assertCan Add
à»Ģ àº
> <
C ar
J ReferenceType
b utton
f ul
h i
o ol
Ö Ģ
tr action
Ġget JavaType
De pth
pro vider
persist ent
ĠG raph
eign Customer
Sorted Set
getSimple Name
compatible RemoteService
estic Customer
omet h
SEPAR ATOR
compatibleRemoteService Exception
A I
G F
å ħ
Ġ ampms
str ategy
Ġch annel
ĠF ilter
AN GE
Ġon Failure
load ed
gener ated
DevMode Response
OrÃŃl ÉĽ
OrÃŃl áº¹
( %
A ge
G lobal
U TE
e hicle
ass ign
Re al
Ġe e
Ġtest To
ne eds
Property Value
<?> ,
Tree Item
min utes
Ġsqm Path
ĠDate Midnight
Ġerror s
IG N
Throw n
Upper Case
ometh ing
T C
Ð Ł
et ab
on d
ĠM onth
la h
Abstract Method
po pup
ĠMock JavaResource
Readable Instant
med iate
Ġfail ure
Searched Expression
' ",
9 5
A vailableSettings
C M
D to
S ink
Ð ¹
Ġ Group
(" .
Tr usted
An other
to Identifier
Ġentity Binding
tem p
à¤ Ĺ
Descriptor Builder
Source Writer
ĠI s
Ġstr Factory
from XML
Ġfetch ed
TR AN
Auto Bean
ET CH
Linked HashMap
Ġembeddable MappingType
PO SI
ĠHierarchical StreamReader
G r
P X
R U
U uid
_ ;
r s
s f
Ġ Oracle
Ġ AttributeMapping
id i
ab e
set Widget
ser ializable
Ġi Chronology
Pr ice
list eners
à¦ ķ
ĠSqm Path
Sh ared
ĠR ange
JavaResource Base
OfWeek year
Ġqual ified
Succe eds
C Z
T reated
V C
w w
Ġ used
is Static
Ġs ingle
Ġget Element
add Permission
ĠC urrency
IN FO
ON LY
Ġ' @
Ġan other
Simple Path
Operation s
Build ers
ÑģÑĤ ÑĢ
E M
Z ONE
d ocument
g o
Ù Ĳ
de precation
Re port
ay load
Ġth en
Ġex pect
her man
à¦ ¾");
à½ ¦
EN ABLE
avigable Role
Ġroot Entity
Mut ating
ĠMon itor
B F
D st
F ALSE
G U
j axb
Ġ Properties
Ġ{ -
an o
Ġc leanup
Ġex tra
create MutationQuery
Method Name
Ġresult Type
Com mon
Ġstr eet
Ġout er
ĠRe ceiver
Ġmod ified
ĠBind ableType
B S
F ORMAT
K N
a uthor
add Child
Ġ2 4
Ġem f
Ġal ready
form ed
Row Data
(( (
áĢ Ķ
Alias Base
Sp oof
inter pret
â´ ±
ĠComp any
AB ASE
NO RE
Mapped By
Ġresol ver
Ġ19 72
clus ive
ATTRIBU TE
Spoof ing
3 7
C oded
F lags
N or
P ic
R R
R ollback
W ord
a udit
c n
Ġ To
Ġ rows
Ġp resenter
un ch
Ġm essages
Query Group
ri end
ĠB e
Em etab
ĠD AY
Ġcollection Descriptor
UN K
ĠSql Selection
Ġtem p
AX B
Specification s
etwork Interface
8 6
C R
U A
Ġ State
Ġ Statement
Ġ Editor
Ġ ManyToOne
et SocketAddress
am mal
ur k
set Parent
Ġget Key
Ġd om
To Add
Ġres triction
Transaction Coordinator
of f
mo us
Em bId
ĠentityManager Factory
OR T
ĠV ector
TH OD
UL TI
Token izer
Write Expression
plac ed
assertNot Same
ĠOther Entity
/ >\
B r
C ause
G re
S ynthetic
Ġ Struct
Ġ YearMonthDay
re l
Re moved
Ġh ashMap
ĠB U
à¦ °
Ġfi re
Ð½ Ð°
Pl us
à´ ¿
ph ones
Ġexpression s
Match ing
à¶ º
can ner
getFirst Child
, '
B D
C ent
U sed
b ld
y mous
Ġ $
Ġ try
Ġ Load
Ġ uri
is Open
get Display
am ily
Ġm ouse
Ġin putStream
ĠJ PrimitiveType
Ġlo ader
Null Precedence
check Collection
Ġfi xed
áĢ ¸
TableGroup Joins
Exec ute
getJdbc Coordinator
Defin ed
Cast Exception
Struct ure
Ġlazy Initializer
ĠLinked HashMap
nd i
DAT A
Enc oding
ĠLON G
setCurrentMillis Fixed
G T
g round
Ġ Status
Ġs kip
set Copy
ĠS ocket
Transaction Util
Result Type
Fr action
àª ¨
Ġmapping Metamodel
ĠPersistent Collection
Ġembedd ed
1234 5
main ing
abe led
9 4
M ulId
T ML
Ġ el
ed Tr
re v
ĠJ PA
enc lo
ĠX pp
write Object
uto ver
Build ingOptions
Ġtem poral
Ð² Ð°
chedule d
C ountry
Ġ Implicit
in Group
get Basic
ap sed
Ġf allback
ĠC te
ĠH TML
Attribute Node
Ġpersist enceUnit
01 8
Month OfYear
Process ing
ff ff
getSql Ast
Command s
Mis sing
inte ger
K R
S PA
u a
get The
ad ing
Ġget Identifier
Id Data
Ġst ack
ĠI llegal
Ġr untime
ĠG regorian
function Registry
QU ER
Ġselectable Mapping
Ġregion Name
ĠcreateNative SQLStatement
getAbsolute Path
G en
I Q
K nown
S ynchronization
c ached
s d
Ġ Id
al ert
Ġs herman
assert InsertCount
um ptions
ĠC ar
à´ ķ
last Name
App Usage
tra verse
model l
04 0
Artifact Set
Ġreplace ment
Unsupported AppUsage
BIN ARY
anchen modell
O cc
Ã ¶
É Ļ
Ġ ag
get Columns
or acle
am er
Ġ" ");
ir ror
IN TER
ĠB itSet
ĠT uple
AL L
getC reationContext
Day OfMonth
ID s
bug gy
à¶ ±
Pos itive
mod ified
G Q
J ob
L B
P AT
o ple
Ö ·
Ġ app
get X
ro id
im ator
Ġm embers
add WrapField
Ġint ernal
Ġid ent
Ġw rapper
Ġh uman
") ));
edic ates
Sh ow
à° °
Ġdes erialize
FI LE
Ġannotation s
millis OfSecond
Web Server
! ");
K AR
S U
k t
is Loggable
ic Chronology
ur chase
trib utor
tem pt
Ġcolumn Names
ĠN avigablePath
Address es
sub class
ðĳĦ ļ
Base Type
Ġmetadata Sources
Safe Styles
ĠIn put
Det ached
ĠType Configuration
Bid i
Ġman ager
19 70
AA Entity
Artifact s
Dig it
8 76
E C
M Y
S B
Z Z
Å ¾
Õ ¸
get B
get TimeZone
Str IntTestEntity
Ġget State
and i
Trans port
Ġre moved
ĠH el
ĠM in
ĠA m
<?> []
enc ode
ug h
Resol utions
ToOne AttributeMapping
the Timestamp
Prefix es
Ġmin ute
Typed Query
Ġ200 5
ĠCO UNT
BJ ECT
3 5
C ity
K P
P N
S G
W F
h ost
o per
v endor
id s
re q
Ġc ascade
Ġt enant
Entity Id
Se gment
Ġcon dition
Ġcon sume
Collection Type
ĠA f
LE CTION
Configuration Property
Ġser ver
Ġtime Zone
Num eric
Ġsett ing
ĠBU DDHIST
QUER Y
D iff
K H
S cop
T J
Ġ ModelPart
get Arg
put All
Ġtest History
em p
Ġex port
Ġex ists
Argument Count
à¦ ¼
Ġim port
AttributeMapping s
Ġjs o
Ġ` %
RequiresDialect Feature
mult iselect
KAR TA
E A
K M
L ite
L ambda
N L
N Z
T erminal
v anced
th read
à¤ ľ
ee p
SessionFactory Builder
Jdbc Parameter
ME THOD
Enum s
200 7
Decimal Format
áĪ µ
ĠBasic Entity
CHE MA
Abs ent
ListJoinColumnBidirectional RefIngEntity
decl aring
Est imator
Ġind ic
B L
F ind
K G
M H
l ibcore
o ar
get In
an c
(" ");
Ġb Scale
em o
ĠJ DBC
Registry Lite
Standard ServiceRegistry
Widget s
Resol ved
parse Int
last IndexOf
Extension RegistryLite
Ġassign ment
UB LE
Indic ators
D M
D Z
L V
P F
Ã ¼
in s
Ġt otal
Ġnew Values
set Selected
Ġentity Type
ĠC ategory
ĠB Y
ĠTh read
Ġread Only
Api Class
Ġrequest ed
âĢ Ļ
Where Clause
ĠPlural Form
NumberFormat Exception
Ġintegr ation
TRAN S
M AN
W EEK
Ġ round
Ġs ources
(" {
Exception Helper
Ġget ForUpdate
Ġh ibernate
EN GL
NO WN
à§ °
Optim isticLock
getDefault Instance
IG NORE
Ġ19 00
Platform Api
à« ĩ
Core PlatformApi
ENGL ISH
G S
H U
M K
N F
s c
Ð Ľ
is Array
ad io
se arch
Ġp ass
iv es
ĠS TR
Data Source
ĠA l
Inter op
Js Method
long Value
Row Number
Ġjdbc Services
getClass Name
If Absent
merge From
lay er
UNK NOWN
I l
m ode
n aturalId
Ġ UTC
se ct
names pace
Test s
Query Implementor
Ġst andard
Ġtr usted
Ġ3 66
Day OfWeek
ud io
Ġ5 9
à¬ °
àª ¿
â´ ½
(' \
Ð°Ð ¹
mar ization
Custom Sql
Ġab s
ĠIN TEGER
Ġcont act
Ġoper ation
aj orVersion
B ottom
G HT
T M
W all
c leanup
h ash
s kip
Î º
Ġ ap
en tr
Ġ" (
re cover
ver y
Ġst ore
De que
For Type
ow er
Ġfrom String
âµ ¢
àº Ļ
ĠO ptional
Ġperson s
Ġsqm Join
ref resh
TER AL
Ġversion s
ĠByte Buffer
report Error
Minimum Value
andid ate
then Return
uxiliary DatabaseObject
* -
get T
ass ociation
Ġe ffective
Ġ1 8
Test Class
Time OfDay
ĠJ Expression
Ġre lease
Ġa aEntity
An chor
ĠD irection
dd l
Access ible
getC te
Is Widget
SqlAst Translator
à© Ģ
rie ved
Suggest ion
getSuper class
estart WebServer
ĠtestHistory Of
> ,
M ULTI
Q A
d ied
h a
am a
Ġ" ;
Ġget Field
av ing
to XML
Inter ceptable
\" :
ĠL ibcore
Ġcomp ilerContext
Ġsql Appender
98 7
Ġannotated Class
ens itive
shall ingContext
ORD ER
Connect ed
C C
M G
M V
U Z
Y Y
e cho
s To
á į
tr ations
get Package
get SelectClause
ic on
Ġo b
Parameter Types
<?> ...
Js Statement
Ġtable Record
As ia
âµ Ķ
Ġcomp ilation
Ġdefault Value
LI C
LI ST
ipp ed
CA ST
Ġaccess Type
Var args
Ġcal endar
ĠPost greSQL
Ġmutation Target
ĠClassLoader Service
getPersistenceContext Internal
regis try
oar der
2 6
G P
K Z
p olator
Ï Ħ
Ġ Interval
Ġ END
Pro ps
Ġget Current
str Factory
ĠM odule
ition al
Js Property
Ġg avin
check Result
exec utionContext
Foo Request
à¸ Ļ
getClass Loader
method Name
à² °
TH ER
ĠAnnotation Exception
StackTrace Element
getNode Type
Mo ve
B H
B T
S k
r untime
× Ķ
get Part
or s
pl ete
Ġcon stant
ĠC ell
Ġlo cation
Ġde let
Node Builder
op a
à¦ ²
register Handler
àª °
ĠE X
If NotNull
LI TERAL
Down Event
99 99
ĠSh ort
ĠISO Chronology
avor ite
D J
F E
V ia
Z ip
b r
f il
get Discriminator
ap t
Type Resolver
set up
set Max
Un ion
Method Exception
10 1
ĠN aturalId
method Visitor
Ġtrans lator
ĠO pcodes
à¨ °
à¨ ¾
replace All
Ġchar acter
áŁ Ĵ
Cl init
Ġhint s
ĠGeom etry
Ġtra verse
Ã£ o
C ert
Ġp ck
Ġf ld
ot o
Key board
ĠC allback
With No
Ġ? ,
comp iler
result Set
à½ £
Char Array
ðĳĦ ¢
à¸ £
Ðµ Ð»
áŀ ¸
áĪ Ń
Ġlast Name
ĠMutable Period
requ ire
getBasic TypeRegistry
Ġpck g
g ing
s ocket
w arn
Å ¡
Ġ Mapper
set Str
ot ential
Ġa i
ĠF lushMode
Ref s
TR Y
Constructor s
RI GHT
Optim ization
Enh ancer
Own ed
mapping Document
ISO Chronology
ĠresultSet Mapping
B I
C e
L U
j ust
n g
s up
v a
z oo
Ġ Static
Ġ legacy
get Hibernate
get End
ul as
In variant
um p
Ġre q
ER I
getId ent
Ret rieve
TH ES
ĠO wner
array copy
Ġlog ical
Cap tion
ðĲĳ ī
0000000 4
Ġinte ger
Ġdb Data
PAREN THES
DAT ABASE
PARENTHES IS
( *
5 0
B G
L a
M Z
R ate
h row
get Full
(" %
Ġc reationProcess
Entity Mapping
Ġo wn
Ġres Scale
ac er
Ġquery String
12 4
Ġfile Content
Track ing
) (
C atch
F M
F low
G W
W atcher
b ag
get Declaring
In List
ĠS elf
Ġth read
Of f
to UpperCase
With Desc
ook ies
Simple Value
Byte String
Byte code
jdbc Mapping
prec ision
Definition s
ableType Oracle
Run ner
Ġus ing
ategories WithDesc
Fil ters
ĠPrint Writer
J M
e acher
n ess
s i
t i
t otal
Ã ½
Ġ ctor
() {
String Literal
est ination
set Up
Ġin clude
Property Holder
Ġ2 9
ign Time
Ġquery Group
Cache Region
Ġsql String
Ġser ialize
Ġinit ializer
inter val
ĠComp ilation
cre en
à¼ į");
ĠU UID
Work Unit
dialect Class
Anal yz
Mon itor
getL hs
Pic ker
* /
M R
O ld
Z W
ç ¾
is Selected
or ig
ul ator
Type Reference
ib ling
Ġin valid
and a
Ġset Data
Field Accessor
create DivElement
ain ed
Ġw orld
Local es
Refer encing
Sh uffle
LO SE
imit ed
Graph Implementor
source Writer
element s
à¶ »
Ġlog icalName
ĠTree Set
VER SION
ĠZ oo
Side Effect
UI Object
ALI Z
J ArrayType
T F
V ID
] [
× ł
Ġ Internal
le v
get Explicit
th at
re at
and om
Table Names
By Basic
ĠA g
Java Lang
Ġ3 6
Ð° Ñ
Native JsType
DE LE
Clause Stack
Ut f
sum ed
register Converter
parse DateTime
js ni
ĠType Oracle
32 6
fetch able
getJavaType Descriptor
stat us
Ġfr ame
Plural AttributeMapping
Ġselection s
dl Type
ĠAccess Type
ĠToken Stream
1 000
H igh
M icro
r hs
Ð Ŀ
is Null
get Non
ul er
ĠS ingular
con stant
Field In
à¦ ¬
à½ ĺ
ĠClass NotFoundException
Ġjoin Type
ĠJs Name
Component TestEntity
Warn ing
Jpa Compliance
UN CTION
address es
03 9
dl TypeRegistry
ĠPre paredStatement
---- ----
rol ler
B oot
F ETCH
G regorian
M U
P R
S V
S Z
f ont
f arm
k i
ê ĸ
Ġ ResultSet
at ial
ed it
assert Typing
Con crete
Class PathEntry
create NamedQuery
Des troy
ĠB ootstrap
ĠT ABLE
Com bined
Ġen sure
has More
statement s
ĠSe cond
Inner Text
MI T
ferred SqlTypeCode
Ġq ry
ĠEvent Source
Var s
week year
ĠclassLoader Service
Ġmar k
Remo val
4 9
D b
G G
I r
L it
P ayment
r ist
t ing
Ä ģ
Õ ¶
get Mapped
Re bind
Ġb lock
ĠJ ta
Ġjdbc TypeCode
Month Day
Ġmapp edBy
ĠIn valid
Ġselect Clause
-- ;
Ġrow number
match er
Cascade One
ĠThe Entity
Expand edState
' '
3 8
F ace
M a
i cted
o ption
s oftware
get Int
get Selection
get Bootstrap
assert Executed
im iter
lo ader
Ġget Entity
Data Provider
Ġtype Contributions
com ment
âµ Ļ
Ġsqm Root
Ġfirst Name
trans form
tra h
Ġssr b
Replace ment
week s
UP DATE
Ġbasic Type
transaction Manager
Ġrel ative
TestService Async
Ġup per
d id
l at
t mp
z i
lic ation
se ction
Ġtest Update
for Fields
Field Writer
to Formatter
ST ART
Not Supported
ak er
AN O
Ø§ ÛĮ
Ġjoin Column
Ġdo In
Ġdis patch
Contrib utor
attribute Mapping
wa it
73 56
lev ant
* ,
C ross
T S
d i
k it
Ġ artifacts
at ient
al i
get Proxy
ro ach
Ġc re
il t
ret hrow
ut ability
00 9
Ġl ang
Mapping Exception
ĠA S
com m
From Text
ĠN O
Instant iable
à¥ Ĥ
ðĳĦ ł
Del ay
11 11
day OfWeek
à· Ģ
Ġ12 34
Ġuser Type
SqlSelection s
assertAnnotation Present
JsName Ref
ĠParameter Mode
Bu dd
ste ve
getJpa Metamodel
Ġper form
Ġenclo singType
K W
M C
S D
u str
Î ¯
Ġ Util
Ġ api
in EntityManager
is True
(" #
Ġc ycle
Ġp ort
Pro totype
Ġtest er
str uction
Ġlo wer
Result Builder
ĠB i
Ġg en
Ref resh
Sub Part
Clause Expression
ud a
áĢ ®
ĠR ULE
Ġidentifier Mapping
Unknown Fields
Ordinal ized
Bit Set
Ne eded
VID ER
P Y
a pu
f ir
Ù ĥ
es caped
() ];
is Column
Ġ" #
se quence
im es
um e
Ġb ound
Par sed
ser ialize
Local Millis
Ġ' )'
Function Name
Pre par
comp arator
ĠN ULL
source Add
Position al
irect ory
ĠTem poral
getLocal Millis
Ġmonth OfYear
ĠCom mon
assertCanAdd Attribute
ferredSqlTypeCode For
- */
A Q
C ookie
G EN
Z onedDateTime
b atch
i et
m art
å °
Ġ orders
get As
Ġnew Builder
Ġp age
Re cognitionException
un modifiable
Pro jection
Ġentity Key
ir g
Column Type
com ing
Ġ' /
comp any
Sqm Parameter
build SessionFactory
à° ¾
ĠO s
Lazy Property
Lazy Initializer
Module Load
99 9
ĠRe cord
part ial
ep Copy
Ġday OfMonth
many ToOne
getFieldIn NonEntity
ĠTIME STAMP
Ġsu ccess
4 4
L TR
L INE
U RE
W K
m essages
w eb
Ġ ðĳĦ
get ModelPart
get TagName
ing Method
for Entities
Set Up
Field Set
ava il
ĠM ouse
ĠT yped
à¦ ª
Instant iated
CON NE
Us ers
Embedded Id
ĠTime Unit
Ġtransaction Coordinator
Gu ard
Ġrequ ired
ĠPo int
4 00
L S
W ait
m all
ê Ĺ
get Days
get Seconds
ing Strategy
pe edTr
Ġb inary
Tr y
Expression Predicate
Result Transformer
Event Sink
AL IGN
Ġ? >)
Ġen able
Dis k
Simple Expression
Af fect
à® °
à² ¾
à§ ģ
ynchron ize
Generation Target
Identity Column
ĠField Utils
ales person
ĠNo Such
ĠCriteria Query
peedTr acer
B el
D ot
F ive
c ub
c reationProcess
f ill
Ã ²
get Methods
oo s
set Time
set CacheMode
Ġget String
con tract
ĠJ O
Th en
Ġis Valid
Ġcol l
Js Interop
Com ma
ĠEntity A
01 9
VAL ID
Ġtarget s
15 0
Ġ{} ",
ĠRe cognitionException
ĠĠĠĠĠĠĠĠ Ġ
Ġcal led
DevMode Request
ales ce
RowNumber ing
*- {
4 19
D ifferent
H uman
c ated
f lags
h ist
Õ ¥
in clude
is NotEmpty
get Listener
Map Entity
se l
ol at
Entity Names
Tr a
Ġl abeled
str ument
Ġis Empty
riter ion
tem plate
eng ine
à½ ´
Ġfield Type
0000 0
Ð¸ Ðº
áŀ Ł
getEntity Persister
Ġtrans late
Ø± ÛĮ
getSessionFactory Options
metadata Sources
orrelated Root
Ordering Parser
JA VA
âµ¢ â´°
ĠJO IN
C ancel
D uplicate
O BJECT
V N
V O
d r
Ġ pu
on i
at t
get Object
Ġget Attribute
ĠS orted
Ġ1 7
Ġtest Hql
pro gress
Ġpar ts
Comp iled
Ġde code
Pr iv
ext ernal
Ġem ployer
à¦ ®
Ġcolumn Reference
js o
Co pt
JMethod Call
ĠJpa CriteriaQuery
PRO VIDER
Ġcl one
fire Event
äº ŀ
Cent ury
6 0
T N
U Y
d s
Ġ OneToMany
in valid
en o
get User
id entity
(" \\
set Type
set ReadOnly
Ġget Content
Ġd ifferent
Ġtest Type
Or phan
RO UND
Oper and
Literal Formatter
getJdbc Environment
Form ulas
TIME OUT
getR aw
Binary Name
Mutation Strategy
Ind ent
package Name
ternative Contact
Temporal Unit
Copt icChronology
( {
L SE
N atural
d iff
t z
Î µ
× ¢
get Group
st all
Entity Table
Al ready
Ġde finition
Ġch unk
From Bits
DE N
Select Query
Request ed
Check ing
enter Rule
stream Reader
Safe Uri
day OfYear
Ð°Ð½ Ð´
ĠU int
ĠTree Map
ĠTable With
Ġmatch ing
Input Element
ched uler
error s
Ġoper and
Store Mode
tag s
exit Rule
Convert ers
ENABLE D
A MappedSuperclass
D uplic
D atagram
H E
O W
R o
Z M
o ser
Ġ Writer
er ce
get Selectable
Ġp c
ck et
00 3
Ġset Parent
fer ence
Ġ2 2
us es
Source Map
check Open
Ġfor ce
find AttributeMapping
à° ¨
ATE GY
jdbc TypeRegistry
ĠStandard ServiceRegistry
ĠPersistent Attribute
Depend ency
Ġmanaged Entity
Exact ArgumentCount
Ġme mento
avail able
8 0
C P
E ager
G M
G ss
L K
S calar
s ymbol
Ġs om
est or
Ġget Table
add Column
Qu ot
Value Source
Ġset Description
Ġentity Entry
ĠM AX
ĠA ction
Pr ed
\" >\
Ġser ialization
start Node
à® ¾
ĠQuery Spec
Qualified Name
Ġone ToOne
STR ATEGY
SER T
Do esNot
Ġform ula
ĠsqlAst Arguments
peedTracer Logger
0 30
B etween
I ON
m embers
v o
Ġ Error
() ");
get Module
get NumberOf
Ġs ymbol
set ExactArgumentCount
class es
Ġget Id
Ġget Sql
Ġin heritance
Test er
ans wer
con tain
Ġem p
pre v
01 4
Ġsh ow
the Socket
ĠTest ing
Copy Context
Ag gregated
CA PA
Ġ8 9
getJavaType Registry
by Id
run Async
connection Provider
Ġsp an
ĠNativeQuery Implementor
& #
B IG
O L
S M
\ ")
g t
s pace
× ľ
er c
get Boolean
de pth
Ġtest Remove
Property Access
ex pr
ec ause
Index es
Po pu
Pre vious
press ed
ification Variable
áĪ ª
Ġstring Type
Multi Table
<?, ?
ĠDefault Rule
optim izer
45 76
Ġunique Key
ĠLO G
SideEffect s
4 6
C ourse
Z ones
b ig
t uple
Ã ģ
Ġ ConnectionProvider
In etAddress
ag n
Ġget Physical
Value Literal
For Property
Ġre port
to Instant
Ġresult Variable
ĠB atch
Comp lex
Ġ3 2
persist enceContext
Ġstr ings
Ġquery Options
Text Area
Load QueryInfluencers
à½ Ĥ
Ð¸ ÐºÐ°
01 5
Serializ ableTypeOracle
des erialize
Ed ge
ĠMetadata BuildingContext
Wh ile
Batch Size
Ġgroup s
Readable Period
ick Names
Ġ/ *-{
Do Not
coun ter
constr aint
Ġtrusted Attribute
F light
S PE
d ummy
in u
an es
Ġ" )";
re verse
assert No
set A
ut ure
Ġget Jdbc
ĠS cript
Transaction Is
ĠC all
Update Statement
ock opt
Root Entity
Sh ift
à½ ĸ
âµ İ
Offset FetchClause
Ø§ Ùħ
Ġsuper Class
Ġpr imitive
Ġass emb
MO D
Tim es
Auto Commit
ĠSchema Export
ix el
Lat in
Logical Connection
ĠAssertion Failure
POSI TIVE
Ġfixed Time
ĠSTR ING
mart id
B az
M Q
N S
X X
Ġ Q
Ġ Stream
Ġ Atomic
get MaximumValue
Type Binding
Ġb ootstrapContext
iv ial
ĠS emantic
Ġtr im
Ġh ref
Reg Exp
der lying
à¤ ¶
ĠA uthor
Inter polator
Js Object
Fetch Mode
Af rika
à² ¨
Safe Constant
15 4
Ñĥ ÑĢ
Vis iwa
Ġresource Name
ÙĬ Ø§
BA CK
getNode Builder
Ġbefore Index
assertExecuted Count
Ġsom martid
B egin
F allback
L in
P resenter
S ing
] )
x ff
Ç Ŀ
Ġ Reflection
Ġv ari
Ġc ust
qu oted
im er
Ġf il
cal endar
ĠJ Field
Un icode
Array Native
Ġis Initialized
ong o
ĠA pi
getC lient
áĢ Ģ
Ġdo Extract
Component Data
ik o
Ġsh ift
Min imalRebuildCache
Ð¾ Ð²
Named Id
Vari ant
RI PT
listener List
Ġconvert ed
Dom Handler
ALI AS
forEntities AtRevision
L ines
c pe
w ise
æ ĸ
on ly
Ġv iol
Ġ) "
Ġb egin
Ġo is
Test TreeLogger
ub l
Property Path
Event Source
ext ension
Cache Key
Fetch Timing
Basic Entity
Target Exception
áĢ Ń
Del imited
34 78
à® ©
setParameter List
ĠSer ver
he et
DO UBLE
time Zone
Ġhe ad
module Name
CI TY
Expect ations
Ġinvok e
GR A
getExpression Type
ddl TypeRegistry
0 34
G D
J Statement
J Node
S ibling
W rong
l ad
Ð ¶
Ġ YearMonth
on ymous
get Selected
ed Mode
Ġc lause
est ure
set StyleName
add Handler
ĠS ample
Ġst orage
ĠH INT
Collection Part
Ġ' %
Ġcomp arator
Predicate Context
à¸ Ń
Boolean Literal
ok e
dis patch
mapp ed
Limit Handler
Api Change
emant ics
Ġnamed Query
NotAudited Entity
Http Servlet
(* )
C X
F loor
N ow
S P
U K
t iness
z a
Ã ¹
Ñ Ħ
Ġ ro
Ġ age
Ġ OutputStream
er a
er by
get M
get Alias
re levant
de pend
ist ani
st op
un n
set First
Ġtest Case
Fi re
00 5
Ch ain
Ġ2 7
ĠM IN
Ġg lobal
Ġun marshal
ĠN OT
old ers
the String
Ġconvert To
getIdentifier Mapping
Ui Binder
Jaxb Mapping
pos it
getAttribute Name
ĠLockMode Type
Click Event
Ñĸ Ñı
Joined Group
Ġcontains String
AU D
Ġdrop TestData
ĠEn vers
Ġ'. '
riend ly
addWrapField ToCopy
CONNE CTION
" \
A ST
E val
G H
I AN
L R
M N
T ail
c ar
l ip
u ed
en h
get Configuration
assert File
return Type
im plement
Ġm ore
end Node
ĠS ize
Un i
append HqlString
LO CAL
Ġjdbc TimeZone
ĠComp arison
Super Type
Ġz ip
Ġfirst Result
Callback s
make Ref
84 756
Handl ingMode
Ġ"] "
Î¿ Ï
ĠByteArray OutputStream
EXP AN
2 98
B W
H M
M F
b c
c q
l t
w rapper
Ġ IndexOutOfBoundsException
et ing
in ject
get Ph
get Width
get Weeks
Ġs r
re ason
Con s
iz es
00 2
To Load
Ġh ost
ĠM enu
Ð° ÑĤ
ĠUn supported
are a
15 5
Block s
upd ated
Quoted Name
singleton List
àº² àº
Retrieve Mode
cub ating
J ane
S am
p ass
Ù İ
get List
Ġ" ).
Ġf lushMode
Re porter
ag g
set Data
Ġb ecause
Ġnull Precedence
Ġget Referenced
Ġl ambda
Of Entity
ER IC
name Map
Service Async
Cache HitCount
Ġan Entity
Ġjdbc Value
ĠCollection Persister
Ġparam Index
Ġsecond s
Ġref lection
forEach Selectable
Ġqu ote
ĠPlural AttributeMapping
Ġstudent s
getSecond LevelCache
ĠStatic JavaResource
Ġlang uage
EXPAN DED
D ST
D ml
N P
R W
S CHEMA
a pe
d atabase
n one
Ì Ģ
is Class
id er
ess im
im ap
un a
str eet
Field Utils
create Statement
append As
ĠC oin
ĠA d
ĠT ask
LE D
LE NG
Resource Oracle
12 124
Ġjdbc ParameterBindings
Log Data
Ġser ializable
Ġbuild ing
ĠJdbc Environment
98 74
Ġfunction Contributions
Ø³ Øª
áı Ĥ
src Writer
delayTestFinish For
Security Exception
LENG TH
D at
S ent
d one
o ptional
Ð ĺ
Ø ¢
Ġ With
ing Hint
ar ge
Ġget Instance
add Log
ial og
ĠC OP
ill s
Add Handler
Tree Map
Valid ate
à° ¯
SQL Dialect
à¬ ¨
gener ic
Ġcheck er
Inner HTML
Act ual
Ġph ones
Depend encies
Ġsort Expression
Handl ing
Ġcontain ed
Containing TableExpression
ĠXpp Dom
Occ urrence
erc ion
ĠCOP TIC
. $$_
B N
M sg
b Sign
d ig
Î »
á ¹
å ľ
in verse
is Default
get Zone
Ġs ite
ol ation
Ex ample
able Methods
set Title
Ġb Sign
Ġb utton
Ġm other
ut ating
Class CastException
Test Info
to Standard
ĠC lient
per mutation
Ġ3 9
Sqm CopyContext
java Type
arg in
à® ª
78 23
â´ ³
Ġbase Type
trans lator
trans late
(? ,
Ident ifiers
**** ****
ites pace
comm ended
C ycle
H EN
P adding
S N
d k
Ġ icu
get Context
get Expressions
or ing
st orage
Ġd ays
For JavaType
Field Value
By Path
Ġname Coder
Source Impl
Parent Entity
from SafeConstant
ĠSqm Treated
01 3
à¸ ´
Ġgener ic
78 9874
Ġrefer ences
Match es
áĬ ł
Mutation Operation
Box ed
Rel ative
Ġresolved Types
Bas eline
GA TIVE
Under Test
Trigger ed
cheduled Command
require NonNull
TransactionIs olator
12124 789874
L ifecycle
a de
h and
Ð ¤
Ñ Ī
× ŀ
Ġ ðĲĲ
Ġ StreamException
in ated
al ary
is Primitive
an other
ar r
In clusion
Type In
Ġp op
Ġf lush
Ġf inish
set S
for ce
con tribute
Date Midnight
create Temp
par en
ĠC o
ated Type
Parameter Type
With Collection
From Combined
Implement s
check Exec
On Locking
clo sure
Ġen tries
ĠN UM
à½ ¡
Ġsql Selection
Style Generator
200 0
Editor Driver
Delete Statement
tx n
Ġfunction Name
Custom FieldSerializer
Ġcomponent s
Contain ed
__ __
should Generate
sign ature
Ġpk g
82 98
B V
F J
G rid
O THER
T reat
i i
Ġ queue
et ter
get TableName
ed on
Par ag
Ġtest Format
Ġin coming
Ġj ar
Element Exception
leg ating
Function As
Ass umptions
Ġquery Engine
ĠN aming
Ġsql s
Literal Context
ĠDateTime Formatter
Converter Descriptor
ĠR el
lock Options
Graph ics
Ġentry Set
Ġrefer encing
Ġorder By
ĠSQL StatementInspector
Ġdet ails
number Of
14 5
02 9
Ġdomain ParameterXref
Plural Attribute
ma inder
Days In
NE GATIVE
yy yy
## ##
Ġform Names
Joined Subclass
good Code
named DescriptorBuilder
decode Request
Navigable Map
Ġenh ancement
NUM BER
ĠStatistics Implementor
ĠMonth Day
ĠAf rika
ĠSelf Rendering
E H
b n
f os
h uman
w indow
Ñ į
Ġ Tr
get Y
get Content
(" _
In ject
ist ent
qual ified
ĠH e
Model Expressible
Load Event
Is SafeHtml
ĠV AR
Ġ10 6
Ġcollection Key
àª ¾
ATE D
56 78
jdbc Value
getR el
getProperty Name
ĠBasic Value
à§ ĭ
Output File
Output Option
aa aa
Meta Model
Managed Entity
Compilation State
Ġqu eries
Menu Item
getReferenced PathSource
Serialized Size
utability Plan
; ").
H N
S yntax
] ).
q cn
s le
v ing
al ance
get Statements
Ġt ables
ol es
Re q
Object InputStream
ĠP RO
ĠB utton
ĠD el
Ġmet amodel
Po p
getC ustomer
ĠF iles
Sub select
RE V
As c
comp osite
10 4576
Ġdo Bind
Ġitem s
current HashMap
à¨ ¨
Ġselect or
Delete Count
Ġle af
fetch Parent
98 104576
SafeHtml Utils
Ġret rieved
1234 56789
Ġsort Order
student s
ĠHierarchical StreamWriter
Integr al
ĠOptim izer
('. ',
DELE TE
' ))
B ah
B ridge
D IS
H K
N U
S rid
Z oo
f loor
Ġ Contract
al ternativeContact
is reg
Ġ" [
Ġs eg
Ġs calar
el ung
Pro gress
An g
to CharArray
art in
ĠI D
Sub mit
01 1
ĠO FF
Jpa CriteriaQuery
des criptor
à· ĥ
Qualified SourceName
can Be
Schema Name
getQuery Spec
getQuery Engine
Expect ation
Ġtag s
Pol ymorphic
Eur opa
ĠLinked List
Break down
vm Created
IP v
ond on
TRANS ACTION
did Change
ubl isher
delayTestFinishFor Rpc
12124789874 8298
98104576 3478
isreg elung
' s
8 3
A CT
E U
E ffective
M W
S a
Y T
f ocus
i Field
t le
v i
Ġ InterruptedException
In Embeddable
se en
Re presentation
Ġin vocation
ĠP K
ĠP attern
Ġthe Entity
Implement ed
Sub Graph
col l
à½ ¨
Spec ies
ĠJs Expression
15 1
My Entity
ob fus
man aged
Top Level
Primary TableReference
Ġenc oding
Revisions OfEntity
BasicType ForJavaType
Ġclo sed
Ġcontain ing
ĠLe vel
ampl ing
ĠBe an
getSqlAst CreationState
981045763478 13
H QL
L ik
N etworkInterface
P W
P LA
s un
t ail
³ ¶
å ³¶
on al
in ate
en v
is Nullable
tr icted
get Embeddable
get Line
get Months
Ġs end
Ex its
St ub
set Attribute
Ġin ject
Se x
create EntityManager
Ġj ob
vent ory
ĠC ode
ER R
Reference Binding
Handler Registration
Ġat t
ĠN AME
âµ į
Initialized Objects
Ġevent Type
por ary
SS AGE
à´ ¯
à´ ¾
à¨ ¸
56 7
AME TER
ipp ing
ĠPersist enceContext
US ER
ĠU i
Ġte acher
SH OW
ĠSqlAst JoinType
Maps Id
StoredProcedure Parameter
Sw itch
traction Context
getBootstrap Context
GEN ER
B Z
S J
S end
p aces
} )
Ï ĥ
Ġ RevisionType
is Or
get Max
get Params
get QuotedName
ar a
In cluded
In lin
assert Buggy
Ġt d
set Key
act ers
Ġb ranch
Ġtest Basic
Un used
Ġw e
ĠB inary
Ref lect
à¸ µ
event Listener
order ed
alias es
14 3
ĠOrder ing
Aggregate Function
DataPoint s
ĠSafe Styles
SC RIPT
RPC TypeCheckFactory
ĠZone Offset
ĠRPC TypeCheckFactory
Med ium
Ġ] \
getDeclaring Class
ĠOFF SET
Q O
` ",
h ouse
o a
Ñ Ĩ
Ġ ForeignKey
is Type
Ġ( _
Str ongName
Ġ) )
Ġt mp
Ġp w
Ġb ig
Ġnull Value
Ġtest Simple
Ġtest Merge
ĠJ A
ĠJ AXB
Un load
Ġpro vided
Ġentity Graph
ex isting
ĠC ascade
Ref Entity
Clause Type
à½ Ģ
Ġsql ExpressionResolver
Ġser ialized
stream Writer
table Reference
áŀ ļ
à² ¯
Ġperson Id
Ġinter faces
Ġpr ime
Ġpr ivate
Module Def
Sequence Name
Has Child
Valued Mapping
getColumn Span
Ġreferenced EntityName
MIN UTE
Browser Channel
Ġpo pup
Ġplural Attribute
79 4
Debug Enabled
ĠsqlAst CreationState
Ġnormal tid
Math Context
Ġlink er
inte gr
cum ulator
ĠSqlAstNode RenderingMode
COL LECTION
ĠFr ame
assertNumberOf Joins
Ġversions Reader
ĠgetPhysical Annotation
A W
C utover
L ive
f e
} ]",
Ġ ERROR
is DebugEnabled
re ceive
In cubating
En versService
oo d
set P
Ġb ack
Entity DomainType
add IfNotNull
Ġtest Un
Ġth an
em on
Ġl ayout
ser ialized
Ġpro tected
Ġcon n
ĠP RI
Null s
Ġ} -*/
ax Id
Argument TypeResolver
null able
ĠSqm Predicate
met a
Load ingState
à½ ±
Ð¸ Ð»
áĢ Ľ
ĠCollection Helper
Sp atial
Mod ifier
vir tual
Region Codes
VE L
Package Name
Cap ability
Optim ized
Last Name
05 7
02 1
ĠEvent Type
Serialization StreamWriter
land s
Ordinal izer
Ġtreat As
Ġupd ated
So yc
Org an
dec imal
( !
R S
t ask
Ġ IdentityHashMap
en versService
get Date
Ġs afe
ret ty
Re create
Ġb it
Ġm c
Ġm utable
our s
Object OutputStream
for Name
Date Range
Ġentity A
Or Formula
ĠC riteriaBuilder
Regis trations
Ġde bug
Message Type
Sub stitution
Ġ4 326
Int Max
own ing
01 7
ik i
Foo ter
SQL StatementInspector
Ġmetadata BuildingContext
Ġz ero
ĠQuery Parameter
insert able
03 5
Ġ\" "
QU AL
ĠConfiguration Helper
TypeCheck ed
was Triggered
Sum mary
ssr b
Ġindic ators
Analyz er
JavaLang Object
CAPA CITY
C TED
C riterion
F riendly
S ig
c ancel
Ġ àª
en e
is Dirty
get Years
ur ing
re c
de partment
Ġt q
un ion
set VisibleRange
ĠS ort
Ġset Type
Of Century
ĠC an
Ġto ol
Comp atible
Sql StringGenerationContext
com mand
LE VEL
Sub string
Native Preview
Ġparent Id
Point s
Ġsub system
Check Style
Ġcollection Binding
Base URL
Second ary
Ġgener ation
min imalRebuildCache
ðĲĲ ¨
ĠParent Entity
Ġlocal Name
original DateTimeZone
getQuery Options
empty Map
Expressible JavaType
Ġvalid ator
ĠIdentifier Generator
cho ol
ĠTableGroup Join
student Number
SafeStyles Utils
' ");
C orrelation
D ING
G J
I MP
M AT
P RI
c lick
Ġ act
Ġ à°
get Other
get Users
able Name
ĠS croll
ex port
Ġem ployees
ME SSAGE
On AddHandler
à¦ Ł
Ġjoin Table
áĥ Ŀ
Period Format
bo ss
áĬ Ĵ
Config Options
Ġman ies
Readable Interval
84 298
Click Handler
ĠConfiguration Service
77 98104576347813
Illegal AccessException
Ġdefined In
Management Tool
Sur face
sc roller
ĠSemantic Exception
121247898748298 84298
' \
= ?
H olders
M irror
d atetime
u endInstant
å į
Ġ à²
Ġ Ùħ
Ġ OneToOne
Ġ StrIntTestEntity
is Interface
get Entry
get Left
get ContainingTableExpression
(" +
assert All
put ed
class Loader
Ġget Mappings
co s
Field Added
Ġw rit
ĠC ast
Attribute Override
Collection Update
Zone Id
Resource Base
On Delete
ĠEntity Entry
Ap ply
CH ANGE
getEntity MappingType
TH EN
Ġdis assemble
Multi Expression
po int
Ġdomain Value
Viol ations
Sorted Map
ĠZone Id
ĠEntityManager Factory
7 23
C enter
S ant
c estor
l i
s ince
u ce
× ĺ
Û Ĳ
is ible
tr eat
get Height
get Origin
Ġn odes
re cogn
Ġc lean
En clo
set Hint
Ġm ay
class ForName
Class Names
Ġget Wrapped
Ġd ue
[] {"
Ġa Entity
ĠC lause
ĠP ol
Null ability
ĠA uto
Fetch Style
And Formulas
áĢ ¯
map Key
user name
ĠJava ResourceBase
End ian
Ġfind Method
PAR AMETER
fr ame
Creation Process
Split table
Dynamic Instantiation
Versioned Node
decl ared
Ġnormal ize
Ct Class
D ual
L ateral
L ondon
O pcodes
T urk
U id
o th
z z
Ġ à¬
Ġ à¨
get Operator
Ġf iles
ag ent
Ġget ServiceAsync
add Implicit
Ġo pt
ĠS up
ĠS ome
Ġtest No
Ġtest Revision
From Local
ock roach
clo ck
ĠG E
Generator s
áĥ £
Component Property
Ġpre v
map s
Insert Strategy
Exec utable
à® ¯
Qual ifiers
Ġsqm Statement
Bar Proxy
Ġparam Type
Action s
Ġcriteria Executor
Generated Message
Scroll Position
Ġqu antity
789 0
Ġmany ToMany
Jsni Method
ĠsetC ity
su ccess
orrelation Parent
Ġmulti ple
rethrow Exception
84756 794
vmCreated Sql
D ates
E V
F LO
G esture
H idden
i ri
er ialization
al k
al yz
get Person
get LockMode
pe ction
Re lease
Con cat
Ġget Values
Test Runner
Ġ- =
Value Binding
Ġset B
Ġtr igger
Des erialize
Ġg ot
long FromBits
Ġsub trah
áĢ ±
áŀ Ģ
áŀ Ħ
àº ´
getJdbc TypeRegistry
ĠJdbc Services
CA TION
Tag s
Ġcache Mode
attribute Name
Wh itespace
Lib rary
Arguments Validator
Compiler Exception
Ġrun Async
ĠRoot Entity
Typed Node
Convert ed
ĠDOM Impl
08 7798104576347813
so yc
Ct or
Ġrelation al
Ġproblem s
æĸ ¯
6 5
; "
D estination
G w
K e
N R
W S
f eature
j oe
o se
y base
{ '
É ¨
Ó Ļ
Ġ Lob
is Abstract
get Comp
get Logger
Ġs ender
Re compile
qual ify
Ġd ummy
text ui
Ġi tr
RE NT
ys icalName
Ġclass Type
ĠL iteral
Enum Map
Second aryTable
Ġbyte Count
Jpa Expression
à¶ ļ
Has Changed
instant iate
Mutation Target
Ġformat DateRange
po se
expression s
Ġbean Type
âµī âµı
getOffset FromLocal
BY TES
TestService Exception
Ġbox ed
Õ¡Õ ¶
ĠConverter Manager
Invariant Type
< >()
A O
B ug
R tl
U k
i leg
Ê »
is s
get Attributes
get Mutating
qu ences
Ġf m
add r
ĠS uper
Ġtest Instance
ort al
Ġentity Metamodel
ir c
Ġch anged
AR D
Bind ableType
ail ing
TI AL
Ġadd r
type Contributions
à¦ ¸
Cont inu
the Date
Ġinit ialized
ĠSql Tuple
TIME ZONE
file Name
PAR AM
Block Guard
lang uage
05 4
14 2
Failure Expected
Ġdomain Model
AA AEntity
cap abilities
Ġmatch es
Ġwidget s
Ġcustom Type
Ġtag Name
Execution Options
animal s
JO IN
Half day
Emul ation
JavaScript Exception
ĠByteArray InputStream
NoSuch MethodException
optimizer Ctx
Lik ely
9 6
F ast
F mt
H I
H ex
K an
O RE
S emantics
T K
T oo
h igh
k b
s n
Ð Ĵ
å Ī
Ġ engine
get LogicalConnection
Ġs k
Ġs aved
re lated
Ġp ad
set InvariantType
Ġo ptional
Th rows
Ġ2 5
us able
IN SERT
ĠB lock
Ġproperty Type
Ġproperty Names
Bind ers
Ġr ule
Ġstr ongName
Ġtable Alias
à¦ ľ
SE D
pa ir
erm ination
áĥ ł
Ġdo g
àº Ń
Ġtarget Type
ĠComp arator
Database Version
Ġcriteria Query
ĠMetadata Implementor
ÙĬ ÙĨ
original Locale
Serialization Policy
Ġconvert Field
FIN ISH
PO ST
Ùī ÙĬ
ĠSafeHtml Builder
Merged Patterns
Horizontal Alignment
getNon Lazy
getRaw Type
posit ory
12124789874829884298 087798104576347813
A z
A uxiliaryDatabaseObject
C LOB
D imension
H over
J Variable
J ulian
O VER
i or
j program
l an
m ask
r ica
Ġ Part
en abled
Ġ" $
lic e
te acher
Ġc reation
ad i
qu ote
set Un
Ġb uggy
class Type
For RowNumbering
Ġ2 1
Ġ' _
Ġtable Mapping
select or
getType Oracle
Log Level
Ġroot EntityDescriptor
sql Ast
Hibernate CriteriaBuilder
à´ ¸
Ñģ ÐºÐ°
time out
Ġph ysical
Ġmatch er
Ġdir ty
ĠDialect Feature
AddLog Branch
Security Manager
condition s
overrid e
Ġtemporal Accessor
Scop edBean
A SS
A IT
V irtual
_ );
b etween
Ġ{ };
get Editor
ro ugh
In jection
Ġp s
un cate
Pro vid
To Query
to Path
Ġj td
ach able
By Default
ĠC ountry
ac ific
uf ff
Pr ess
Pr edicates
ition s
TE N
Ġadd itional
Ġ4 8
Lock Hint
ðĳĦ ¬
à¸ ģ
property Holder
Change Listener
ĠIn etAddress
sr f
20 2
Ġrow Id
ĠPersist enceUnit
23 84
iction ary
Ġdomain Result
à¯ ģ
áī µ
Upd ates
multi Select
rol ments
assemb led
Dependent Bean
Rec order
unknown Fields
lambda InnerClass
ĠGregorian Calendar
Ġtenant Identifier
Ġap plied
Î¯ Î±
DEN TI
; }
J S
M ik
c ue
c ulate
c redit
g es
s ia
Ġ UN
Ġ Validation
get From
ing a
assert Event
ad apt
pr ing
Ġget Widget
add Test
for RevisionsOfEntity
State Orig
Data Type
one ToOne
With Bidirectional
One StateOrig
getC atalog
Ġ? >>
ĠF ake
RE G
\" >
Size And
ĠR untime
Ġload ing
Ġmapp ings
Bean Instance
Insert Statement
àª ¸
the Int
AB C
column Names
SI ST
ĠÐ ļ
Binary Arithmetic
ĠJpa Predicate
Ġdet ached
original TimeZone
FO O
EE OneStateOrig
Extension Context
dl TransactionIsolator
ãĤ ¢
Ob fus
Ġrel Anno
Ġhour s
Ġcommand s
dst Map
Tenant Identifier
ĠAg gregate
Budd y
ivial ly
isOr HasChild
Ġ}-*/ ;",
Ġmanies EEOneStateOrig
84756794 987
SizeAnd Content
D T
P urchase
Q Q
T G
U G
c p
l ike
m ore
p oll
at ings
get Size
ut una
Ġget Source
add Root
Ġres et
For ward
Ġcon crete
ex tra
append Literal
ĠD ATE
Js Overlay
Ġr ed
Ref Cursor
do Work
Ġon ModuleLoad
contains Value
à® ¾");
Ġlock able
FI ER
Ġlocal es
Cte Criteria
NE W
Ġtransaction Manager
Linked List
ĠnaturalId Mapping
Comparison Operator
Runtime ModelCreationContext
Ġsup plementalInfo
Ġcompare To
ĠDialectFeature Checks
C orrelated
F act
R UN
S can
U UID
p ad
p ager
Ġ Index
Ġ Check
get Access
get Settings
ic ip
ur ity
re bind
Ġf un
set Owner
set Visible
Pro vided
Ġget Factory
Ġget This
add Resource
Id x
Ġd atetime
Ġvalue Converter
ĠJ ReferenceType
Parameter Value
ec urity
Ġext ernal
Lock ed
Visit Controller
pre pareStatement
Ġparent Access
And Get
Ġsub Query
Ġ6 4
table Expression
Dir tiness
format ter
Ġorder ed
ĠIn compatibleRemoteServiceException
ĠSer vice
column Definition
ĠAn y
ĠE LSE
Ġparam Types
AD D
Region Factory
ÃŃ n
Am erika
Aggregate Column
06 1
Do e
aj or
âĢ Į
Multiple Collection
FetchClause Type
Ġpl us
201 7
newline Opt
å° ¼
! "
' >
( {"
A ustr
H ANA
R adio
S c
s ka
Î ¼
Ġ active
in eno
Ġ= >
() ",
get JoinedGroup
re lation
ol om
un icode
set Scale
Entity Join
Ġd s
Ġd ig
Ġst mt
Table Generator
Ġis NotEmpty
Ġw arn
Data Region
ĉĉ ĉĉĉ
)) ,
query Engine
Js Program
move Up
DE P
Metadata Builder
ĠEntity Key
Ġclass Descriptor
Ġsql Type
Ġfetch Timing
.. /
ĠW EEK
table Name
copy To
getKey boardSelectedRow
Ġone ToMany
Ġref resh
QU O
week OfWeekyear
getCollection Descriptor
Ġdb expected
Place holder
Ġ'\ ''
Mult imap
andid ates
äº ļ
Writ ten
Med ia
ĠSelection Query
Enumer ated
Fraction Digits
ĠgetForUpdate String
FE MALE
Delimited From
ileg ed
Likely RegionCodes
S an
T otal
n ing
Ñ ĩ
× ĵ
Ġ available
al ia
is Closed
tr l
get Long
get Fields
an notated
Ġt wo
Ġb ld
Ġb etween
Entity A
Ġm iddle
Pro x
Ġtest Default
Ch rono
Ġint ern
Ġcon cat
Ser ialize
Child Entity
Group Builder
move Down
Ġfor eign
Ġcolumn Alias
ĠSqm Literal
ĠDateTime Field
à® Ł
Ġtrans ient
Interface Type
Short Text
ÙĦ Ø§
ĠMapping Metamodel
Ġinsert able
ĠCollections TestServiceException
Indexed ListJoinColumnBidirectionalRefEdEntity
Cl one
Resolution Info
det ails
Inherit ed
ĠSelect Statement
ĠST ATE
enable Filter
Under lying
Owning Entity
ElementBuilder Base
normal ize
getFromClause Access
Application ScopedBean
à¦¼ à¦¾");
ĠSorted Set
B Q
B ul
C ard
M AR
S ensitive
T UR
l ib
p ol
s a
t b
t t
¦ ¬
Ù ¹
is Script
is After
get Student
pe ating
Str eet
Type Map
ver age
act ly
Ġget JdbcType
add S
ĠString Reader
pro ps
Or Interface
ĠP erm
clo b
Ġcomp iler
Pl ay
Ġtarget Entity
Embeddable MappingType
First Week
Criteria Parameter
save OrUpdate
Ġ12 8
ĠProperty Permission
vers able
Ac cept
Ġbind er
Procedure Parameter
Mar ker
generate SqmExpression
Unique Constraint
ĠLink er
ĠFor eignCustomer
Account s
Geom FromText
Back ground
getLocal Name
Ġtoken s
Linked HashSet
FromClause Access
Ġign ored
na e
Ġmerge From
resolved Type
ToEntity NameMap
Ġincrement Size
à½¼ à¼ĭ
ĠDatabase Version
getExplicit Alias
WK T
ialog Box
WithBidirectional ManyToMany
C orrect
E QUAL
M other
S lo
b ottom
b lah
c riteriaBuilder
¥ ¿
è ¥¿
ê ĺ
Ġ Ã
Ġ Row
in o
in am
get MinimumValue
or es
pu late
ed Message
(" (
Ġb sr
Object Name
Time Zones
ser ialization
Ġpro d
Sql Expression
ail Addresses
find EntityDescriptor
comp ilerContext
Fetch ed
ĠN ev
Ġjdbc Coordinator
ðĳĦ ³
àº ģ
à® ¤
à° ²
Vari ations
Super Class
ĠE MPTY
Timestamp s
05 3
getParent Element
Valued SimplePath
Window s
cap abilityExchange
IG HT
AC TIVE
CHAR S
Own edEntity
locale Data
ReturnType Resolver
Ġus age
Increment Size
ĠDom esticCustomer
Printer Parser
Linker Context
Strict JpaCompliance
201 1
Ġev t
Ġhel lo
~~~~ ~~~~
enclo singType
Boot Descriptor
fir med
EventSink OnAddHandler
B os
J Constructor
K I
O K
c ert
c lause
Ä į
Ġ Format
Ġ ],
is Trace
is Negated
get Statement
get Literal
get Position
Ġ" \\
Ġs ave
Ġ( ;
(" \"
set Address
set Length
Ġb id
Class NotFoundException
Lo c
Ġd irection
Ar ab
Ġset up
Ġset Version
ĠD erby
getC ell
Update able
Tree Set
Ġal ign
ĠL ine
Basic Value
build ingContext
ĠV oid
sing le
à° ķ
Edit ing
the Double
ĠJdbc Parameter
Ġuser name
Ġprocess ingState
àŃ ĩ
Ġhql Executor
Ġmonth s
ĠAss ociation
Language Tag
caught Exception
Ø¬ Ø²
Integr ator
constr uctor
Ġdeclaring Class
sle ep
isTrace Enabled
) :
7 1
P ush
c Orig
e er
p age
r tn
Î ¬
Ø º
ì ķ
Ġ Offset
Ġ ProcedureCall
in c
get Revision
get UnknownFields
Ġ( %
Ġt up
set ter
set Height
Ġget Parent
Ġd i
Ġtest Re
pl ain
Ġset S
Ġa ffect
Ġ2 8
ĠM I
query Part
Tree Walker
ound ingMode
getS croll
OR ITY
sub Map
copy Attribute
à¬ ¸
àª ¯
àª ²
getN um
áĬ «
76 78
Ac me
Ġaddress es
Ð² Ðµ
Ġpersistent Field
à¯ į");
Ġrender er
Ord ers
Unknown FieldSet
Export s
Menu Bar
isInstance Of
ÑģÑĤ Ð°Ð½
SubQuery Predicate
Ġsorted Set
COM MIT
Ġ"_ "
parsed Message
Ġee One
Coded InputStream
FieldAccessor Table
relevant Entity
ĠOrdering Parser
Continu ation
12124789874829884298087798104576347813 84756794987
J PrimitiveType
M ajorVersion
h ide
m er
n ickName
Ġ Instance
Ġ Constants
Ġ ManyToMany
on ical
al locate
(" );
Ġc at
assert DeleteCount
om it
Name Coder
set Int
Query Memento
Ġpar ty
Event Bus
Init iator
getC opy
find Method
RO LL
Visit ed
ĠN ANO
Ġsql Exception
Audit Strategy
And Reset
remove All
Ġindex Of
Ġsuper Type
pen sive
Ġload LikelyRegionCodes
Start ing
crim inated
replace ment
Hour OfDay
Hand Expression
Composite Id
Mutable Period
module Def
Mouse DownEvent
à¹ Į
Language Parser
ÐµÐ½ ÑĤ
getJdbcType Count
Ġmar shal
ĠGeom Test
COM MA
SR ID
ĠTo bag
Known Dir
emo ized
Il has
ĠTyped Arrays
Lin ux
DaysIn FirstWeek
E AR
F ollow
J TA
J GenericType
R P
V U
j akarta
r pc
Ġ ArtifactSet
et o
at i
al n
is Attached
get Instant
get Expr
get Original
it tle
assert ConstraintValidator
if o
ch ronology
ch unk
Ġtest Null
em ulate
De ferred
Of Halfday
ĠJ Unit
Ġj js
Ġentity Mapping
ĠB uffer
ĠT R
enc oding
check ReadOnly
ĠF utuna
++ );
Fetch es
Sqm Predicate
Lock Timeout
ĠUn known
az iness
Sup ert
à® ®
à° ¸
Ġmin utes
ReadOnly Objects
ĠAnnotation Descriptor
JType Parameter
ĠFetch Timing
âĢ ĵ
finishTest AndReset
Ġassign ments
Ġste ve
ĠSocket Exception
Ġ/*-{ ",
Reflect Helper
) ").
, _
P acific
T V
[ [],
f iles
s ers
× ¡
is i
is Present
get ID
get AttributeMapping
get Op
get InternalName
it ude
ar row
Ġc s
Ġc oin
est imate
set H
Ġget SessionFactory
Query Param
De partment
Un serializable
Ġj program
ith er
Ġresult Class
Reg ex
à¤ ¹
Ġto One
Ġcreate Reader
Parser Exception
Ġadd ed
ME DI
Ġquery Name
As SafeHtml
Cache Entry
Load Access
read Int
ren ad
Ġon BrowserEvent
amp ed
register Copy
register StoredProcedureParameter
Ġcollection Type
other Entity
Param TestClass
à² ķ
Safe Set
Ġparameter Type
sessionFactory Scope
getN avigableRole
Tuple Query
Ñģ Ðº
he el
getSql ExpressionResolver
trans fer
Ñĥ Ð´
Ad dition
Modified Flag
Selectable Mapping
Keys Factory
Wrap With
Ġyear s
ĠJMethod Call
Ġrequ ires
Self Rendering
domain ParameterXref
Rpc Token
su bject
ĠXml Friendly
Ġenclo sing
ĠSelectable Mapping
Ce iling
Ġcre ator
AndFormulas Source
/ >");
A ware
E Z
m ust
z ero
Ã ª
Ä ±
Û Ĩ
Ġ Not
al one
get Manies
Map Join
se c
Ex porter
Ġm o
Ġm issing
Ġset Title
Ġid entity
By Clause
ack list
Ser ial
ĠP lace
per form
ign ature
Al ter
Ġde epCopy
Com ments
Ġexpected Type
Sub type
\" />\
Ġen v
And Clear
Operation Group
lock Mode
Bean Registry
áŀ ¼
Param Types
à¬ ķ
getResult Set
NO DE
Ġwh ich
Ø³ ÙĪ
Scroll ableResults
Tim er
ick et
Discriminator Value
ClassLoader Service
ðĲĳ Ĭ
Ð°ÑĢ Ñĭ
getD ifference
Storage Access
Ġtx n
Ġbatch Size
Initialization Exception
Members hip
binary Search
KY O
Wildcard Type
JtaPlatform Impl
ĠGwt Locale
idi Utils
ĠModule Def
IdentityColumn Support
WrapWith KnownDir
F d
F UNCTION
J am
W heel
g ender
i pe
k w
Ð ¨
is m
get Ref
Ġc md
int s
Ġd to
Ġtest For
Col lation
pro d
ath er
Transaction Manager
An Entity
to ol
Table Section
new HashSet
ach ers
ĠC at
ĠC LOSE
Null ness
à¤ «
name To
date Time
Ġto Type
Sql Type
Reference Data
Ġr tn
comp iled
Selection Property
Ġsh ared
CO UNT
Ġ9 99
ĠJdbc Operation
Ð°Ð ·
Ġass umption
Results Metadata
ĠÐ ľ
CA PE
po ch
div ide
ãĥ ³
Ġstyle Name
getCurrent ClauseStack
Cl amped
ĠCon vert
ĠEmbeddable MappingType
OP TI
Ġplural Forms
Ð¼ ÐµÑĢ
ĠByte code
OrderBy Clause
ĠJSON Exception
Ġsf b
ĠgetQuery Options
NUM ERIC
Prepar er
ĠgetWrapped Field
ĠMI LLIS
F in
L java
R estartWebServer
V at
W ORD
Y PE
z e
Ð ł
Ġ Generator
Ġ StylesBuilder
al ysis
as es
get A
get Document
get Short
get Visible
Re pository
set Number
Ġb u
Ġget Index
Ġd c
To Any
fer ing
Th ree
Un wrap
par ts
IN CT
Attribute Join
Ġthe ir
ĠT YPE
oc used
Gener ics
From Entity
ine a
Sub types
Default Value
ore a
Ġkey Provider
field Type
Spec ial
Binding Property
No Proxy
Return ableType
áŀ ĵ
à° ¾");
ĠO P
Ġparameter ized
order Columns
Ð°Ð ²
Image Resource
ĠProperty Data
join ed
Async Callback
FA CTOR
render er
ick up
Ġaction List
fl ict
Ġline Number
Es cap
connect Log
Ġvar char
Ú¯ ÙĪ
Ġoptimizer Ctx
Pair s
Ġgwt SetUp
addAttribute Nodes
AP P
persistent Class
MAT ERI
ortal Logger
. _
H ide
S OR
S UB
d f
l b
Ġ ];
Ġ ToOneAttributeMapping
in id
as ed
() ]);
get Oracle
get Tab
Ġc lob
Type Variable
st able
Ġf ont
Ġf qcn
Ġget Pre
Ġget EntityName
Ġd istance
entity Persister
To Map
pro cedure
create TupleQuery
Element Collection
ST AT
From Compiler
ĠEntity Type
JavaType Class
Ġobject s
Read Expression
Simple BarProxy
ca use
Connection s
method s
current Thread
Ġlong Val
â´ ¼
dis able
Ġcall able
Validator Factory
Ñĥ Ð±
ater Than
hour OfHalfday
à± į");
fl at
Ġenc ode
áŁ ī
Back ref
Relation al
Ġregister ed
Ġmanaged CtClass
ĠInt Stream
Ġaggregate Column
Ġqual ifier
Conversion Info
ĠVALUE S
DateFormat Symbols
à¸² à¸
Incremental Recompile
sf b
SPA M
Cross Join
oser Factory
B ut
F ab
K ongo
b ab
e fined
× ¤
Ġ ent
is Root
get State
get Persister
get VisibleRange
get DomainModel
get Eras
get PrimaryTableReference
ro ken
Ġs o
In compatibleRemoteServiceException
set Cacheable
Value Change
Ġset Text
ub a
Ġre ct
Ġcon tributor
ĠP ER
Null String
Em ulate
sh ift
Ġcreate Data
LE N
ĠEntity DomainType
Text Helper
item s
Enum Set
Case SearchedExpression
à² ¾");
Ġstatement s
àª ķ
àª ¾");
Hibernate Proxy
à´ ±
Revision Entity
Fragment Id
à· Ķ
ĠSession Implementor
irectional TextHelper
MO USE
Mar shal
19 72
Ġstream Writer
UM N
simple FooRequest
ĠZ ONE
uggest ion
Es caped
PersistentAttribute Interceptable
rol ment
Ġcatalog Name
ich TextArea
Singular Attribute
Ant ig
selectable Mapping
Ġrestriction s
traverse Relation
PAT TERN
vanced Entity
getFull Path
sumed Events
Datagram Channel
<?,? >
B order
E ar
L aziness
S X
U AL
W HERE
× ĳ
get Month
get Items
get Title
ar k
Ġ" `
ue l
In etSocketAddress
Ex clude
Ġp Check
ĠS ybase
ĠString Writer
State lessSession
ĠJ an
Session Services
ir th
Path Name
ST ORE
Js OutputOption
Names paces
Argument Context
Ġquery ForProperty
DE S
fail ure
Select ables
RO UP
Ð¸ ÑĢ
Target Type
Ġfetch Builder
Min us
ServiceRegistry Implementor
à² ¸
ĠIn heritance
ide o
Det ermination
Sequence Generator
Ġinstant iation
Block ing
áĬ ĵ
Ġcache Region
Cap able
Ġmin us
ĠEntityOf Lists
Dom in
PRO P
âĢ ĭ
ĠPlural Attribute
Ġstrategy Selector
Bu ilt
Fk Optimization
Ġjsni Method
CL U
ĠSE LECT
Ste p
publ isher
à½º à¼ĭ
ĠHel per
setMax Results
La unch
ALIZ ED
ĠJA KARTA
DENTI FIER
êĺ ĭ
ĠLine Item
ĠTobag o
J Unit
R andom
l on
m erged
p ack
s ym
w rit
Ð ŀ
Ġ Strategy
Ġ known
le af
In Query
oo led
ib ut
Ġget Filter
Ġtest Empty
Query Options
and roid
Builder Test
Ġ2 000
ĠB ad
à¤ ĩ
dd hist
ill i
Add r
Ġse en
print StackTrace
As Long
à¦ ¤
clo sed
Ġcolumn TypeName
CE SS
getS ort
Ġattribute Mappings
áĪ ĭ
Ġac cum
Has Bar
Ġsecond aryTable
TO KYO
fr ica
Parameterized QualifiedSourceName
BA SE
Mis match
ConnectionProvider Impl
Jso Impl
Ġboot Descriptor
ToEntity Attribute
into String
Pack et
ç¾ ¤
Delay ed
vo ice
Ġviol ations
STAT US
. %
5 7
5 8
5 09
D istance
I LD
S AX
W as
s pring
y g
{ @
Ġ Log
Ġ Response
as Widget
get G
Ġs ynchronization
ess Than
Ġc urr
Ġt id
set Width
Ġb ool
Ġd a
Object Exception
Date Picker
pro ject
An sw
to DateTime
Array Of
new Builder
Ġw ord
Ġw rapperOptions
à¤ ¦
query Spec
Jdbc ConnectionAccess
Annotation Descriptor
Sqm SelectStatement
ĠG ender
Read ers
áĢ Ļ
Ġroot TableGroup
ðĳĦ ®
Return ing
dev Mode
write Int
java c
inter faces
Ġparameter Name
Token s
Ġcheck Serialization
Ġarray Type
getElement Type
Member Type
Work Dir
Ġu uid
Import s
iver y
FIN EST
Host edMode
Ġjpa Metamodel
ĠSE COND
Ġdef ine
PropertyValue Exception
ĠOracle Dialect
ww w
à½´ à¼ĭ
SerializableTypeOracle Builder
ĠBlock Scope
4 3
F FIX
J SO
P ag
S v
] ))
c urr
h alf
i Chronology
k u
n odes
n ano
v en
Ġ Container
Ġ Indexed
Ġ OffsetDateTime
Ġ StackTraceElement
get Map
get Number
get Duration
get Kind
th ers
re a
un expected
ers core
add Property
ĠS peedTracerLogger
Test Case
Query Walker
Un defined
Ġlo b
ĠB uild
à¤ £
Ġde pth
Arg FunctionAs
On Error
Cache MissCount
ĠN or
link er
Ġsuper class
ðĳĦ §
Component Type
Contract s
Ġcollection Persister
Big Long
ĠLong Stream
áĪ į
ðĲĲ ¼
Constraint Descriptor
Ð°Ð º
Mod ification
Validator For
ĠQuery Literal
áĭ Ń
Collector s
Ġidentifier Generator
Composite Type
áİ ł
Upd atable
Immutable Type
== ==
Direction Estimator
var char
Instantiation Exception
Per form
ĠIter able
binding Property
copyOf Range
Ġce Manies
getH uman
SU FFIX
Ġ366 0
entr al
runtime ModelCreationContext
ĠCompilation Unit
NotSupported Exception
áĢŃ áĢ¯
Occurrence InQuery
Surface Data
ìķ Ħ
6 3
: "
B IT
D ummy
S mall
U r
c r
g lobal
n t
Û ģ
Ġ Embedded
al Code
get Region
get Output
get BaseType
Ġ" ?
th o
st mt
Ġtest Insert
Ġtest Assert
em ployees
Value Parameter
Ġset First
to Source
Ġi p
By Key
Method Call
Ġh and
ĠH ql
per cent
Source File
ext ended
sh ake
ary Tables
Ġg rand
RE E
find SubPart
low er
Sqm From
Sqm PathSource
ploy ment
Standard Impl
Ġjdbc Parameter
sub tract
TableGroup Producer
ĠW eb
à¨ ķ
ĠIn etSocketAddress
Ġsqm Parameter
ĠSer vlet
ĠBasic TestEntity
ĠBasic AttributeMapping
can vas
Cap t
Ext ends
Ġchar s
Exp os
EX T
ĠAnnotation Factory
AC C
round Half
Ġloaded Child
ĠMutable Interval
OO D
CRE MENT
Self Reference
Semantic QueryWalker
ðĳĦ´ ");
embedd ed
JSON Object
ĠDis criminator
Ġprocedure Name
lap s
Ste ve
assertNumberOf OccurrenceInQuery
Ġneg ated
orig in
olat te
Ġassemb le
oke Style
ÑĦ ÑĢÐ¸
Ġaffect ed
L es
P ad
T x
h ome
t xt
u v
Ã »
æ ĭ
Ġ $$_
as i
is Native
is Parameterized
get Foo
get Domain
get LockOptions
get Underlying
re ceived
re peat
Re placer
Ġb ad
Ġm ed
Ġm ater
ut down
ĠS ET
ans a
An cestor
Ġj akarta
Ġcon s
ĠC lick
Collection Mapper
super Class
Ġ' \\
reg ex
AL F
getC lazz
Ġexpected Xml
Options Impl
ĠSqm From
And Set
Spec ified
áĢ ħ
ĠJs ni
AT CH
No CascadeOne
Is Null
ĠW eek
áŀ Ķ
Ð¾ Ñģ
Ð¾ Ð¼
Statistics Enabled
bind er
Ġ_ _
mar shallingContext
fetch ed
Ġbind Value
áĭ µ
ManyToOne SelfReference
Ùħ Ø§ÙĦ
run Pass
à³ į");
SH ORT
à« ĭ
upd atable
0000000 8
,? ,?
Loggable String
getWidget Index
Ġ": "
MappingModel CreationProcess
iven ess
Pack ages
Enumer ation
MulId Entity
Ġminute OfHour
LIC IT
isColumn Present
åĪ ©
ufff d
; &#
B ang
C at
D ock
L oop
_ ,
d ynamic
j js
Ã ´
× Ĵ
Ġ Generated
tr usted
get TableReference
get Entities
Ġs ample
(" .*
Ġc orrelatedRoot
Name And
set String
set Message
ig r
ĠS ecurity
Ġtest List
Ġtest Can
00 8
Ġvalue Mapping
con sumer
For Value
ĠJ BinaryOperator
ĠC ON
ĠC ockroach
Method Binding
Attribute Type
Collection Entry
ĠD atagram
Ġde que
Function Factory
Lock String
ĠArray Helper
ĠSqm Root
Configuration s
vid e
Ġsql Selections
long Val
link ed
Read Write
ĠJs Array
à¸ ¢
áŀ ¢
Ġtarget Class
Ġmetadata Builder
ref lection
ĠJava Script
Cal c
trans port
Internal Frame
ĠChild WithBidirectionalManyToMany
Ġconvert ToEntityAttribute
QU ENCE
ĠY EAR
Ġpo ssible
Font s
Suggest ions
ĠEm ployer
ov ina
Invocation TargetException
getResource Registry
Sum marization
Ġpe ople
declaring Class
getSelection Expression
Ġfil ename
áĥ£ áĥ
( $
C asc
J ParameterizedType
M ad
d est
f k
p g
Ò ¯
× §
Ġ Logger
le e
as z
get ter
get Connection
get LimitHandler
get ExpressibleJavaType
it ted
an Int
Ġc ud
ret rieve
Ġb its
Ġb ottom
Entity Data
ĠĠĠĠ ĠĠ
Ġm ask
Ġd ot
Ġtest Class
Ġtest Data
Ġtest Non
ri ends
Table Mapping
Column Sort
ĠC ached
per m
ĠM od
With in
oc iate
Comp ound
Js Native
getC ategoriesWithDesc
Ġexpected InitializedObjects
Root Class
ĠSqm QueryImplementor
Selection Event
ĠG u
áĢ Ĳ
Ġim plied
Error Reporter
string Type
áŀ ł
à´ ¨
View Data
dis abled
Ġhas Size
mapp edBy
getSql Type
ld r
can Use
Compar able
ĠAudit ed
Auto Close
Run With
millis OfDay
QU AR
ĠTem poraryTable
group s
ĠSqlAst Translator
Ġus te
Prop NamedId
dir ty
ĠAttribute Converter
Permutation s
Ġcompany Dto
Ġcontent s
ĠBar b
Parsing TestEntity
ROW S
contain ed
DoNot RunWith
MEDI ATE
C W
C LI
J ap
M ater
\ ");
m ts
m iddle
Ġ Extended
al est
en a
tr ict
tr unc
get Model
get Post
Ġget Parameter
Ġget Reader
Ġget Target
Ġget Sorted
Id PropertyName
ĠS w
Test Utils
av g
Trans lation
Ġh igh
ĠB u
Collection Recreate
Inter ner
op p
Ġexpected ReadOnlyObjects
ĠF ru
RE SOURCE
Sqm Expressible
Ġun its
Out side
gr and
Selection Handler
read Only
Ġsub type
ðĳĦ ¥
ĠV irg
Ð¾ Ð¿
à¬ Ĩ
Named TableReference
js Utils
(' "
Lazy Attribute
15 82
MI L
ĠChild Entity
64 8
SqlAst CreationState
áİ µ
refer encing
Ġreferenced Entity
Ġenc oded
Ġspec ification
Skip Locked
Ġne ver
Ġdiscriminator Value
Navigable Role
Ordered Set
Ġenh anced
JA KARTA
ident al
DomainModel Scope
Unary Operator
Micro s
Affect ed
Quot ing
commended JdbcType
Enclo sing
ĠBuffer ed
getEras edType
ĠFru it
( ()
) *
5 3
D i
D atetime
D atagramSocket
F arm
G ine
] ]
a wt
a Åĭ
b i
s ink
u ced
á »
ä ¸
Ġ Argument
Ġ à¶
Ġ Archive
on BrowserEvent
() "
is Connected
get Min
get AuditReader
ar s
assert DebugId
Ġf n
Ġf mt
set Person
Entity Proxy
iv ing
Ġget Offset
Ġget BuildingContext
Ġo cc
Ġpro to
Or Builder
Method Id
Em ail
ĠM ONTH
ign ore
Statement Ranges
Group ing
File Type
Long Emul
Update Clause
As Stream
Ġkey Set
Day OfYear
CE ND
ĠG renad
Standard Offset
Ġsub Type
Simple NaturalId
No Wrap
ðĳĦ ĩ
Ġser vlet
Case Strategy
VALUE S
ĠSQL Server
NotFound Action
Ġ"' "
ĠAudit Reader
ĠEvent Listener
ĠSessionFactory Builder
Wrapper Options
Ad vice
work s
ĠNative Event
down load
Bi owning
lazy Session
Ġhint Name
âµīâµ Ķ
getSuper Class
Testing Impl
ĠAssertion Error
getFirstChild Element
req s
resultSet Mapping
getPh ones
BeanInstance Producer
' ).
( <
= *,
F ake
H ALF
N ON
R ules
b its
j ector
u c
Ð £
Ġ Parameters
Ġ Condition
et itor
get Arguments
it o
(" $
qu antity
ol ume
set Target
Class Info
Id Entity
Ġtest Select
ĠJ TS
Se q
Array Equals
create Element
new Value
By Type
ĠC SS
Method Creator
ĠM ari
oc ity
Ġproperty Value
enc oded
com plete
Po jo
TI ES
Ġor m
Ġtable Information
As Proxy
à¦ ĩ
Listener Wrapper
root EntityDescriptor
ĠSqm Function
Selection Policy
eri ed
olo g
Standard Function
Ġattribute Source
Ġy et
java x
Metamodel Class
Ġdata Source
JMethod Body
Match ers
Line Item
ĠÐ ¡
Ġlocale Data
Database Column
Optim ize
Vis ibility
Ġ"' ");
ught works
Ġapply SqlSelections
ĠMapping ModelExpressible
process Sql
Pass word
Div ide
Styles heet
Generic Class
Len ient
uk asz
IL ING
css Tree
SK IP
CAL L
getComponent Type
getStart Millis
Ġunwrap Type
Sample Maps
ĠfromClause Access
ury OfEra
Ġinverse JoinColumns
Decor ator
ĠtreatTarget Type
Coded OutputStream
ndi Name
MULTI CAST
assertFile Exists
createTemp File
Integral DataType
Spatial Function
Ġsubtrah endInstant
inid ad
IntegralDataType Holder
F ar
F older
H AND
S ING
S ynchronize
d ed
d irection
e f
g a
i Instant
Ö Ĥ
Ú ª
Ġ ut
Ġ ON
Ġ ast
Ġ Enhancement
er ialized
get Metamodel
get Embedded
get Qualifier
get Language
get Selections
get ParameterizedQualifiedSourceName
or ter
ing Event
Ġn ature
Ġ( ?
Ġc d
Ġt yped
Re ceived
St and
Ġb az
Ġget Text
Ġl ateral
fa iled
Ġre cursive
Ġre ceived
to Text
Ġw a
cess ary
ĠC lob
ĠP rimary
ĠObject OutputStream
Ġ' ('
Ġadd DomHandler
RE N
getTransaction Manager
Basic AttributeMapping
Load Count
Ð¸ Ð¹
Ø§ Ø¦
Ð½ Ð´
ðĳĦ ª
ific ate
aint Color
Html Unit
User Transaction
à® ²
getJdbc JavaType
ĠSql StringGenerationContext
event Bus
áĪ Ĭ
ÃŃ a
Abstract Resource
Ġcache Key
Custom Type
Ġlocal ized
Mar shall
Ð» Ð°Ð½Ð´
ĠJoin Column
ĠMock HasData
Ġprocess ing
ES CAPE
Que ued
ĠMath Context
Compliance Enabled
ARR LEN
Leaf Type
Î¹ Îº
Ġyogi Expected
Ġprocedure Call
ĠAm erika
Ġown ing
ĠAuto Bean
FLO AT
alyz e
tho ughtworks
' >");
A DED
J RunAsync
M or
c D
f allback
m ce
p ers
s ame
z h
Ã ¸
å ¤
Ġ RegExp
() '
is In
get J
get Bind
get Scope
get Prefix
get Top
ul ated
Ġc ourse
Ġt oo
ol ated
el ocity
St ale
set Y
set Child
set User
Entity OfBasics
Ġget FunctionDescriptor
Ġd irectory
ĠS O
Qu antity
Query Builder
Ġl ib
Key Column
ĠJ ohn
Ġre mote
By Alias
ĠH ANA
ia DB
Ġproperty AuditingData
AR ED
Ġcreate TestData
Ġexpected ParameterTypes
Sub Entity
do esNot
ĠEntity B
Ġun ion
getS ymbol
And Compare
Converter Manager
Ġjdbc Values
Ġmap s
à² ²
setParameter Types
Jpa Predicate
Editor With
version s
jdbc ParameterBindings
If Empty
Ġ12 7
Condition s
ĠMetadata Builder
áı į
SqlAst TranslatorFactory
Client s
ĠDouble Stream
Dirty Tracking
Split ter
Execution Count
Ġaudit Reader
Cfg Node
ĠSAX ParseException
Est imate
Lat n
NA TIVE
Derived Join
CUR SOR
ĠalternativeContact s
Assertion Error
Real ClassType
enclo sing
ĠBY TES
ĠJsName Ref
Ġinheritance State
P it
P ending
X srf
e get
g or
g gle
h es
k o
l izer
m enu
s aved
Ð Ķ
Ġ à´
get Interceptor
get Subclass
get Getter
get Maximum
ic ast
ar able
Ġc Scale
Ġc orrect
assert Is
Ex ist
Entity Source
Ġnull able
Class Path
List Join
List Signature
stan ces
Ġtr ace
create StoredProcedureQuery
Ġis Same
Ġentity MappingType
IN CREMENT
Statement Logger
type model
AN T
Ġat tempt
ang le
ĠUn marshallingContext
Ġcomp iled
à¥ Ī
Ġcom pl
next Token
ĠR oundingMode
Error Handler
Dec oder
ĠW indow
ĠCollection Part
Ðµ Ð·
Start up
Domain Path
getJdbc Mappings
with Chronology
Named Parameter
Ġtrans port
Suppress ed
Ag greg
à¶ ½
Multi ply
join Type
ĠFile Descriptor
dt d
err n
Ġread Resolve
man uel
Implicit NamingStrategy
=\" {
Ign ored
getParent s
Tool kit
Ġoverrid den
trace v
extract ing
Print ed
oll ar
à© ĩ
à¥Ģ ");
Catalog Name
Ġcompile Snippet
ĠgetTest Srid
ampl es
ĠIs lands
Rollback Only
buggy Code
Ġmembers hip
agn ost
ĠconvertTo DatabaseColumn
Ġenhancement Context
ĠDel ete
Asc ending
HANA Dialect
clause Stack
Ġtup les
Unserializable Base
QUAR TER
5 2
8 78
= %
D W
D en
F n
H INT
S unk
\ ";
e le
h al
s am
Ġ Man
Ġ áĥ
Ġ .*
on Close
in line
get HTML
get Indexed
it el
th ree
String Converter
Ġ) [
In ventory
ad ix
ch es
set Body
Ġb rowser
Ġb aos
Ġget Exception
Ġget MaximumValue
List Context
add Where
Ġtest Delete
Value Of
ĠJ Program
pro blem
Session Context
Ġj ohn
Table Data
Ġh er
Em ployer
assertTh rows
à¦ ¡
Ins pection
\" >");
Text Box
ĠSqm SelectStatement
Ð¸ ÑĤ
Literal s
LO ADED
Ġcom mit
ĠJs Function
Dis able
Ġpre ferred
function Counter
à¸ ¥
à¬ ²
ÙĪ Ø³
Prefix Operation
Owner Field
à§ Ģ
match ing
áĬ Ń
ĠFile InputStream
JdbcType Indicators
Ġsecond OfMinute
Ac cumulator
Wh ite
Composite Key
Pass ed
ĠPr imitive
à± Ĩ
àŃ ģ
work Method
Ø¨ ÛĮ
getEn rolments
system Default
getNode Name
def ine
Ġwhen Fragments
âµĵ âµı
28 7
Head ing
ational ized
IM MEDIATE
Ġcollect or
ĠInternal CompilerException
Ġpage Size
HttpServlet Request
eventListener Group
ĠPRI ORITY
MIL LI
D ifference
J VM
M ac
P UT
P ower
P apu
R oles
S ud
S CO
S canner
T eacher
c u
g u
z eg
Ġ il
Ġ Insert
Ġ Stack
Ġ Enhancer
as ter
is Enum
get Or
get Predicate
ed As
st d
set Element
set HTML
Ġtest Bad
Time val
Ġvalue Updater
str ings
to List
Un caughtException
new MergedPatterns
Ġh istory
Join Predicate
ast SessionServices
Sub Type
On ce
ĠL imit
ĠG MT
Cont inue
áĢ Ħ
No Millis
IS ION
Ġsource Name
valid ator
à¨ ²
ĠÐ ŀ
ĠSh ared
SafeHtml Builder
ForeignKey s
Ġcopy From
Ġcomponent Type
getColumn Iterator
SqlAst Walker
Thread Policy
à± ģ
Own ers
Ġenc oder
áŁ ģ
src Map
Qualifier Support
Per Class
Violation Exception
Ġinitial Value
ĠLinked HashSet
label s
Fil ename
plural Forms
Õ« Õ
Normal izer
Overlay Function
NoSuch ElementException
UIObject Test
ĠJta Platform
closure Panel
ĠNaming Exception
versable Resolver
ĠNev is
FACTOR Y
' ));
/ "
B AR
D ictionary
E very
I TIAL
M s
O ps
h id
r t
s on
w ice
z ija
Û ĩ
Ġ âµı
Ġ NotAudited
get Lazy
get Setter
(" :
In ches
ol k
Con st
set Reference
iz ations
ig u
Ġget Interpreter
em f
Value ChangeEvent
Ġset Person
Ġl i
Or m
ĠB lob
Null Object
ON ENT
test Determination
Ġde partment
Js BinaryOperation
Long Value
Ġcreate Uint
Ref Coll
Cache PutCount
ĠSqm SelectionQuery
Dialect ResolutionInfo
âµ ¡
Ġsub Map
Ret ain
All WKT
ĠMap s
current State
with Locale
áĪ Ľ
ðĲĲ »
Week year
Ġmapping Type
Ñĥ ÑĤ
Full y
ĠAbstract HANADialect
AA AA
áİ ¢
áī ³
Browser Events
ĠNode Builder
Ġpo int
Ġmanaged Type
Bootstrap ServiceRegistry
Comparison Predicate
Ġcontract Variation
Ġprepare TestData
ba os
ĠMulti ple
created On
åħ ĭ
ĠcreateNativeSQLStatement AllWKT
CustomSql Dml
SelectQuery Plan
Hex String
Provid es
ĠOP EN
ĠBarb uda
RefColl Entity
ĠcreateNativeSQLStatementAllWKT Params
CustomSqlDml Type
G avin
I DENTIFIER
J E
N Clob
P res
P ager
R en
W AIT
a Number
c oder
p Id
} \
Ġ Entry
Ġ OR
Ġ Qualified
Ġ âĢĵ
is or
is GenericType
get All
get Initializer
Ġs ec
Ġc Orig
Ġc andidate
Type Element
Re ason
Entity Of
Ġm ixed
ĠS plit
Ġtest Map
Ġ- -
em ployer
Value Editor
Ġset String
con n
ser vlet
Ġcon tribute
Ġentity Instance
Path PrefixSet
Ġh ide
ss ss
sh ip
AL ECT
Po ssible
check Empty
Pre Update
AN CE
Text Output
Identifier Helper
ĠSqm Expressible
Ġpersist ence
load Class
ðĳĦ £
Ġpre paredStatement
ĠX Class
Ġsource Document
ĠCollection Classification
34 56
à® µ
Ġstart Element
Position s
element Type
column Name
Token Stream
áĪ Ŀ
getKey Descriptor
ĠÐ ĵ
resolve TableReference
', '
Database MetaData
Ġmin imalRebuildCache
Ġ"' ",
Ġcopy Cache
getPre cision
Audited Entity
Tool ingHint
Post Insert
Selector s
Cascade Delete
Ġdel imiter
abc def
Ġenum Type
compilation Metrics
Red irect
Round ingMode
Ġdepend encies
Ġapp lication
Ġ366 1
essim istic
Dat as
ittle Endian
gor ith
A b
A udio
R ST
d istinct
s pliterator
s omething
Ã ¯
Ġ Result
Ġ Ø§
Ġ Ð°ÑĢ
Ġ GeneratorContext
is Leap
Ġc r
ad o
st ore
set F
Tr inidad
Id Generator
Ġd ynamic
ime Type
ĠJ Constructor
ĠJ ob
ive Pred
Property Oracle
append Value
ĠH OUR
à¤ ·
à¤ ħ
ern ary
ĠM al
Ġ' -
Message Interpolator
From Element
getC ategory
Ġadd Handler
Zone Offset
Many ToAny
Ġun derlying
Version s
à½ Ħ
read All
Unit TestTreeLogger
Row Element
getS cale
ance led
áĢ ¡
AT ING
Alias ing
Ġvalues Consumer
Case SimpleExpression
user Agent
old ier
áŀ ĺ
source Map
Ġout putStream
person Id
Ġoffset Expression
Mod ifiers
getR ight
à¶ Ń
Multi Valued
Subclass Entity
bit Account
Ġcache Access
Ġuser Agent
Last Modified
TA TION
áĭ °
Config ured
debug gee
àµ ĭ
Cte Container
Window Functions
Mutable Interval
Ġsimple Entity
Ġvalid ation
Ġconstr uct
fl ip
SH ARED
Ø¨ Ø§
Compiler EventType
det ach
ithmetic Expression
ĠJaxb Entity
ĠNamed TableReference
.* "));
Exact ly
getOffset Height
configuration Values
getRoot s
Groups Metadata
Mal formed
neg ative
Like Predicate
ĠPersistence Exception
áĢ¸ ");
Compiled Class
getFrom TypeMap
adapt ivePred
TUR N
Laziness Interceptor
Perform ance
AsProxy LazinessInterceptor
DW P
itel ist
adaptivePred ict
9 29
G O
l ers
m ate
m issing
s ockopt
å ·
Ġ Constructor
Ġ Namespace
Ġ ForeignKeyDescriptor
ľ áĥ
in stall
get BasicTypeForJavaType
Ġc trl
assert ArrayEquals
Ġf low
Ġe q
set Display
Id TestEntity
Ġtest Collection
To Int
To Create
De legating
For Class
Ġre ceive
An si
At tempt
Method Ids
mo ther
ST RI
Event Reader
super class
Ġde lay
cl init
getC ode
++ ,
ĠEntity IdentifierMapping
Sqm Function
Ġan not
ĠSqm PathSource
ĠSqm Correlated
Ġparent TableGroup
remove From
Alias ed
ðĳĦ Ł
Boolean ExpressionPredicate
init ializer
getJdbc Value
11 89
Ġsqm From
Lazy Loading
target s
à¶ ¸
FI RST
Ġjs Program
getSql ExceptionHelper
Ġexec ution
Ġdoes n
àµ »
ĠAudit Criterion
Batch es
Ġconfig Values
ãĥ ¼
Plural AttributeSource
àŃ ĭ
finish edMessage
Mouse Wheel
Ġconverter Lookup
ĠDuration Field
Ġbasic TypeRegistry
à© ĭ
This Ref
float Value
getOffset Width
STIC S
Ðľ Ð°Ð»
ĠName Coder
Ġsystem Id
revision Info
Ġunknown Fields
presentation Strategy
ĠGraph Semantic
PAT H
Show ing
getEnd Millis
VO KE
dispatch Event
Ø³Øª Ø§ÙĨ
NativePreview Handler
ĠPerm utation
APP LE
itted Artifact
1 12
8 7
9 2
A IN
C ookies
G e
H ouse
K u
O LD
X sd
_ -
f n
f lag
g res
m en
Ñ ħ
Ġ .
Ġ Õ
Ġ es
Ġ oid
Ġ Empty
et ary
get Args
Ġs can
ab stract
Type Info
Type Declaration
el m
Ġp ack
Ġp air
Ġp adding
Re cogn
un e
St amp
set FieldIn
Ġb ag
Tr ivially
List Box
try Create
Ġtest Create
Ġin ferred
Query ExecutionContext
Value ChangeHandler
Set Entity
create EntityGraph
Ġis Html
Ġw eb
Des ignTime
Ġh is
mo use
ĠM AIN
all et
Ð° Ñģ
Ġem ulate
Jdbc ParameterBindings
list Of
DE L
Resource Generator
Cache Dir
à¦ ļ
Offset s
OR K
Af rica
Serializ edType
Ġload QueryInfluencers
write String
Bean Manager
Start ed
Hibernate FlushMode
Named StoredProcedureQuery
ateg or
à¨ Ĩ
Ġdis abled
Jpa Window
ĠJdbc TypeRegistry
ĠAn chor
getN odes
jdbc TypeCode
AuditReader Implementor
po pulate
Association Type
Association Key
Ġresol ution
Var char
Ġxml ns
Indexed ListJoinColumnBidirectionalRefIngEntity
Ġpo licy
ĠEmbeddable Aggregate
STA TI
Ġtoken izer
73 5
29 22
SimpleFoo Request
Ġdiscriminator Mapping
transaction Coordinator
Ġsp aces
ĠJSON Object
VAR BINARY
Ġattr s
Ġrequ ire
Fragments Requested
BE AN
Cacheable Item
setCurrentMillis System
COL UMN
Ġescape Char
CUR RENT
aving Clause
Priv ileged
áĥĿ áĥ
ĠNANO SECOND
Clamped Array
flat Map
yg on
Provides Key
å· ´
SerializedType ViolationException
- "
1 10
9 0
B en
E poch
S al
S ync
V ehicle
c v
j ob
p ow
r chase
s es
u ally
Ġ Origin
Ġ ReflectHelper
al History
al ways
is ka
get Namespace
get Leap
or Else
Ġ" )"
Ġs ince
Ġ( '
Ġc ldr
In compatible
assert FragmentsRequested
un i
Ġ1 70
ans ion
Ġvalue Of
Set Join
Ġex ist
Ġex pressible
Ġtr anchenmodell
Ġis Terminal
ĠC ount
Method Visitor
Ġh ierarchy
Ġlo c
Result Assembler
ST E
ĠD og
Parser Tester
Pre conditions
DE PRE
edic alHistory
af f
AN Y
Ġan t
ĠHibernate CriteriaBuilder
à½ Į
code Point
getS cript
remove Child
Is Valid
Ġparse Tree
Min orVersion
àº µ
à® ļ
with Type
Ġtrans fer
Ġwith LocalMillis
column Type
ref lect
Revision Numbers
áĪ «
Ġfirst Statement
If Needed
à¶ ´
Down Handler
Equal ity
98 76
JdbcType Code
Ac c
"} },
getQuery Part
Ġextract RevisionNumbers
EX CE
view er
Ġcte Statement
Minute OfHour
Ġhbm Class
Book s
Ġrole Name
basic TypeRegistry
ĠLazy Entity
real Class
ĠDynamic FetchBuilder
Ġpartial Path
regis tration
Ġdepend ent
rel ative
Õ¸ ÖĤ
oper ation
Ġintegration Settings
Ġ36 00
sel f
anes e
ĠApi Change
ĠComparison Operator
edon ia
onal d
ÙīÙĬ Ûķ
Antig ua
ÑĦÑĢÐ¸ ÐºÐ°
æĭ ī
Mad ag
HAND L
ĠPrimary Key
STATI STICS
H ome
P x
P TION
P ixel
T ur
m k
å ²
Ġ ^
Ġ ite
Ġ Ð¸
Ġ ÙĪ
in ferredData
get Tr
get Variations
ar ib
Ġs ess
re maining
Ġv ehicle
String Value
ad or
Ġnew Bar
oo ser
up per
ut a
ut ing
Ġget Tag
List Entity
add ed
Ġtest Not
for Pattern
Ġl c
pro du
Se quences
Th rough
Ġcon trib
Ġw ait
ĠC ap
ĠC ore
Path Prefix
IN F
à¤ ¼
ĠA SS
ĠA ND
Not ification
ĠObject InputStream
uf act
ill y
Ġcreate Test
Ġcreate DomainResult
Ġr m
do g
log ical
log Error
Sqm Statement
Ġan chor
pa int
Audit Expression
OR IAN
ĠW HEN
à¸ ķ
Ġend Instant
à° Ĥ
à² µ
column Reference
Ġselect Statement
mapp ings
ĠQuery Exception
PER SIST
ÙĦ ÛĮ
man ies
Schema ManagementTool
Ġerror Manager
model Part
div id
Cte Table
Ġselection Model
Ġassert Typing
Other Entity
74 5
Ġqu oted
Ú© Ø§
Ġus ers
## #
enum s
getParameter Types
ymorph ism
[], []
defined In
MappingModel Expressible
sl ash
Allow ed
Duplic ates
ampling Order
GENER ATE
integr ation
Organ ization
REG ORIAN
[[], [],[]
gorith m
/ >
4 7
M ixed
P ublisher
S low
S Ã£o
a Collection
h av
i ant
m i
q nameMap
u uid
Û ĭ
Ġ Reader
Ġ Charset
en tries
as ync
is JsNative
tr os
get Associated
get Actual
get NoProxy
an ing
Ġs rid
Con currentHashMap
set Top
pr ite
Pro d
Ġget Re
Ġget Annotation
Ġget Select
Ġget TypeConfiguration
ĠS pec
Ġtest Parse
co uld
av ings
To Long
Ġset Access
create Aggregate
per ly
Event Handler
With Default
Al ways
test Add
cl s
Pre Destroy
print To
Initializ ers
Fetch Queue
Ġkey Col
Empty List
EN TRY
getS up
Char acters
AT IN
build Partial
Ġfetch es
Ġas c
à° Ł
valid ation
à¬ ª
à¬ ®
àª ®
ĠO UT
Ġreg ex
Ġwith Millis
Ġparam Name
Ð°Ð ³
Build ing
Ġformat ted
Ġread Object
Hand Operand
Ed ges
by SimpleNaturalId
amb od
MO VE
run Test
à¯ Ĩ
ĠFetch Style
Extension s
Export ed
body Weight
Restriction Bindings
Ġplural AttributeMapping
Ġtransform er
safe Add
à» Ĥ
getP resenter
ĠEm bId
Ġsystem User
Tenant ConnectionProvider
plural Widgets
TERN AL
ci pe
Memory Segment
ĠGregorian Chronology
FILE S
compiler Options
counter ed
izes FromCombined
ĠCo ercion
ĠUi Binder
723 34
7678 287
ibut i
NoWrap ToCopy
pluralWidgets Other
! ",
" =
3 74
6 2
> []
D TO
G ood
G ROUP
G OOD
K it
K om
K amer
L ater
O id
P otential
S pliterator
X K
b lob
h ints
j unction
s cal
w ich
Î ®
Ġ Color
Ġ NullPrecedence
as a
get Setting
get TableGroupJoins
Ġc redit
String Array
In et
In New
Ġf unc
set Sex
Ġm ajorVersion
Ġtest NativeQuery
Ġtest Nested
Qu eried
To Process
Query Cache
em it
Ġst yles
Ġset A
De bu
Key PropertyNames
fer r
Th at
Ġsession Implementor
Table Alias
ne ed
Column References
ĠC H
ĠH ours
Collection Remove
ĠA AEntity
Event Target
With Non
Source Origin
Ġto Row
ĠD ays
ĠD dlType
reg Exp
Ġar r
Pre c
Ġem ail
Resource Context
Sqm FunctionDescriptor
az z
à½ ł
Ð¸ Ð±
Hel pInfo
field Manager
áĢ ļ
áĢ ľ
Ap plied
Pl ans
Ġy our
No te
apply Predicate
Is l
execute Query
', \
CA SE
Ġannotation Type
Inner Html
ĠJoin er
Ġdomain Type
Layout Data
Ġsimple FooRequest
eat ures
CI MAL
ĠZ onedDateTime
Inherit ableMethods
External Form
Ġunique Constraints
ĠCom mand
Bu cket
getAddress es
Ġweek s
Ġdec imal
ĠMin utes
Ã½ a
ĠdoIn Hibernate
ĠServer Socket
StrictJpaCompliance Violation
ingEvent Monitor
ĠtoRow Selection
8 09
9 7
C a
C ost
C ategories
D dlType
J AXB
M odes
R u
_ "
b ia
j ta
l ive
s ite
w ar
w alker
y e
} ";
Î ³
å Ĭ
Ġ Model
Ġ Char
Ġ peek
Ġ ordinal
Ġ ORDER
et ition
on Attach
in ent
as cript
is Versioned
ed iate
re ct
urn ame
Type Parameter
if e
se curity
Con currency
set LockMode
Over all
Ġm on
Ġm ce
add NoWrapToCopy
Ġd own
Ġtest Method
Ġtest Write
Ġin strument
av ascript
Ġth ings
Field Ref
Ġex clude
Ġre lated
Un versioned
create STE
Or SuperType
ĠC a
ĠB ob
Ġtype Map
ĠA ct
ĠA ST
Comp at
Ġch ange
Parent s
RE D
Ġ4 00
Instance Of
Ġan n
Ġparent s
xy z
erm ediate
Row Operation
ant s
Ġjdbc Parameters
remove Handler
sub Builder
Pl ayer
PA SS
à¸ ¡
àº ¥
à´ ª
à´ µ
orre late
ĠComp arable
ĠJdbc Value
Ġcurrent State
Expected Failure
Line Number
resolve SqlExpression
Ġmake List
instant iated
Ġand roid
Ġq Name
Mock Resource
ĠJoin Table
OneToMany Field
Do ub
18 34
StoredProcedure Call
component s
MAL L
Ð¾Ð½ Ð³
ĠTransaction Manager
ðĲĲ² ðĲĳĮ
sm all
à¾ ·
Locking Strategy
Animation Enabled
Ġneg ative
getDisplay Name
Ġruntime ModelCreationContext
Ġdelet ed
getSelectable Node
Popu lation
ĠSample Maps
Ġreflection Provider
getEmbeddable TypeDescriptor
GO TO
" ",
/ ",
F amily
G SE
G MT
M aybe
b est
s uffix
t enant
Ã °
Ú Ī
et Provider
et ty
al le
is False
get Action
get Config
get Aggregate
get Ui
get Age
get BuildingOptions
get MonthOfYear
Ġ" ("
Ġs l
Ġs ocket
(" __
de finition
In struction
Ġt ail
im g
put er
En code
Ġnew Obj
Re placed
set Left
pr imitive
Ġb undle
Ġget Resource
add Statement
Ġtest Array
Ġtest Package
To PrimaryKey
Ġst op
Ġset Key
Ġi Instant
Ġpro gress
par ty
ain er
ir y
ĠH H
us ic
ĠB EG
Ġtype Code
ST RE
ĠM O
ĠM Bean
Not ifier
Sql Script
Ġ' ,
getC ascade
getC urrency
ug in
As List
Item Type
Select Ignore
Ġkey Type
ĠUn ique
Basic ValuedMapping
are Equal
Graph ParsingTestEntity
78 79
à´ ®
arch ive
Ġparameter Types
Editor Data
URL Exception
ĠProperty Access
resolve SqlSelection
array Of
Ġrev iew
getSql String
Timestamp With
ĠpropertyName Getter
My SQL
Keyword s
Generated For
Association Query
Ġmodule Def
Expr Stmt
Button Element
à³ ģ
à³ Ĩ
Selectable Mappings
Search Clause
Ġxml Reader
Ø¨ Ø±
Ġwidget Ui
CHE CK
Ġcal ler
Ġcustom ers
setDefault ReadOnly
air Color
content Handler
ĠST ART
Raw Type
rand om
sk ills
Mult icast
Ġsum mary
head Map
Ġhel pInfo
Ġscroll ableResults
Ma ur
pass word
Example Item
ComponentProperty NameMap
ĠMappingMetamodel Implementor
getUnderlying Type
ĠBu ddhist
withType Capacity
ĠBEG IN
7879 1834
A TIVE
D G
F unc
F uture
J Visitor
J iraKey
M ammal
M artin
S UP
S cheduler
T en
d erscore
e cond
f ree
f olk
h idden
s av
s ynthetic
t yped
u j
ç ´
Ġ push
Ġ Ø¦
Ġ GenerationTarget
Ġ ProcedureParameter
on ger
in cent
get Options
ed Writer
ro pa
pe er
(); \
Ġc ookie
de ck
de ep
Ġt imes
En able
Ġp n
Re use
Ġe le
set D
Over load
Ġget Keys
Ġtest Save
Ġth rowable
Value Node
Key Event
For LazyLoading
ach es
Column Aliases
ĠC LASS
Path Part
ĠB OOLEAN
Null Foo
ĠM emory
ĠD atagramSocket
ak i
Ġde precated
Ġ' ,'
Ġstr ict
ME TA
af t
Sqm JoinType
back ground
CE D
ĠG J
Constr uct
Ġjdbc ResultsMetadata
ik ar
parse Period
source Document
à° µ
getJdbc TypeCode
à¨ ¿
ĠIn ner
Form Panel
ĠJdbc LiteralFormatter
Lazy Entity
jdbc Coordinator
FI ED
join Columns
ĠJpa Root
Ñĥ Ð½
Am eri
ĠU P
Cast Target
AS G
Readable Duration
Ġlhs Expressions
ĠSchema Util
Ġbook s
Outer Join
Font Name
safe Multiply
pted Child
LOCK ED
Ġsup plier
getP ort
getSimple SourceName
pi pe
Ġper cent
Ev en
ElementBuilder Factory
Alternate Message
Ġpe er
ĠAl ias
ĠSecond s
Ġtranslate Exception
GRA DE
ĠRel ational
addS ong
ivery Node
ĠWeek s
NameAnd Value
igu ous
ĠBuddhist Chronology
C S
C leanup
D im
E Y
H ave
V elocity
c enter
c ategoriesWithDesc
Ï Į
á ¼
æ ´
Ġ Qu
er ved
in y
ion al
is Mutable
tr e
get Unit
get Comment
get FlushMode
get NamedQuery
or n
ur o
Ġ" ]",
Ġn f
Ġs am
ame l
il an
il la
In Millis
In Fragment
In jector
qu ari
St ar
set InnerHTML
Ġget From
add Phone
Ġd ml
Ġd iff
To ComponentPropertyNameMap
Query Contract
Value Sources
Ġset Owner
Time Nanos
De x
Ġvalue Consumer
cal led
Ġre peat
ain All
tem poral
ĠM el
ĠM ik
ĠA SC
Descriptor Impl
check NotNull
eg a
Ġal ways
Ġquery Param
Default Message
à¦ Ĺ
ĠEntity Graph
12 7
Ġext ended
Log Record
ÑĢ Ðµ
utable Inclusion
Process ed
àº Ķ
source MappingDocument
SQL Delete
Defin edType
à¨ ®
min uendInstant
Ġpath Tracker
ĠComp iler
ĠComp ilerContext
Ġwith inGroup
ĠIn vocation
Editor Delegate
event Type
pend ing
getProperty Names
Ġowner Type
Write To
Ð² ÑĢ
àµ ģ
SqlAst CreationContext
Ġsimple Name
Ġmatch ed
Accessor Name
Contain edBean
Ġrevision Type
Ġà¤ Ĩ
getCollection Table
Ġsort Specification
Ġcontainer JavaType
ĠMar shallingContext
Optimizer Context
cent uryOfEra
multi ply
Ġcase SearchedExpression
Ġfetchable Path
Ġcomposite Type
ĠdateTime Medium
allow ed
JSON Array
TreeNode View
Writ ing
ĠtestProperty Add
Persistence Exception
Ġdeclaring Type
Eras ure
getLoaded Persister
1020 30
abs olute
ĠPostgreSQL Dialect
ĠdoIn JPA
Positional Parameter
members hip
MOD ULE
ĠOptimizer Stats
PLA CE
alk land
doesNot Contain
Papu a
å² Ľ
C lazz
G LOB
J ust
J ValueLiteral
K orea
L LOW
M igr
Z er
c ycle
d ot
d irectionalTextHelper
g ss
h p
v es
} "
Ð ķ
Ġ áı
Ġ Versioned
Ġ Ø¬
Ġ oos
Ġ answer
is o
is Visible
is ibility
get Partial
get Resources
get Strings
get Bytecode
get InnerText
get ThreadPolicy
Ġ" ;\
Ġc lick
assert Contains
Type Description
im mediate
iv ot
ĠS SL
Ġtest s
Ġtest Compare
To JavaScript
Ġst d
Ġset Column
Ġl ineno
Se par
An onymous
Ġi Cutover
create Array
new Values
Ġis Un
Property Type
Path Access
Method Body
Result Checker
ĠT ab
Source Level
Source ProcessingState
Ġfrom Index
ron es
Parent hes
Ġem it
Metadata Generator
Fetch Size
ĠSqm JoinType
Out box
ĠN ATIVE
à½ Ĭ
contains All
Ġsub select
Target NotAuditedEntity
param Type
ĠSet RefIngEntity
Alias edNode
register Alternate
Ġfetch Expression
Ġas ync
map Of
34 5
à° ®
à² Ł
System User
Defin edValue
ĠTest Set
Ġsqm Expressible
Ġpr ice
ðĲĲ ª
replace ments
Tuple Comparison
Week OfWeekyear
ĠK EY
Inner Joins
err no
po ison
getPre ferredSqlTypeCodeFor
ĠAudit Exception
Tim or
Ġte achers
STR U
inherit ance
Modified Flags
over lay
Post Commit
cap tion
Ġ19 70
Ġloaded State
Ui Handler
yy y
ĠDefault Value
Final ly
Page Start
Ġmillis OfSecond
decl are
getMetadata BuildingOptions
Ðľ Ð°ÑĢ
DAY S
ĠJSON Array
Bi Consumer
Ġhour OfDay
Fil ip
ĠdateTime Long
×¨ ×Ļ×
Popup Panel
ÑĢÐ¸ ÑĤ
ĠHas Data
\": \"
Ġserialization Policy
ĠEnvers Settings
isClass OrInterface
setKey boardSelectedRow
ĠCascade Type
ArgumentTypeResolver s
CollectionUpdate Listener
ĠSup plementalInfo
criminated Association
Follow OnLocking
Jam h
ĠCockroach Dialect
ĠVirg in
cD onald
Zer os
A J
C aches
E OF
G ame
K az
O ME
O CI
S AC
T ight
k s
Ä ĵ
Ù ½
Ġ Ú©
Ġ Project
Ġ icon
in variant
as Erasure
is Ordinalized
get Un
get Order
get Return
get Lob
get Printer
get Parts
get Implements
get Optimized
Ġ" --
(" &
assert Cfg
Type Contributions
put IfAbsent
Ġe ob
Ġget Millis
Ġget Max
Ġd dlTypeRegistry
Ġtest Persist
Ġtest ManyToOne
Ġtest Multiple
Ġtest Plus
00 01
Query Plan
Ġre placer
At Rule
Ġid Class
Ġis Contract
By UniqueKey
Ġpar sing
ĠH er
ĠH ash
Integer Digits
ĠM ember
ĠM iddle
Event ID
Al ive
ĠD O
)) "
test Method
ĠI S
getC ountry
getC ategories
Ġadd Column
Ġse ction
Sub Types
RE SH
Be ing
ip al
del eted
Util ity
Ġfield Manager
Constr ained
And Return
sub List
Pl ain
Sett ers
ðĳĦ ĥ
visit Method
Ġsource Map
char acter
à² ®
à¬ ¬
Ġallow FkOptimization
àª ¡
Hibernate Exception
property Data
Clo sing
ĠAn other
URL s
Ġversion ed
instant iation
ĠJpa SubQuery
anch or
Ġmin Digits
Can Be
ByteArray OutputStream
Ð°Ð½ Ð°
getColumn Expression
process ingState
à± ĭ
áī £
Tab Index
Ġpredicate Consumer
áŁ Ĭ
convert Another
à¹ Ĥ
Ġaudit ed
Ø¯ Ø§
ĠST MT
UB LIC
AEntity Superclass
SSI ON
PrimaryKey JoinColumn
ĠSource Info
ĠSafeHtml Utils
Ø² ÛĮ
marshal ler
getWidget Count
Ġupd ating
spec ified
ĠtestProperty Set
getBean Instance
strategy Selector
ÑģÑĤÑĢ Ð¾Ð²
MAN Y
hasMore Children
JsInterop Exports
GRA PH
ĠJAXB Element
Kan ada
agnost ic
ĠTestSet Factory
OCI ATION
getOptimized Program
! =
; )
J unction
M ay
N i
Q Name
R om
S ynchronized
f to
æ ¯
Ġ Reference
er as
is StatisticsEnabled
get Timestamp
Ġ" @
Ġ" )");
Ġn atural
Ġc p
Ġ) );
Ġp ers
Ġp ayment
Con flict
set Comment
Ġb ootstrap
iv ely
Ġget Root
add ImmutableType
Ġtest Join
Ġtest Lifecycle
Test Priv
Ġset The
Ġex actly
to SafeHtml
Table Information
ex ical
ĠC ity
ializ ers
à¤ ī
Attribute Descriptor
ge olatte
Local ized
ak o
Ġde fin
Ġcreate Cell
Ġor phan
Ġquery Parameter
form ula
Ġun expected
Ġun supported
Sh ell
Selection ChangeEvent
Call s
Ġsub Part
has SideEffects
foo Proxy
write To
Ġsource MappingDocument
data Provider
Double ListJoinColumnBidirectionalRefEdEntity
current PreDestroy
MA SK
à´ °
PE CTED
Fragment Count
getN ested
Tuple Transformer
CK ER
getSql Selections
ĠFile OutputStream
Mutation Operations
Ð°Ð½ Ð¸Ñı
ÉĽ n
base Type
à¯ ĭ
ĠNumber edNode
Post Update
Meta Attribute
History Token
ĠFoo HasBar
SubQuery Expression
ĠPAR IS
âµĵ âµĶ
getDeclared Field
getReferenced EntityName
MODE L
singleton Map
Ġlike Predicate
Ġdest ination
Trusted NameAndValue
Wall is
getListener Count
AMappedSuperclass Superclass
ÇĿ r
getSecondLevelCache HitCount
MAR K
Ġjjs map
nano Time
Seq Entity
ĠDdlType Impl
registerAlternate Key
TestPriv SeqEntity
currentPreDestroy Count
4 1
6 8
> >();
A Class
B rit
E SSIMISTIC
H i
I ll
J BinaryOperation
N am
S ÇĿr
X Path
h h
j ohn
n able
n ickNames
n emon
p n
t v
Î ·
Ø ·
Ú Ĩ
ç ī
Ġ Resources
Ġ Engine
Ġ ParseException
is Enabled
is Final
is NaN
get Audit
get Enum
ur er
Ġs elf
Ġv at
Ġv isible
il le
Ex cludes
Ġp a
Name Exception
Re maining
set Date
Overrid able
Id Mapping
Ġin ste
Test Base
Object Type
for ID
and wich
Ġset Address
Ġset Children
to HexString
create Div
Table Insert
ĠH ttp
ĠP ESSIMISTIC
Em manuel
Source Input
Ġto TemporalType
Comp act
Sql ExpressionResolver
Ġfrom TemporalType
Ġcreate Map
check Container
Ġadd Child
Ġadd ConfigOptions
from Clause
On Execution
Ġon Click
chem as
UR IS
Ġser ial
CO MM
char s
Min Partial
áŀ Ľ
àº £
Ġwhere Clause
Ġbyte code
ĠO ption
ÙĨ ÛĮ
the Json
MA IN
ĠTest Data
dis assemble
30 2
Content Type
Hour MinPartial
Ġjs Array
fetch Size
02 76
Ġexception s
=\" "
ĠJoin ed
Ġextract ed
Work er
Div ider
refer ences
Expressible Type
ĠFetch able
pos ed
Ġcte Statements
ĠZ ip
READ WRITE
ĠEmbeddable ValuedModelPart
Ġcontainer Class
Ġhbm Xml
Execution Exception
Touch Move
Ġmerge Entity
ĠTransaction Status
ĠSource Type
Initialize Collection
ĠText Cell
ĠdateTime Full
wrapped Path
Hash Entry
Õ« Õ¡
Õ« Õ¶
Rec urrence
ĠSequence StyleGenerator
ĠDomainResult CreationState
evict EntityData
integer Type
ĠIllegal AccessException
Diff Generator
Sk ipping
getIdent ificationVariable
SPE C
Expectations Factory
getConfiguration Values
Î¿Ï ħ
ĠVAR BINARY
isType OrSuperType
åį Ĺ
inc ipal
ĠqueryForProperty HasChanged
olog ical
878 7678287
DEPRE CATION
åĬ ł
Concurrency Strategy
quari um
Ġinste ad
6 9
8 00
> ());
C SS
D og
F ORM
G IN
J Local
N ationalized
P TIC
S en
S oftware
V lad
X Y
b le
b idden
b ootstrapContext
b idiUtils
e ffective
f un
j ts
r tl
Ï Ģ
Ð Ĺ
at an
get ForeignKeyDescriptor
get JsObject
get Effective
ing For
ar ter
ass ociated
set X
set Item
set Size
Ġget Child
Object Repository
entity Id
Ch ooser
To Put
Met h
Builder Factory
Th ings
Table Cell
Ġentity Result
Ġh ome
ĠH ouse
us i
IN VOKE
Ġtype Id
Null Key
à¤ Ĩ
Collection Change
Collection ElementType
Em bed
Ġ} )
Java Class
Ð° Ñĥ
Function Contributions
check Ids
list Iterator
find TableGroup
Ġreturn ing
Fetch Count
Lock able
Ġkey Code
ĠUn versioned
fin est
Sh ape
Ø§ Ø³
Ġon Load
Ġon Delete
áĢ Ĥ
has Registered
Ġim g
Ġevent s
ÑĢ Ð°Ð½
write Byte
CO PTIC
à² Ĺ
Domain QueryExecutionContext
áĪ ´
ĠSimple Foo
getProperty Access
last Modified
getElement ById
ĠjavaType Class
dt Util
Ġcache able
proto col
ForeignKey Name
Ġapply MetadataSources
ManyToMany Owning
Ġconnection Access
Api AbstractMethod
Ign oring
cell List
make Set
EX CLU
TYPE S
SqlAst JoinType
ãĥ «
84 7823
ĠTree Item
Driver Control
') ";
Display Mode
Ġu id
Ġbean Manager
ma de
à« Ģ
product s
Ġsort Specifications
EventListener Manager
Are Deleted
getCache Mode
Timeout Exception
abc de
Touch Start
getCanon ical
multi Load
Ġnormal ized
Ne cessary
JField Ref
ĠPath Prefix
áĢº ");
Ġprint To
Ġco erce
getCustom Sql
sect s
Ãģ frica
getMutating VisitController
ĠDerby Dialect
Supert ypes
ByClause Expressions
Alter Table
ickup Node
stable Id
efined Format
Answ er
HostedMode Utils
Pag ing
Aggreg ates
zeg ovina
/ ></
2 55
5 00
> =
C ATED
C irc
I Frame
P I
P at
Y ORK
b f
b ine
l tr
m emoized
p ng
r relevantEntity
u ib
Ø ©
Ġ Version
Ġ ContractVariation
Ġ Ø¢
); \
in cludes
al ready
is First
an u
Ġs ynthetic
Ġs omething
Ġv ertical
Ġc k
Ġc ould
assert Method
assert NaN
se u
Ex traction
ment um
Ġp rim
Ġf ill
un lock
un derlying
um b
up lizer
St ax
set Region
set Accessible
Ġb te
Entity B
od a
Ġget Persister
Ġget Contract
Ġget Discriminator
List Builder
Ġtest In
Ġtest Equals
action List
Builder Initialization
ĠJ DeclaredType
Field Builder
ser vers
An not
Ġis Abstract
ir n
us pend
DateTime Parser
ĠM atch
Node Name
cl ip
Js BinaryOperator
Ġcreate ElementBuilder
Ġcreate NavigableMap
Ġg ss
getC ity
Info String
Entry Set
Ġal ert
Resource Type
On Exit
à¦ ī
af fect
ĠEntity Result
Sqm Root
ĠSqm TypedNode
Locale Data
Ġsql TreeWalker
ĠG e
ud t
Log Builder
Target Entity
Ġ5 7
ĠV incent
Tem porary
Second LevelCache
ÙĨ ÙĪ
78 49
(' /
Ġpr inter
Vari ables
Ð°Ð ±
Ġimplement ed
ĠK it
Ġannotation Class
Cap abilities
Ġappend HqlString
Am ong
Ġcustomer Id
MO DI
empty Set
ĠSessionFactory Scope
Sort Order
getIdentifier Type
Input Factory
Vector Mask
Ġrevision Info
role Name
45 7356
Ã³ nia
Force BuilderInitialization
content s
Ð¸Ð½ Ð°
Geometry Type
â´°âµ į
selection Model
ĠData Source
getDatabase Structure
Transition s
Ġplace holder
FetchParent Access
primary Expression
embeddable MappingType
Ġqualified Name
TransactionCoordinator Impl
fetchable Path
Gregorian Calendar
ĠBootstrap ServiceRegistryBuilder
Ġseg ments
assertBuggy Succeeds
rec order
ĠdomainResult CreationState
648 39
sink Events
HANDL ER
ufact urer
ferr ableType
809 64839
ĠRelational ValueSource
. ";
2 56
3 00
H MM
L t
L AN
L hs
P UBLIC
S un
T ig
Y INT
Z oned
b id
c ud
c ategories
c andidate
f s
f our
h en
j er
n l
r ule
y per
Ï Ĥ
Ġ Update
Ġ Proxy
Ġ Consumer
get Converter
get TableGroup
it iz
el i
int Val
Ġe ager
set Field
pr ice
Ġb i
ay stack
Class Exception
Class With
iv al
Ġget Boolean
res ize
Ġd ur
Ġtest On
Ġtest Load
Ġtest Minus
Value Type
fa ke
Ġis Dirty
ĠC ase
one ToMany
ĠB IG
test Resource
Js Block
Number Literal
list View
Ġse ed
RE S
Fetch Expression
Fetch Offset
SE QUENCE
}; \
Identifier Mapper
ĠG etter
delete OnExit
áĢ »
Ġevent Source
Ġevent Bus
ÑĢ ÐµÐ½
Return Statement
ĠX Property
à² ª
Domain ParameterXref
year OfEra
event Get
Sequence Information
Ġac c
getElement Descriptor
Subclass es
32 1
Ġfoo Bar
Contrib utable
Can vas
Generated Keys
by Multiple
amb le
02 95
isAssign ableTo
Gwt Test
Ġprodu cer
metadata Builder
Post greSQL
SqlAst Node
Ġreferenced ModelPart
Meta Entity
impl ify
Ø¨ ÙĪ
Store Exception
Ġà¤ ħ
Cl ip
Ġspec ify
ĠValue Binder
ĠValue Extractor
STA TIC
reset Full
Ġne ed
many ToMany
ĠgetClass PathEntry
stit ute
getDeclared Method
sk o
getResource AsStream
Ġsorted Map
COMP ONENT
Ev alu
Ġmapped Superclass
GI ON
Trusted String
ĠSqlSelection Impl
ĠVector Mask
ĠInput Builder
Union Subclass
ĠMenu Bar
Ġlambda InnerClass
ĠNUM BER
serialized Class
ĠCast Type
Ð¼ÐµÑĢ Ð¸ÐºÐ°
Ġproto col
mk dir
ĠCore Matchers
COMM AND
uib inder
80964839 2384
" (
) /
C LOSE
D ER
G ab
M nemon
Q UE
S amp
T un
c md
c orrelationParent
g ers
s se
w atch
x is
Î ´
× ĸ
Ø ¹
å Ĳ
Ġ áĬ
Ġ ...
et ical
al ize
as ia
get Locale
get Upper
get Required
get Orders
ro om
Ġc id
Ġp ol
Re peating
xt ure
set RowData
pr ed
Ġb lah
Entity Class
Ġm utating
Ġget Associated
Ġo thers
ĠS cheduledCommand
Ġtest Revisions
Query Hint
Ġset Property
Of Int
Key Press
Im ages
Ġcon d
Expression Type
ĠC lo
IN YINT
ST ATE
ĠA s
throw n
Ġ' ]
Number edNode
Ġcreate Query
her its
ĠF IE
ĠF AI
Ġfor eignCustomer
Cache StoreMode
\" ",
Int Array
Enum Ordinalizer
imit ives
Read Object
Ġroot EntityName
Dis assembled
foo ter
Af fix
Sup plied
byte Length
ĠV LENGTH
ĠCollection Type
Ðµ Ð²
áŀ ı
àª Ł
the Time
78 99
inter ceptor
Embeddable ValuedModelPart
ph ysical
ðĲĲ ¿
TER S
Initializer Producer
vers al
Ġ", "
Schema Filter
Extract Unit
options Builder
yc lic
Ġresource Registry
render Comparison
ĠIN TO
Ġrender ed
áİ ¦
Ġreferenced PropertyName
ĠXML Context
SER I
VER AGE
áŁ ĭ
Ġgeom test
convert ed
Ġspec ial
000000 10
Touch End
Î± Î½
Reflection Provider
ĠResource Context
ĠResource Filter
getFieldIn AEntity
getFieldIn AMappedSuperclass
ĠLazy Initializer
Indic ator
Ġcreated On
eni um
(", ");
getValues ArrayPosition
ĠKey Codes
Writ able
pk g
Ġ"/ "
sorted Map
Archive Descriptor
alt OnError
getLoaded Value
BF US
SPA CE
getMapped Class
MultiTable MutationStrategy
Ġwrit ten
recogn ized
ĠPersistenceUnit Info
Purchase Record
Fact or
DefaultValue ComponentTestEntity
Ġparameterized Type
MATERI ALIZED
DES CEND
MetamodelClass GeneratedFor
Ġut c
Ġhide FromCompiler
ĠASS OCIATION
STRE AM
SUP P
Jamh uri
Contributable Matcher
ĠFIE LD
ĠFAI LED
" /
. @
E q
I o
L TER
M UT
N one
N ikar
R SA
S om
T z
d ap
g able
l ane
t an
w orld
æ ³
Ġ ot
is Inverse
get Integer
get Stream
get Api
get Lower
get LoadQueryInfluencers
pu l
ap er
Ġs creen
Str Num
de p
assert MetamodelClassGeneratedFor
Ġt axId
Re achable
ag ers
set LastName
Ġb lob
Par sers
Class Map
Ġget As
List Predicate
ĠS Y
ĠS p
Ġtest Clear
Col lected
Ġin s
ri a
ri ent
Ġl a
Field Exception
Un safe
Ġint ermediate
Ġpro x
Ġpro file
Ġcon nect
vent ories
Ġis Dst
By Class
ĠC ourse
Result CheckStyle
IN VALID
ĠA udio
Ġ} {@
Child Own
Group ed
Java Object
ĠI O
Js Value
Ġx Property
Com bin
()) ));
ord inate
comp ose
Cache RetrieveMode
Ġkey ToLoad
Identifier Property
own ed
Ġarg Type
Offset Expression
Ġfield Index
Ġon Mouse
close Handler
Fr ance
Ġjoin s
Ġroot Class
ĠR un
ĠR unn
ĠV er
à¸ ª
Metamodel For
Double Stream
áŀ Ĥ
à® ¸
Param Type
Graph LanguageParser
source Type
à² Ĥ
sql ExpressionResolver
Ġorder Root
Duration Added
Ġparameter Metadata
Ġbuilder ForValue
Jpa Order
js Program
ph ab
áĪ ľ
bind Value
Owner Class
ĠJpa Window
info String
ĠRe ason
Server Socket
Implicit Collection
listener Group
FO RE
IT S
Work ers
Val String
oft Lock
ĠElement ParserTester
RefIng MulIdEntity
ĠEnum Ordinalizer
DomainResult Assembler
Ġexplicit JavaType
getQualified Name
DI ALECT
Declaration Statement
à© Ĥ
Typed Mapping
Enc oded
à¾ ±
Ev ict
ĠCh rono
MarkerType Enum
apsed Millis
Ġsherman Expected
Ro ute
ĠQ NameMap
Ġretrieved Entity
assertBuggy Fails
Ġtrigger able
getStatement Preparer
half day
Ġmater ial
Ġflow ers
removeFrom Parent
ĠkeyCol Anno
Doub ly
Ð²ÑĢ Ð¾Ð¿
GLOB AL
æ¯ Ķ
RES ULT
ChildOwn RR
" -
6 7
B ur
L i
N VARCHAR
S avings
V endor
b rowser
j c
j i
j usted
o ct
t q
w d
Ø Ń
á ½
é ĩ
Ġ Generation
Ġ ConstraintViolation
Ġ escaped
al a
tr igger
get Named
get HourOfDay
an z
pe ople
th ings
(" )");
Ġc ross
assert Path
Type Data
el enium
En rolment
Ġe ol
set Millis
Class File
Ġget Fallback
add Projection
add DefinedValue
Id Table
Ġtest Append
Ġin formation
ime Among
To SqlAst
State less
ĠJ S
Ġex tractionContext
ser ial
Ġis Negated
Ġw ere
Ġname To
ĠP X
ĠP AT
ĠT om
Sql AliasBase
Ġproperty Path
Stream ed
Ġ' \"
Com puted
Ġcreate HourMinPartial
Ġg re
Access Stack
Format ted
Code Location
Argument ListSignature
Fetch ables
ĠSqm DynamicInstantiation
Ð¸ Ñģ
Ø§ Øª
OR TED
ĠClass CastException
param Types
Ġevent Listener
load ing
Is o
Is Empty
à¸ ±
àº ¡
getEntity Entry
Domain DataRegion
AB B
ĠLong Emul
ĠJdbc ParameterBindings
End Timestamp
ĠSimple EntityWith
ĠQuery Options
Abstract HasData
Classes ParamTestClass
Ġno te
Ġlog ging
ĠK rist
Ġed ge
xml Reader
collection Descriptor
Ġaccess Key
ferred Course
aa a
Ġresource Oracle
Scroll ing
Valued Path
ĠXML StreamException
ĠMy Enum
Client Info
parameter Index
Struct Holder
Depend ant
ra h
Tab Panel
getCollection Binding
Ġreturned Class
BasicType Impl
getD dlTypeRegistry
Ġboot EntityDescriptor
getRoot Condition
FR AME
Bag Join
setC ity
IO Metadata
Created On
Ġmerged Settings
COM PA
Ġjsni Ref
56789 0295
LC Statistics
Ã¢ n
Ġdeclared Annotations
Vertical Alignment
Enhanced ForLazyLoading
ĠÐĲ ÑĦÑĢÐ¸ÐºÐ°
getNext Sibling
Spoofing Class
94 48
Ġdeserialize Instance
unmodifiable List
olat ile
att ach
Popu lated
getContext ClassLoader
FieldValue Exception
shouldGenerate No
Secondary Supertypes
ĠIdentifierGenerator Definition
Ġclean Up
Dirtiness Tracker
serialization Policy
Nullness Predicate
Escap es
ĠEnhancement AsProxyLazinessInterceptor
STRI CT
ĠDynamicFetchBuilder Legacy
CED URE
amel Case
fto vers
7849 0276
ferrableType AccessStack
imeAmong SecondarySupertypes
ĠPAT TERN
# %
5 000
B ATCH
C RI
I A
J oe
J vm
L et
N etwork
O BFUS
P eer
T ear
W ar
b ard
d atagramSocket
e j
h ab
Î Ń
Ġ Style
Ġ ConstraintValidator
at est
is Public
get MapKey
get FileName
ass umption
Ġ" __
Ġ" ="
Ġn or
ce a
Ġc c
ad es
om an
iv ation
Ġget Path
Ġget Cell
res cue
Ġtest Size
Ġin clusion
em ail
str ict
Field Names
Field Description
to URI
vent ion
ex clude
ĠB id
Al gorithm
File Chooser
ear d
Parser Impl
check List
Ġexpected Id
result Variable
Ġ> >>
Request Factory
fin ity
ĠL ATIN
Enum Ordinalized
Instant Converter
Ġindex ed
Min imal
Ġitem Type
à¬ Ł
ify ing
Jpa CriteriaParameter
If Necessary
Found Action
Ġshould Emulate
Down JdbcValues
Line Args
FI LTER
Contact s
ĠQuery Part
Ġ8 0
MI C
Ġlast Child
wn d
Server Log
Ġcustomer Descriptor
Ġpersistent Classes
Declar ations
getDefault SqlTypeCode
empty Array
Rel ations
ãĥ ª
References Replaced
getIdentifier Generator
getIdentifier Helper
Bo ss
Ġpart ition
ĠEnum er
ĠEnum Type
Ġà¤ ķ
custom ers
Ġlen ient
Ġpo ol
ĠSub class
Ġnum bers
Page Size
Ġ200 7
resol ver
getMetadata Builder
ĠInt Max
ĠCO MA
referenced EntityName
áĬķ áĭµ
sBy Name
getSub types
inner Obj
bean Type
ĠRequest Exception
ĠdateTime Short
Indic es
Sw ap
SY N
Ġev ict
Head ers
ational ization
yntax Exception
Ġpermutation Id
Ġsu bject
ĠSingle ValueConverter
Ġdec oded
getEm ployees
ĠtestTo DateTime
getPart Name
7356 745
setTime Out
SPE CI
Ġro ute
ĠMenu Item
Ġgeneric Type
ĠVAR CHAR
ACT ER
capabilities Builder
Bos nia
Marshal ler
ĠÐ°ÑĢ Ð°Ð»
Ġcldr Factory
ToJavaScript Map
URIS yntaxException
809648392384 75
Disassembled JdbcValue
ĠRunn able
EnumOrdinalized ReferencesReplaced
> ").
B ol
D emo
J Block
K ambod
M illi
N avig
P ayload
S tem
a o
f unc
f ifo
g lass
h yp
j boss
n ey
p Data
s For
z ia
Ġ Region
Ġ Collectors
Ġ QUARTER
at ives
al ternate
is Optional
get Js
get Filter
get Color
get Header
get Tracker
get DayOfMonth
an alyze
ar ansa
ro g
Ġs pace
Ġs canner
re cursive
(); )
Ġc orrelated
Ġc ounter
il and
Ġt m
Ġt erminal
Ex clusion
Ġb s
Ġb est
Par is
Ġget All
Ġget Criteria
Ġget Database
Id Mapper
Ġd ump
ĠS ud
Ġin v
ans i
Ġth ird
app lication
Ġset Customer
Ġset Comment
Ġre placed
to LoggableString
Un checked
Ġentity Source
Or Element
ĠP air
ĠB ag
Ġtype Parameters
ĠM ay
ac cum
With inGroup
la im
ĠT imer
Ġto uch
Inter section
Ġ3 4
Ġproperty Access
Ġproperty Oracle
File Object
File Names
vert ical
Ġfrom Transaction
Long Stream
Ġcreate Int
TE NT
Ġlist Of
Update ability
ĠF ont
print er
pre ad
Unit Cache
Row Values
Read From
expected Exceptions
ud i
Strategy Implementor
sw ing
dev irtual
CH ES
Ġend Element
Ġstatement Details
ÛĮ Ø±
à´ ²
Ġdialect Class
ĠComp ile
ĠIn line
Criteria Executor
-- -
à· Ŀ
Ġ7 0
Ġmake SourceInfo
Inner ClassName
ĠJpa Function
Ġsecond Pass
Role Impl
Write Object
Css Property
Ġdt fi
make Stmt
Ġwrite Replace
ani ya
ĠMy SQLDialect
Explicit ly
parameter Type
Ġselectable Node
Ġproduct s
ĠSchema Update
ĠSub query
à¹ ģ
Linked Node
Json Object
ĠNamed NativeQuery
When Fragment
med ia
widget Ui
getPath Registry
Coll apsed
Ġste p
Legacy Dialect
JsFunction Interface
Ġcomposite UserType
ah ara
â´°âµ Ķ
êĶ »
Ġconfigure StandardServiceRegistryBuilder
JdbcValues Metadata
Ġalt Key
sorted Set
Ġyogi Map
Gr ad
EmbId Entity
VO ID
Ro om
Sam oa
ĠjdbcValue Bindings
Baseline Descriptor
Parag raph
Ġseg ment
ĠCan not
GJ Chronology
ĠjoinTable Anno
assertAll EnumOrdinalizedReferencesReplaced
ĠJUnit Result
procedure Call
Dock LayoutPanel
Outside Transaction
ĠCH AR
ExpressibleType Basic
hasRegistered Resources
457356 7356745
MUT ATION
halfday OfDay
Doubly LinkedNode
9448 847823
80964839238475 4573567356745
B ias
C lean
H oarder
I F
J jsUtils
K at
P atient
T aj
V ideo
] ");
c d
l arge
r ic
r ain
t m
u Å¾
} ));
Ä «
Ð §
× Ł
Ù ĸ
å ±
Ġ MappedSuperclass
Ġ Transient
Ġ publisher
in ferrableTypeAccessStack
as eline
is Quoted
get Location
ing Key
Ġc oder
Ġc aching
assert Should
qu ot
Ġp ending
set Table
Class path
Ġget Subclass
res pon
add Standard
ri x
and s
Key ColumnNames
Key Watcher
Im mediate
Se ver
Property Descriptor
append Suffix
Des ign
Des erialization
ĠH E
à¤ ģ
ĠM ortalLogger
With Named
Al ternative
Registry Builder
From Map
AL O
op ment
RE MOVE
log Level
On Each
Ins ensitive
Fetch Group
col lap
Sqm Join
result Type
Load ers
Ð¸ Ð¿
Style Property
LO OP
Ġjdbc Context
sub mit
Ġcom ments
Ġattribute Index
ĠJs Type
Dis connectLog
ĠR ole
No Match
apply MetadataSources
ðĳĦ Ń
Is Initialized
Dec oded
Ġpre compilation
byte Offset
Ġfetch Profile
Process es
ique lon
SS L
SQL Insert
Ð¾ ÑĤ
Ġnode Type
à¨ ª
Ġlock String
year OfCentury
Ġcurrent CteStatement
Sequence Support
ier re
getR ange
Ġarray Of
Ġold Obj
Ã¡ l
second aryTable
ĠĠĠĠĠĠĠĠ ĠĠĠĠĠĠĠĠ
áĭ ¨
TO P
Write Fragment
Ġcan Be
Collector Visitor
Ġpersistent Attribute
Ġgroup ing
04 00
Ġfr uit
Ġk ind
Ġare a
Channel Exception
group ing
display Name
Ġdecl ar
ĠSqlAst TranslatorFactory
ĠSafe StylesBuilder
tag Name
GWT TestSuite
SC ROLL
Click Listener
sqm Path
ensure DebugId
vari able
AddLog Entry
Runtime Conditional
Ġqual ify
sBy Signature
compute IfAbsent
ĠLazy Property
00000000 00000000
JdbcValues Consumer
Ġsw itch
Currency Data
Ġunknown Wrap
Ġunknown Unwrap
ĠServiceRegistry Implementor
exp and
áĥĶáĥ Ĺ
sets ockopt
Caching Config
Ġfallback Producer
getCte Table
setup Fruit
Off ice
ĠPrintWriter TreeLogger
Ð°Ñ ħ
contract Variation
Ġshift Key
Soyc Enabled
atings FromCombined
getResultSet Return
ĠgetPre ferredSqlTypeCodeFor
áŁī áŀ¶
Domin ika
trusted Start
ĠSecurity Exception
econd s
Just ify
getBytecode EnhancementMetadata
OME TRY
exical Unit
assertPath Included
ationalization Support
8 5
B CE
D r
G iven
I tr
I LED
S creen
S prite
T AL
[ '
_ >
e val
j un
p ps
s an
s ch
Å ł
Ð Ń
Õ ¿
Ġ Location
Ġ Ø§ÙĦ
Ġ ExtensionContext
get Count
get BuildingContext
get Minimum
get Referencing
Ġ" (?
re moved
Ġv ia
Map Entry
de precated
assert Type
assert Instantiable
se ek
Ġp otential
un ableTo
St d
set Enabled
set EventListener
Ġb itSet
Ġnull SafeSet
Ġm s
Ġget Method
Ġget Mapped
List Iterator
Id Type
Ġtest P
Ġtest De
pl ies
entity Binder
Query String
ri k
ri er
Ġvalue Type
ĠJ ArrayType
Transaction Type
Ġa DateTime
to Type
Ġj t
Ġis Supported
ĠC LOB
Ġh ouse
Ġh ere
mo val
ĠA p
ĠA LL
With Prefix
la unch
ash board
Node Impl
Js Node
sh utdown
AL LOW
op ied
getC ycle
getC ookie
check Init
getId entity
Select TupleComparison
ĠSqm AttributeJoin
Model Listener
gr ade
fin ite
ĠL eg
ced ures
ant y
Resol ving
ĠJs BinaryOperation
Ġ6 6
No Server
Ġdo Test
Return Value
Ġfetch ClauseType
Del imiter
áŀ ľ
parse DelimitedFrom
àº °
sql Selection
Edit Distance
Ø± ÙĬ
Jpa CteCriteria
Ð°Ð ¿
Cell Table
Abstract PersistentCollection
Ġ& =
anch e
Limit s
Annotated Element
Ġlast Modified
ManyToOne Type
ĠAudit edEntity
Cast Operation
getColumn Attribute
Run ning
áī ¥
Use Action
Close Handler
Hql Executor
compile Task
Minute Second
Ú© ÙĪ
Instantiation Count
Physical Table
referenced ColumnName
IST S
Runtime Constants
Ġvar args
Attach Detach
ĠgetDefault Sql
Ġbreak down
MS G
Ġview Data
omet imes
Vertical Align
overrid den
ĠfromClause Index
Unary Operation
Trim Specification
ndi Service
DATA SOURCE
getThe Array
Scop es
getHibernate LazyInitializer
wait For
Duplic ation
Times pec
HttpServlet Response
setFirst Name
Pop Samp
ĠSort Order
Ġdog s
sqlAst CreationState
QUO TE
ĠgetJdbcType Count
Ur ug
ĠtestAssert IsValid
Ġip v
reflection Provider
CLI CK
Pres ence
Separ ated
AndReturn Self
itiz en
Nikar ag
dap URL
Combin ations
éĩ Į
567890295 78490276
OnEach Listener
: %
D one
F LA
J New
K uba
P retty
S ince
Z Y
_ )
b aker
c ourse
m ith
u D
Õ µ
Õ ½
Ø £
Ù Ľ
Ġ Ð¾
Ġ ResultSetMapping
is External
is Directory
get Handler
get ArrayType
get Illegal
get LazyProperty
ur in
ce iling
Ġc Entity
il andi
im bab
inal ity
set Category
set Age
act ic
Ġm irror
ay ments
Class Loading
Ġget Named
add SqlSelection
Id Lt
Ġtest Exec
Ġtest Find
co erce
entity Graph
em i
em ale
Ġst ock
iter ate
Ġset Number
Ġl ayer
Set RefIngEntity
Key Up
Ġre order
Ġentity B
ĠP ASS
der ived
Null Literal
Attribute Path
ĠM cDonald
ac ing
Ġ' $
Gener ating
Ġadd Attribute
Ġfor est
Ġquery Result
RE AT
RE TURN
af rika
SE LE
Lock Strategy
ang led
Identifier Context
Basic ByBasic
âµ £
Ġsql AliasBase
ified Ast
Ġsub stitution
Dis closurePanel
Simple Case
Sup plemental
ĠV iew
default s
Ðµ Ñģ
Buffer ed
SQL Update
System Attribute
78 20
à¨ ¼
Statistics Implementor
Ġwith out
ann y
event s
Bar Field
getR untime
getR hs
Image Element
target Type
Results AndCompare
array s
Short Name
po ol
àµ Ĩ
áı Ľ
ÉĽ l
Cast Type
ĠPeriod FormatterBuilder
ProcessingState Stack
Serializable Types
_. *,
Interval Converter
Generation Visitor
Post fix
SqlAst Expression
view Data
Plural Part
à± Ģ
Selectable Node
ðĲĳ ħ
74 72334
OO L
à« ģ
clus ions
ĠtestGet Limit
Ġdel ta
getCache AccessStrategy
optim ized
Desc ending
Pol ygon
ĠComponent TestEntity
book s
Pk jc
Ġcase SimpleExpression
getF avorite
internal Name
Ne ed
TABLE S
48 7820
Ġcity InEmbeddable
ÐĲ Ð½
Navigable Set
ynt actic
ĠLON DON
before Index
ĠCriteria Executor
Sur inam
Ġassociated Class
Ð°Ð¼ Ð±
FOR CE
Ġdom esticCustomer
Gre aterThan
Execute Update
áŀ¸ ");
FieldIn MetamodelFor
FETCH ED
Destroy ed
ĠNoSuch MethodException
agn itude
enh anced
essim isticLock
dig its
arr anty
____ ____
Ġmetamodel Class
HQL ResultsAndCompare
IntMax Mask
áĬĴ áĭ«
declared Methods
EV ENT
áĢ± áĢ¬
multiSelect String
multiSelect Enum
like Predicate
Radio Button
Ġcoin s
OPTI MI
Vat ik
getVisible Item
ark Character
ç¾¤ å³¶
SourceFile Comp
Ġmed ia
getEntities Configurations
ĠAuditReader Factory
getIndexed Method
ĠgetException Converter
Aliasing Mapper
929 487820
Ġctrl Key
EXCE PTION
utableInclusion Filter
ÑģÑĤÑĢÐ¾Ð² Ð¸
Mnemon ic
Collected As
Populated Map
Tear Down
929487820 9448847823
C lock
J AbstractMethod
K or
M ong
N ickName
N ANO
S b
S peedTracerLogger
S MALL
U sw
d rag
e a
f is
i Ã«
i hal
k ani
n atural
r ÃŃ
t c
u w
Ġ Æ
get Tag
an ger
ar ia
Ġn ickName
Ġs q
de epCopy
In fos
In stances
assert Replace
se x
Ex tractionContext
Ġnew Type
Ġnew Child
Ġf amily
Con sum
St uff
set Lazy
set RowCount
Ġb a
Entity Initializer
Class Raw
Ġget Binder
Ġget PeriodType
add itional
add ConfigOptions
add BaselineDescriptor
Ġo str
ĠS cope
ĠS ynchronization
ĠString Interner
Ġtest H
Ġtest String
Ġtest OneToOne
Value Key
Of Line
cal culate
ĠJ BinaryOperation
create Data
create ArrayBuffer
Ġj this
Manager ConnectionProviderImpl
Ġid Table
ne ver
append able
ow a
Ġtype Arg
Ġtype Args
Em ittedArtifact
ĠM utabilityPlan
ĠM artin
ĠT erminal
Source Alias
Not ify
Group By
Arg Processor
Node Info
ĠI P
com plain
Js Visitor
Js Invocation
out putStream
From String
From Java
Ġr untimeMetamodels
Ġg ender
find Class
DE TA
12 0
Request Type
az a
ĠN ested
ĠG SS
ĠG REGORIAN
Empty Type
Audit Entity
Read y
Widget Impl
sub select
áĢ ½
à¥ ī
ĠJs ParserException
Ġim mutable
next Int
Simple Name
ized Literal
ĠR o
ðĳĦ ĸ
Ġparse Graph
ĠW ork
ĠW orld
Insert ion
parse Double
àº ª
àº ¹
àº į
Fields To
à¬ ¤
with inGroup
with FieldAdded
Sign at
Ġwith in
Ġparameter Index
Ø± ÙĪ
ĠJdbc Values
ðĲĲ ®
Module Log
jdbc Parameters
If Statement
RI VER
Down load
Ġover lay
Ġq s
attribute Index
po ssible
Ġidentifier Helper
Css ValueNode
Exp ansion
Ġselection Index
Managed Type
BU ILD
Ġrevision s
instance Of
getCurrent Value
ĠCon currentHashMap
Ġcallback Type
ĠCache able
dl TypeCode
Final Fields
External Name
Ġtimestamp diff
CompilationUnit Names
internal Get
Ġpl ain
assertNot Equals
ðĲĲ² ðĲĳī
was Initialized
ĠText Box
ĠRequest Factory
ĠRequest Builder
region Matches
configure StandardServiceRegistryBuilder
configure Blocking
áĮ į
Expand edValue
izable Generator
Problem s
ĠManaged BeanRegistry
Deque SizeAndContent
getPart ies
Keyboard SelectionPolicy
Owned IndexedListJoinColumnBidirectionalRefEdEntity
ĠCommon QueryContract
Ġ'/ '
Affect edBy
DoesNot Exist
getModule BaseURL
Sing leton
Unused Declaration
estimate Direction
ĠStrategy Selector
Retain Fields
mate Context
alle l
ivot Year
çī ¹
seu do
ToSqlAst Converter
checkList SizeAndContent
. \
; };\
B ED
C Entity
C ow
D ialogBox
I H
L tr
L dapURL
R ank
l r
r est
x or
ë ¦¬
Ġ ic
Ġ ToOne
Ġ Loader
Ġ Revision
Ġ InstantiationException
in putStream
in ates
as o
is Jpa
is Formula
get Token
get Modified
get Groups
get InnerHTML
get Modifiers
ic es
ur ope
ew ise
Type Ids
Ġp ps
Ġp ayload
un ed
St op
set Index
set Header
Overrid ableMethods
iz ing
ay man
Ġget Base
Ġget NavigablePath
Ġd uplicate
Ġtest Multi
Ġin dent
ans ka
Ġset F
Ġl ifecycle
Ġvalue ToAdd
[] ;
Ġj a
Table Mutation
ĠC UR
ĠC redit
Ġlo cator
tem plates
à¤ ı
à¤ ļ
Collection Key
ĠM essages
Ġto Array
Ġde ck
Sql TypeDescriptor
Ġ3 3
Bind Value
getC ap
check DequeSizeAndContent
Zone Info
Ġfor UpdateClause
à¦ £
Select Expression
Identifier Consumer
Dialect Resolver
Stat es
Compl eted
exec Impl
Address Editor
All Children
Ġy yyy
load From
apply Sql
ðĳĦ ī
Is olation
Is Undefined
Ġvalues ArrayPosition
Html BuilderImpl
Ġfetch Mode
Ġfetch Style
Ġcollection BootDescriptor
Ðµ Ð´
parse Into
Connection HandlingMode
Ġtrans formation
Ġ9 0
à´ Ł
Sp y
inter cept
(' :
local ized
ph on
Lazy Interceptor
Delete All
NativeQuery Implementor
URL Component
Image Rect
target Entity
join Column
Cell Preview
Ġlog Level
US A
fetch Timing
by NaturalId
Extract Field
pc Token
ialized Key
Ġ'" '
Cte Column
annotation Type
ĠEntityOf Maps
Member Of
Tool ing
Template Chunk
over flow
à³ ĩ
áİ ¾
Ġmax imum
Discriminator Mapping
Managed Bean
ane Helper
ĠFetch ClauseType
Symbol Data
Items Backref
ĠISO PeriodFormat
extract Field
ev alu
short Value
Ġnamed NativeQuery
âĢ į
anon ymous
ĠGWT TestSuite
Ġ200 6
getMetadata Implementor
Ġdb MetaData
ana ExpectationsFactory
ees e
Drop down
Ġgraph Semantic
ĠJson Object
light ed
REF RESH
orph an
requ ired
Testing JtaPlatformImpl
getNaturalId Mapping
Ġyogi Objects
schedule Deferred
ĠDomainResult Assembler
Ġexp and
Failed Error
ĠrootEntity Source
Encoding Exception
Ġsherman Objects
Terminal Node
Suggestion List
Ġcompilation State
setMax Detail
Cert ificate
Ce uta
FieldAccessor s
Ġsuccess ful
contain ing
Ġvari able
UiBinder Writer
Uni Entity
checkExec NoMatch
getLine Items
ĠScroll Mode
ArgumentsValidator s
TenantIdentifier Resolver
getInstant Millis
ĠJdbcOperation Query
ĠHql Executor
CollectionMapper Data
retrieve HQLResultsAndCompare
CollectionRecreate Listener
opp ing
ĠSQLServer Dialect
White Space
made Changes
ĠshouldEmulate FetchClause
ĠtestGetLimit String
ihal cea
C red
J MultiExpression
J InterfaceType
J ndiName
K ost
R ATING
T err
U z
_ <?
c id
f riends
h oarder
k Cache
k top
m v
s in
Ù ķ
å ĵ
é ¦¬
Ġ am
Ġ IntegralDataTypeHolder
on a
es c
en se
Ġ{ },
is k
is Visited
get Block
get StackTrace
get Implementation
an za
Ġs alary
In fer
able Destination
Ġb l
Overrid ing
Class Audited
Ġget A
Ġget Js
Ġget First
Ġget NumberOf
Ġd r
Ġtest Fetch
Ġtest Read
pl aces
Query Spaces
Ġset Sql
Of FieldInMetamodelFor
trib ution
Key Spec
ĠJ ar
Array Contents
create SelectionQuery
create StoredProcedureCall
Ġcon version
Ġh ex
Ġh anaExpectationsFactory
ĠP urchase
ER GE
Attribute Parser
Attribute Indexes
Ġthe Socket
Source Value
Join Fetch
Join Ignore
Ġch ain
Sql Tuple
check DirtyTracking
list agg
Ġquery Spaces
Ġreturn Int
getTransaction Coordinator
Sqm TypedNode
ĠArray Deque
ĠSqm Parameter
ĠSqm QuerySpec
getType Parameters
Ġsql Expression
Ø§ ÙĪ
clear Property
AT A
AT TE
Ġevent Get
Check Box
Ġmap Value
ĠV ehicle
ĠW rapped
áŀ ·
àº ±
à¬ ľ
Ġtarget Method
Named DependentBean
Named ApplicationScopedBean
Ġtree Logger
à¨ ¡
à¨ ¬
à¨ Ł
Ġdis able
Ġsqm Converter
wh ite
year MonthDay
Jpa Metamodel
ph ant
SI C
Ġobj Array
ĠBasic Binder
>> >
XML Overridden
Ġwh at
76 5
\\ (
ResultSet Mappings
ManyToMany Inverse
Variable Ref
MM M
Css Node
Ġprodu ce
Ġembedd ableType
ĠXML Element
Ã© nia
Ġret rieve
getField Name
ĠTem plate
land i
BA G
âµī â´½
Ġcallback s
Uri Utils
Loading Interceptor
Dynamic Component
Temporal Literal
73 6
ĠAss ign
DevMode Session
ĠEntityWith OneToOne
supports Multicast
×Ļ× Ķ
ĠclassLoader Access
ĠMapKey Column
ĠMapKey JoinColumn
Ġmutation Executor
Ġsearch By
ĠNumberFormat Exception
â´°âµ İ
COMP AR
ĠImage Resource
SqmPath Type
Ġjoined Group
Ġ"{ '
Persistence Provider
Middle EntityName
TW O
ĠgetTest Type
Ġco alesce
neg ated
Updated At
Incremental Compile
assign ment
Ġel m
('\ '
InList Context
Ġcre ating
ĠPersistentAttribute Interceptable
OL ATTE
ĠOutputStream Writer
shouldGenerate Error
getRel ational
ĠPRO CEDURE
REV ISION
tail Map
ĠGE OLATTE
allocate Direct
Addition al
áĪĭ áĬķáĭµ
ĠClick Handler
ColumnSort Info
Ġcompl iance
Orm Xml
ĠMultiple Collection
readAll Bytes
Ġant icip
respon d
SourceFileComp oserFactory
) \
9 3
F lip
H AS
K r
M el
M ake
R ating
S val
T AB
W ed
a e
c ust
g b
g ail
i w
r one
s can
u ck
v isible
Ú «
å ¸
Ġ LE
Ġ ENTITY
Ġ udt
Ġ ExpandedValue
en vers
is EnhancedForLazyLoading
get Constructor
get Jsni
get SerializedSize
or a
or respond
an izer
ro ad
ro op
Ġs ob
re w
(" "));
ret ainAll
ad ow
im il
Ġe g
set Long
Ġb DateTime
Ġb oth
Ġm utabilityPlan
Pro files
Class Data
end ant
Ġget Extractor
Ġget QueryPart
add Entity
add To
add Order
Ġtest Divide
row lock
Ġset Copy
Ġl ines
Ġl ittleEndian
Trans fer
Key Down
to Add
to ExternalForm
Un derscore
Ġtr e
Ġsession Uid
DateTime Millis
Collection Role
ST EM
ĠD river
ĠObject AccessException
test Class
Stream Driver
Message Interface
persist enceUnit
persist AndReturnSelf
ard ware
Ġg iven
Ð° Ò
Add ing
Function Arguments
getC ss
Ġof s
from Type
type Parameters
Ġtable Insert
DE CIMAL
log Data
On Load
Ġcolumn References
Int Literal
Sh eep
CE N
à½ ķ
plic ate
Style Type
contains Exactly
field Accessor
Ġjdbc Select
Ġsub Category
expected Xml
Log Handle
áĥ ¡
build TypeOracle
No Auto
Return ed
PA CE
Ġ10 3
Ġparse DelimitedFrom
Ġas HTML
Ġsource Type
Ġbuild Partial
Param Bindings
à° ¡
copy From
current Method
ÙĨ Ø¯
property Access
NO TATION
Assign ed
ĠE ST
LA ZY
Ġexpression Type
ĠType Utils
Ġcurrent ly
If Not
>> ()
alias For
ĠÐ ķ
Ġle ast
Socket Exception
bo ol
mar shall
ynchron izations
"} "
ÙĦ ÛĮÙĨ
Mapped File
áĭ Ĭ
â´° â´·
ĠParent WithCollection
Ġconfiguration Service
getAnnotation s
ĠcreationState Impl
Ġwrite To
Ġinsert Statement
Sort Natural
Primary Name
Input Builder
SER VER
Ġupdate Count
Ġà¤ ¦
Rows Only
Ġsett ers
maybe ForceBuilderInitialization
state lessSession
getTable Expression
Bit less
Permutation Result
Throw Exception
FF FF
ensure FieldAccessors
×Ļ× ł
OrderBy Fragment
Ð¸Ð½ Ðµ
Nullable Transient
ĠDom in
isticLock Style
Ġenabled Filters
Ġvalidate Customer
Minimum Key
Exists Predicate
Ġaccount s
Ġphone Count
à·Ĭ ");
Interrupted IOException
ĠDynamic ResultBuilder
Ġsame Instance
getSecond OfMinute
ĠtestIs Valid
áĢ¬ áĢ¸");
Bl it
Decor ation
getSqm FunctionRegistry
ĠforEach JdbcType
ĠsetAria ExpandedState
ĠgetAria ExpandedState
ĠremoveAria ExpandedState
Mutating TableReference
Ġag gregated
AAEntity Superclass
Ġlegacy Fetch
Õ¥ ÖĢ
setFirst Result
Cons ole
IntMax Vector
Ke pu
setUn finishedMessage
Ġdig its
Ġwarn ing
getStudent s
Play list
capabilityExchange Builder
ReturnTypeResolver s
ĠXmlFriendly NameCoder
writ ten
essThan MinimumKey
ĠceManies Orig
Capt ure
iveness Predicate
LazyAttribute Interceptor
Micros oft
tros pector
ĠKit ts
War Dir
ĠMay en
setupFruit Enum
internalGet FieldAccessorTable
_<? ",
fieldAccessor Table
NoAuto IdTestEntity
ensureFieldAccessors Initialized
0 1234
9 234
= :
B er
C B
E L
J ama
J DWP
K irg
S cheduledCommand
S chemas
W orld
` %
b d
h ref
n y
r estartWebServer
s In
t imer
w m
z amb
Å į
Î Ŀ
å Ĵ
Ġ Mode
Ġ Expected
et ory
at ype
al is
() ]
is Reference
get De
get Mapper
get InputStream
get SourceName
get Registration
get Available
get JavaLangObject
Ġs emantic
Ġs chedule
Str okeStyle
Ġc di
String Helper
est er
ad min
ch r
ch mark
Ex amples
able JavaType
Ġnew Method
Ġe om
Con current
set Auto
Ġb ank
Ġb alance
class Names
Ġget M
Ġget EntityEntry
List DataProvider
Ġd f
ĠS al
Ġtest MapKey
co alesce
Fi x
pert on
Ġset User
Ġset Author
Ġex pensive
Context Impl
create Text
Ġj boss
Ġid Type
Ġis Static
ir in
ex pensive
Or Replace
Column Types
IN CHES
Collection Join
ĠM erge
ĠA VERAGE
With Classes
Al location
ĠD IST
ĠD imension
Child UnserializableBase
Ġ3 00
") ).
Ġmet aKey
Ġcreate Parent
Ġcreate Panel
Ġcreate Validator
Reference Context
Format s
Sub set
Ġquery Space
log icalName
Select Exception
Ġcolumn Aliases
Int Stream
Values Analysis
ĠSqm CteStatement
ĠUn i
Sh ip
ĠL I
Ġarg Types
ĠList Biowning
exec ution
contains Entity
Generator Name
Generator Result
Ġsub string
sub system
sum mary
has Query
ca irn
Ġfetch Path
ĠCollection Entry
áŀ »
àº §
init Cause
Ġbyte Buddy
Ġlong Type
Ġmetadata Collector
à´ ¬
Ġorder Column
ĠIn et
ĠSql Script
Assign ableTo
ĠSQL Feature
Constraint Name
no te
Mod ifiable
ĠBasic Result
à¶ ¶
Region s
array Type
CON TA
Ġbase ID
bit Set
US D
76 23
Ġcache AccessStrategy
FA CE
Cre ating
Ġmin orVersion
Render able
second OfDay
áĭ į
Extract ed
EE EE
Exp onent
à¯ ĩ
Ġwrite Object
áī ¶
àŃ į");
CHAR ACTER
Ġfilter Name
HashSet Spoofing
Ġselectable Mappings
Mouse Over
getAttribute Role
Ġad o
Ġcal lee
ev t
style Name
ram mar
uggest ions
Extern ally
getCache Region
Optimizer Stats
QueryPart TableReference
Assembler CreationState
sqm Root
plied By
ĠnaturalId Values
Ġboot ValueMapping
à¥ĭ ");
Ġgenerated Id
Mon ako
ĠEm ail
ĠDe vel
Integr ation
allow Types
âµīâµ Ļ
Singular Join
Management Exception
Ġdepend ency
Specific LockMode
ĠAnnotated JoinColumn
primary Key
Ġoff ice
('. ');
ĠFilter FileType
Gr anny
DecimalFormat Symbols
warn ing
MultiTable InsertStrategy
addLog Branch
generic Type
Ð¤ ÑĢÐ°Ð½
ĠRel ation
Inject ed
Ġdebug gee
TypeChecked Objects
Media Element
ĠLinker Context
ÑģÐº Ð¸
ĠInheritance State
Launch er
setChild Open
versions Reader
getLazy DataPoints
ĠMik el
ĠInvocation TargetException
_> =?
ableDestination Types
åĴ Į
etory Amount
ĠDIST INCT
ĠSQLFeature NotSupportedException
7 11
B LE
B ob
C LA
D TD
F l
F ULL
F ocused
H mm
K eep
O ce
P ur
P ull
P ak
R er
W est
W ARD
_ ",
b order
c orrelate
h ol
n am
s cheduler
s ometimes
v ance
¢ áĭ«
Î £
Ð ¥
Ù ¼
ç ĵ
Ġ assertEquals
Ġ LEFT
al ign
is ch
get Wrapped
get Selectables
get MinuteOfHour
get Books
ate mal
Ġv irtual
Ġv eget
Ġc ancel
Ġc orrelationParent
assert Equal
assert Correct
Ġt t
se q
set Object
set OutputFile
set ExampleItem
set ArgumentListSignature
Entity Test
iz z
Ġget List
Ġget Embeddable
Ġget EntityManagerFactory
Ġo g
ĠS um
Ġtest ToString
Ġ0 6
Query Engine
Ġset T
Ġset Code
Trans formation
[] );
ĠJ Dom
Ġid Generator
Ġis Default
ex er
Column ValueBinding
Ġ2 55
ĠB IN
ĠM ulId
With WindowFunctions
ĠD uplicate
ak ed
ree ment
Ġg r
Format Mapper
check Replace
Ġadd Property
Annotation Reader
find First
DE F
ĠEntity Test
Ins ide
Ġun boxed
Ġcolumn Definition
ĠUn ion
CE NT
CE ILING
Basic Attributes
ĠG ss
getS afe
field Index
Resol utionContext
next StrNum
ðĳĦ ĺ
Ġser ializer
Ġsh ip
accept ance
SS SS
Double ListJoinColumnBidirectionalRefIngEntity
Ðµ Ð¼
parse Long
source Name
à° ¬
à² ¬
àª ¬
current InstantiationCount
Before All
Ġout box
UN FETCHED
], [[],[],[]
ðĲĲ ¯
ÑĤ Ð¸
Ġhas Limit
target Class
getProperty Index
à¶ §
Results Cache
Ġac me
HashMap Assumptions
Ġversion Mapping
can not
Ġmin uendInstant
Ġlast Index
ere za
ormal ized
FO LLOW
Composite UserType
Art icle
ĠOrder By
Discriminator Column
Bidirectional Relation
Dom BuilderImpl
ĠMy SQL
Ġfollow OnLocking
PRO TO
(? )
Ġbean Container
ĠSystem User
instance Class
Ġcl init
expect Error
CI I
extract LazyInitializer
extract LazyInterceptor
Compiler Context
DI R
ĠSerialization Helper
tree Map
DOM Exception
Touch Cancel
Ġday OfWeek
present edAs
áĥĺ áĥĲ
Ġtimestamp add
Jta DataSource
Ġsup pressed
Ġconstraint Name
after Transaction
getSub ItemsBackref
ĠDe partment
Ġ` "
Escape Character
ĠMutation Executor
Main Log
assertCanAdd StyleProperty
Processing Exception
Ġident ificationVariable
oper ator
vanced Paths
Keyboard Listener
ĠFlushMode Type
ĠSingular Attribute
Gregorian Chronology
dr aft
Ġpu rchase
Indent edWriter
ĠAtomic Integer
alternativeContact s
ailing Address
Ġ'_ '
getStudent Number
Regex es
ĠServlet Exception
Queued Operations
Ġmixed Array
2922 7899
ĠAct ivity
AlternateMessage Selector
FetchOffset WithWindowFunctions
ĠtestRevisions Counts
IOMetadata Node
56789029578490276 8787678287
Ġtre ated
RowsOnly FetchClauseType
hasQuery Components
sometimes Ignore
( :
C r
C fa
C LE
C oding
C yclic
F inder
J Member
K arib
M IS
N y
P ooled
S y
V m
Y et
c lean
f amily
h old
n et
Ã §
Ô ±
Ġ et
Ġ dex
Ġ Null
Ġ ParseTree
Ġ Identity
Ġ ResultTransformer
Ġ VersionedNode
Ġ StrictJpaComplianceViolation
al Focus
is Private
tr uncate
get Binding
get Assign
get Reflection
get Author
get ModuleName
get Else
ed Name
Ġs i
Ġt im
el es
im mutable
un its
un safe
oo se
set ters
Ġm argin
Ġget Result
add Stmt
Lo w
ĠS ymbol
Ġtest Expression
Ġtest Batch
Ġtest Explicit
Of Type
con firmed
ĠJ BooleanLiteral
Se en
Mapping Binder
Table Details
Ġis Match
By Table
us age
ĠP osition
Ġlo op
ĠB LOB
Attribute ConversionInfo
With Null
With SortNatural
test data
com mon
Js Vars
Ġar chive
Ġar ithmeticExpression
type Environment
RE GION
Be hav
Ġ4 1
RO LE
Sqm ToSqlAstConverter
Ġpublic Id
10 10
Basic Holder
Ø§ Ù¾
erm in
getS ignature
áĢ ĺ
Proxy Factory
Alias Generator
ID D
No Wait
lock able
visit Ansi
Provider List
write Replace
CH ED
ĠW allet
à¸ ¹
Properties Source
à² ¡
à² ¤
à¬ ¾");
20 10
des ignTime
áĪ ³
Response Builder
jdbc Parameter
Ġinstant iator
Ġrow Count
ĠÐ ł
CK AGE
Has Loaded
bo se
ĠK a
ĠJpa CteCriteria
Ġfoo ter
PER IO
Ġmin imum
Ġexec Impl
Ac qu
Annotated JoinColumns
Ġq b
Ġq nameMap
Act ived
Information Extractor
Css Tree
getMillis OfSecond
offset DateTime
Thread Local
Ġstate lessSession
Referenced Entity
Mouse Event
we ight
DI ST
ĠEmbeddable Instantiator
Ġregis trations
abc d
Final Field
Ð¡ ÐµÐ½ÑĤ
ĠMapKey Class
getL essThanMinimumKey
minute OfDay
Catalog s
Dependent DdlType
before TransactionCompletion
Ġinterval Type
created At
getRe presentationStrategy
jo int
ĠAnnotated JoinColumns
ĠMarkerType IdentityHashMap
ĠÐĲ Ð·
ĠÐĲ Ð¼ÐµÑĢÐ¸ÐºÐ°
FOR WARD
áĥĺáĥ ¡
Ġexpect ing
audit ed
Ġag ain
Ġpass word
ĠCallback Exception
Invariant s
Ġinteger Type
ĠTypeOracle Exception
Ġupper Bound
1111 1111
Ġbound s
getFieldInNonEntity AEntitySuperclass
getFieldInNonEntity AMappedSuperclassSuperclass
ĠtestHql Select
HE AD
ĠPersistentAttribute Interceptor
\") ",
SP ON
enh ancer
á¹ Ń
getCustomer Name
PLA IN
Qualifiers With
Hover ing
relation al
Prox ool
ĠtestRe ceive
ĠXmlFriendly Replacer
Ear ly
Mater ialization
ĠCSS Exception
Printed Length
Ġpreferred JavaTypeClass
SCO PE
CascadeDelete Enabled
Madag ask
ĠgetTag Args
getAction Queue
affect ed
Ð²ÑĢÐ¾Ð¿ Ð°
esc endant
XMLOverridden AnnotationReader
Ġado ptedChild
WithSortNatural ByDefault
PERIO D
Actived escendant
Activedescendant Property
1 0000
: '
A bb
B ub
B LOB
C redit
D R
D RIVER
E MP
F ill
H u
J RealClassType
L US
N DI
N ij
O WN
S yn
a emon
b al
f ish
h o
h ex
h istory
l ines
n arrow
s ender
t ic
t body
u o
Ù Ĺ
Ġ Ð°
Ġ One
Ġ Initializer
Ġ êķ
Ġ URI
Ġ Arab
is Not
is bn
is Jvm
get Update
get Row
get And
get Member
get When
an mar
ur a
Ġn ano
Ġs yntax
Ġc opied
Map Value
est Rate
ab b
se g
En sure
Ġp aint
st yles
lo op
set Position
set Timestamp
set Status
iz inga
Ġm d
Ġget AttributeMapping
Ġget ResultTransformer
Id PropNamedId
Ġd erived
Ġtest Invalid
Ġtest It
Ġtest Supports
Ġin etAddress
Res tricted
Ġset MapKey
Trans itive
De al
De virtual
For Statement
Im g
to uch
Array Ref
Table RowElement
append Listener
By TypeName
ĠC ard
ĠH at
ĠB r
ĠB rowser
DateTime Literal
name Coder
ĠM ult
With Id
Ġto Identifier
ĠD o
ĠD ummy
ON MOUSE
Ġ' )
Js ExprStmt
Message Helper
Ġfrom TrustedNameAndValue
Ġcreate EntityManager
Ġcreate AbstractHasData
Ġtable Generator
ĠF arm
Sub system
Cache AccessStrategy
Cache KeysFactory
ĠEntity DataAccess
Ġreturn Value
Sqm CreationState
Ġkey Name
Ġkey Columns
Ġun icode
Ġcolumn Index
Version Increment
Basic ValuedModelPart
Selection Items
Offset Time
getS orted
And Binding
And rea
Ġsub Builder
áĢ Ĵ
Dis position
build String
ðĳĦ Ŀ
Html Constant
Ġby a
Bean Container
Insert Action
Insert SelectStatement
Ġstart Time
with Millis
property Binder
ok o
à´ Ĥ
à¨ ¾");
Stack LayoutPanel
element Name
Ġparameter Binders
column Index
(' ,
ðĲĲ ¬
ĠAn alysis
Sequence StyleGenerator
line Number
à¶ ľ
ĠProperty AccessStrategy
org ia
Cell TreeNodeView
Ġ{} ");
VE D
fetch Builder
path s
': '
ĠĠĠĠĠĠĠĠ ĠĠĠĠ
Ġdet ail
iate Service
Ð² Ð¸Ð½Ðµ
ied ResultType
AS CII
ĠElement Collection
__ ",
expect ing
Mouse Listener
Lob Field
getCurrent Locale
Cl s
Ġqu ot
style Property
Creation ProcessingState
à¥ĩ ");
getLocal SocketAddress
Ġservice Role
Ġ200 4
ListJoinColumnBidirectional Inheritance
Validation Context
ĠMapKey JoinColumns
Ġ'\ '
Ġ# "
BE GIN
getSub Categories
ĠforeignKey Descriptor
Ġlink ToOne
Ġsome Integer
setC ountry
Dispatch er
Initial Value
DELAY ED
cover ed
Ġjoined FromElement
ĠLock Strategy
Ġcap tion
ĠComposite Type
ĠLO CAL
Http Request
Parsing Exception
REFERENCE D
Execute Statement
Ġqry String
ĠInvalid NameException
getAs ShortText
Tra versal
Ġchunk s
getNumberOf AttributeMappings
ĠComparison Predicate
MetaModel For
Sa o
ĠcustomType Bean
Fast Path
Az er
Bul k
Card Payment
Ġ], \
WrapWithKnownDir Base
Ġ"` "
Ġimplied ResultType
ggle Button
checkEmpty HashMapAssumptions
ategor ized
WithNon IdPropNamedId
ĠCa ic
byMultiple Ids
OBFUS CATED
ReadFrom Disk
LOOP BACK
Postfix Operation
PluralPart Join
Sval bard
IDD LE
2 2384
= ='
> ")
B UT
C DATA
C ases
F ee
G l
J Boss
K olom
M ag
N br
S SE
S iri
d ump
d irectory
m c
m x
m utating
r ame
u pe
v ador
} '
Ã Ģ
Ñ Ĭ
Ġ ParameterizedType
Ġ Party
Ġ avg
on ReadFromDisk
is Loaded
is Running
tr ack
get E
get Exception
get Generated
get Condition
get RowCount
get Global
get EscapeCharacter
ent ina
ed DatePicker
Ġn s
Ġs on
Ġs se
Ġs ync
Ġc ard
ist Ã¡n
return ed
qual ifier
set Column
set Cell
ect ed
Ġget Local
Ġget Unit
Ġget Write
add Value
add Import
add Subgraph
Ġd Entity
ĠS ynthetic
ĠS CHEMA
ĠS andwich
Ġtest Constr
Ġtest Double
Ġtest Custom
Ġset Str
Ġset Default
Ġset LastName
Ġl b
Ġl arge
str ongName
ĠJ unction
Field Class
Ġre link
Ġre maining
Transaction s
Mapping Container
Mapping Files
Un resolved
Un boxed
Un recognized
Session Builder
At Start
Ġsession Key
Ġh p
IN LINE
not NullValue
Attribute For
os i
ĠM iquelon
ĠA N
Al b
Group Sequence
Arg Type
Ġr adix
getC ast
Update Builder
Ass oc
RE SPON
DE FIN
++ ;",
ip v
ĠEntity C
Sqm QueryPart
Basic TestEntity
Ġfield B
are kani
And Replace
Target Paths
Ġ5 5
áĢ ķ
Ġattribute Type
Ġroot s
Ġchild Entity
ĠJs BinaryOperator
Dis tribution
ðĳĦ İ
Is Not
Is olated
Person EditorWith
Ġpre cedence
Html For
function Name
table Alias
Ġstart Index
Fields And
Ġstatement Ranges
Only Qualifier
Non Zero
Iter ation
TimeZone Storage
Ġorder Criteria
Prefix ed
ĠSql ExpressionResolver
Assign ability
Co alesce
End Millis
Persistent Entity
line Items
ĠBasic Extractor
ĠBasic ValuedModelPart
ations Factory
ĠÐ ĳ
Classes Collector
ĠK us
ÙĦ ÙĪ
ĠRe al
Ġchar setName
Ġchar Sequence
man agers
ere ference
àµ ĩ
pc io
Association Override
Ġresol utionContext
Ġdomain Results
AS Y
Ġprocess or
=' "
à³ ĭ
123 1212478987482988429808779810457634781384756794987
ĠTable Generator
Frame workMethod
Compilation Result
Øª ÙĪ
ĠFetch Type
JaxbHbm NativeQuery
Ġproduct Id
Ġconverter Descriptor
Ġhql String
Ordinal izable
Ġline Items
Formula Attribute
Where Predicate
ĠRoot GraphImplementor
Pol ines
à» ģ
ĠMapKey Enumerated
ĠJson Writer
Ġmutation Type
Required Property
Ġscript Element
revision Number
plication Mode
mock edDatePicker
Ġupd atable
Charset s
setThe String
getItem Text
ClassLiteral s
Ġpermutation s
So uth
NamedNativeQuery Type
full y
Append able
Ġui Binder
emp Id
anc y
Ġpass ed
Ġob tain
setup Test
InList Predicate
Ġserialize Instance
ĠBootstrap ServiceRegistry
getAs Text
WK B
Bel g
ĠMIN UTE
dig it
isDefault ReadOnly
Ġact ivity
addImplicit Collection
ĠSome Entity
clock hourOfDay
addTest Resource
Ġdig it
lib rary
Ġassumption Map
ĠIndexed Consumer
ĠsetFirst Name
Stand alone
ToolingHint Context
produ ce
Prod Mode
ĠMatch ers
yper link
ĠforeignCustomer Descriptor
ĠTom Ã©
rog ate
plies To
FLA G
ĠdomesticCustomer Descriptor
ExecuteUpdate ResultCheckStyle
Infer ableType
CONTA IN
7623 7823
presentedAs Native
DIST INCT
getWhen Fragments
22384 76237823
, ");
> ("
D Class
F al
F REN
G oo
G amb
P NG
[ "
c cl
j b
m n
m un
q b
r ib
v at
} \"
Ã ±
Å Ĥ
Å Ł
Ù Ķ
å ¡
ç Ī
Ġ Ø³
Ġ Top
Ġ Years
get Writer
get DurationField
get InheritableMethods
ing Entity
ap anese
re mainder
In ferred
assert Read
ret Values
Ġp ower
Ġf lag
Ġf ocus
Re verse
set Color
set LazyProperty
set HibernateFlushMode
act ivity
Ġb oy
Entity Result
Entity Version
ck TestSuite
Ġget Int
Ġget Drop
Lo s
ĠS mith
Ġtest M
ey a
Ġin clusive
Test HashSet
Ar m
Ġ0 0
To Null
Ġset Field
Time Seconds
Set Builder
Set Clause
con f
Key Set
Ġi i
Ġj ta
Ġentity D
ir a
ĠC l
ĠC ookies
Ġresult Builder
Ġresult Renderer
Ġlo w
With Valid
Ġde p
fo x
Sql ResultSetMapping
Ġem bed
Jdbc Operation
Native Queries
à¦ Ľ
Select Element
SE N
Reader Templates
Ġclass Names
Ġsub Item
Le ave
Ġcom mon
chem e
ĠJs Value
ĠJs Utils
ĠSet RefEdEntity
rapp ing
apply Settings
Ġpre isregelung
Ġcollection Role
table Record
àº ļ
init Widget
Ġbuild SessionFactory
Ð¾ Ð²Ð°
àª µ
Non Empty
Enabled Filters
Ġlock Hint
ĠSer ializ
Ġinter sect
UN I
Ġer rnoException
ĠJdbc ConnectionAccess
Ġcall s
Image Reader
Image Prototype
LI B
ĠJpa DerivedJoin
Ã¡ in
áĭ ¶
unique Key
aa aEntity
po inter
àµ į");
Lib core
getQuery Plan
getQuery CacheHitCount
Ġconfig ured
AS K
verify Same
Rel ated
object s
Ġsimple TimeZone
ðĲĳ ĭ
Struct Equals
ĠFetch Builder
cache Region
OO PH
Success ful
Ġdecl are
Exit Code
ĠAddress Capable
Compiler Metrics
Split Pane
ĠSub GraphImplementor
Compile Task
Back slash
getLocal Host
Instantiation Target
exception s
Ġplural AttributeSource
StackTrace Examples
Ann Ref
bl ack
PO INT
hel pInfo
Ġ200 9
Permutation Id
Jsni Ref
num bers
Physical NamingStrategy
Ġassign able
Ġdiscriminator Type
multi ple
indent ln
ĠDE BUG
BY TE
ĠsetC lazz
Containing EntityMapping
ĠPath Impl
getFieldIn AAEntity
Ġlink ed
NC Y
Singular PersistentAttribute
Ant i
à·Ĭ âĢį
Ver ify
We ak
Searched Case
Ġà¦ ¦
Ġà¦ Ĩ
bound s
getEm bs
assign ments
ĠMonth s
rel la
ĠMin imalRebuildCache
Ġstandard Offset
Ġabs olute
getHibernate EntityName
Ġlogical TableName
getProxy Info
Budd hist
manyToOne SimpleEntity
ĠTesting JtaPlatformImpl
Inlin ing
oneToOne SimpleEntity
MultipleCollection RefEntity
~~~~~~~~ ~~~~~~~~
sym phon
ArgFunctionAs Column
ArgFunctionAs Columns
OrderedSet Aggregates
Ġocc urr
Synchronize Type
problem s
getOr Create
getNamespace Uri
ĠintegrationSettings Copy
getNoProxy Info
CollectionRemove Listener
sav edValue
ĠgetFrom Dual
ĠHasData Presenter
Kaz ak
Decoded Equals
9294878209448847823 1212478987482988429808779810457634781384756794987
Ð¤ÑĢÐ°Ð½ ÑĨ
FastPath Utf
ASY NC
FREN CH
ckTestSuite Wrapper
OOPH M
. ")
2 14
: ",
: ");
C anceled
I rl
M old
M argin
N amer
S izes
T LE
T uplizer
c reation
j dk
s v
s lice
u z
v ince
y ana
Å ¼
å Ľ
ì Ĭ
Ġ êĹ
on ia
in vocation
es No
is String
get Init
get Timeout
get PutCount
get Times
ing ereza
ro t
ert ype
(" "
assert Invariants
assert FastPathUtf
ad ed
ist Ã£o
"); }
Ġt v
Ex clusive
im s
ver sed
un boxed
up URLs
set Code
set Period
pr iate
od ay
ay ed
Pro vince
Ġget Zone
Ġget Declared
add Data
Ġd one
ĠS can
Ġtest Replace
Col Builder
To Be
Ġset Table
For Testing
str ong
cal ed
cal ler
Date Label
ĠJ Parameter
Ġj oe
Ġis Type
ir ty
Or Predicate
append HtmlConstant
Column Adapter
ĠC reate
Ġh ttp
ĠH SQLDialect
ated Size
Ġboolean ExpressionPredicate
ĠA Entity
With Lookup
With Indent
la u
ĠT eacher
Not Changed
ĠD erived
test Logger
test Case
Join Path
Js Var
Ġfrom Type
Service Binding
Function SqlAstExpression
check Limits
ĠF UNCTION
Code Coll
++ ));
Ġclass Object
Ġclass ification
Ġun versioned
Dialect Naming
read Line
plic able
Offset Clause
Audit AssociationQuery
Compl iant
Ġon Close
getS pec
getS upported
Ġjdbc Position
place holder
Ġ5 00
Ġattribute Node
Ap plicable
ĠJs Program
ĠJs Invocation
register ed
Is SafeUri
byte Value
Process Builder
à¸ §
ServiceRegistry Scope
other wise
Ġbuild Translator
Buffer Size
Ð¾ Ðº
Non standard
getValue Converter
à¨ ¤
Ġpath s
ide Nature
ĠSql Type
ĠJdbc Call
ðĲĲ °
ĠAn onymous
getKey Part
-- )
alias ToEntityNameMap
Methods By
ĠÐ ²
resolve ExpressibleTypeBasic
pret ty
Ġtem poraryTable
Ġtem porary
Create Strings
TO TAL
Ġcan Use
àµ ¼
àµ Ģ
Wh itelist
cell Table
Serialization Exception
Ġresol vers
ĠJoin Columns
ĠJoin edEntity
Ġgroup By
EX TEN
Ad just
ĠAbstract Sqm
over age
ick name
123 809648392384754573567356745
Ġreferenced PathSource
Produ ced
Replace ments
ĠMy NativeJsType
round Rect
Naming Source
parameter ized
Ġmod ifiers
wa i
Ġà¤ ®
Export Identifier
custom Header
ĠSafe Uri
Compiler Options
Ġdir Reset
Ġprefix ed
Finish ed
Ident Value
ĠMar iaDB
Per cent
000000 20
Ġcast Target
Memento Map
Ñĸ Ð½
Pol ymorphism
Ġinterface Type
split Pane
FetchClause Expression
ĠUnit TestTreeLogger
Ùī Ø±
getMethod Name
Transient Field
Bi Function
Ġconstraint s
after TransactionCompletion
ORD IN
Leaf ValueEditor
TES PACE
Ġcss Tree
Ġsum marization
(\" %
Partition ing
ij rah
increment al
normal ized
Ùģ Ø±ÛĮ
ĠforEach Selectable
getSqlAst TranslatorFactory
Ġinternal Name
ugh ter
fil ename
ÐĿ Ð¸
fir m
ĠNoSuch ElementException
getSelected Item
getPh ysicalName
appendAs TimestampWith
aaaa aaaa
Ang eles
Breakdown s
OnDelete Action
HI TESPACE
Obfus cated
Fact ories
MultipleCollection Entity
ToMap FromEntity
merged Settings
å¤ ļ
Ġlib rary
std dev
áĭ° áĪ´
etary Amount
divid edBy
ĠgetRe commendedJdbcType
Isl as
Overload s
ĠMel illa
ĠCompiler OptionsImpl
WriteTo Disk
ingFor AutoClose
ĠLazyProperty Initializer
getHandler Count
never Ignore
getCss Name
Ġveget ables
Abb rev
ĠKus ini
WithIndent ation
7 98
C AT
D id
L atch
M ont
O pcio
R T
S impl
W E
X ED
a Str
f aransa
g ap
m ixed
t public
u cted
x attr
y b
} </
Ñ İ
Ó ©
Ġ Output
Ġ UTF
Ġ General
Ġ InterruptedIOException
on WriteToDisk
get Java
get Types
get Generator
get Tables
get Variant
get Contracts
get Things
ic ation
ur opa
ro z
Ġs chool
th ird
Ġc n
de bitAccount
In SubQueryPredicate
Type Id
Ġt nae
se qu
el and
En vers
Ġnew Name
Ġnew State
Re usable
Ġe ither
set Language
ot a
ut oc
class Literal
Tr anchenmodell
Ġget TableName
Ġget DB
Ġget EntityPersister
Id Embeddable
Ġd uring
ĠS earch
Ġtest Factory
Ġin correct
Test Annotated
ans k
To Date
To Js
Ġst ax
Ġset H
Ġset Child
Ġset Last
Ġset Some
De ath
con s
Ġre bind
Mapping Data
to One
to URL
create Table
create Uint
Element To
Data CachingConfig
ĠP aintColor
Ġtype Definition
Event Preview
With Insert
key Provider
Ġcreate Set
Ġlist View
type Id
Ġexpected LockHint
Sub Class
do ku
Ġquery Source
Resource Filter
à¦ ¦
à¦ ŀ
Fetch List
null SafeSet
Root s
Ġat m
Ġclass path
Ġun d
Visit able
ĠSqm SubQuery
Ut c
ĠL exicalUnit
ĠN VARCHAR
Basic AttributeType
Selection Fired
Load Plan
à½ Ķ
Ġcomp arison
Ð¸ ÑģÑĤÐ°Ð½
Audit Table
Enum Class
Row Builder
getS ystem
getS ome
ĠDateTime Parser
Ġelement Name
Ġelement Class
sub Query
sub str
UR AL
Ap ple
has Any
has TagName
Af g
apply Items
apply SqlSelections
ik istan
arn a
Insert Update
Case Sensitive
áŀ İ
Ġstart Instant
à¬ £
Named EntityGraph
Ġ9 8
MA GE
Sp here
à¨ Ĥ
11 7
Duration Unit
des ired
Ġer r
event Source
Tuple Result
jdbc Type
jdbc Values
Ġhas Next
LI ANCE
ĠBasic ValuedMapping
ĠÐ ¢
Contact Detail
My Enum
ob tain
Ġmin Width
Ġmin DaysInFirstWeek
Bound Type
Ġelem Type
Ġcan vas
ĠU Locale
Cast s
Css Resource
Scroll Left
Ing Entity
Generation Exception
Us ages
Run nable
Ġ\" %
Ġselection Consumer
Ã© s
Managed DomainType
getIdentifier Property
Ġk lass
Ġoptim ise
VER Y
Ġbean Registry
JaxbHbm Filter
Tab Bar
upd lock
instance Type
validate ArrayContents
Nested Type
Ġcal culate
ĠNode Impl
Ġline Item
ingular Attribute
Ãł n
ãĤ ¹
ĠAttribute Path
Ġall ClassAudited
Ã³ n
Õ¡ ÖĢ
ĠPre fix
Some Class
Completion Count
identifier Mapping
token s
Register edType
compute Millis
ĠText Style
â´°âµ ¢
selection Index
COMP LIANCE
ToEntity FromMap
ForUpdate String
getJpa Compliance
getLast RowData
Ġenh ancer
Ġdeclared Type
Ġregistration Name
ĠManaged Bean
ammal s
off spring
ĠCte Statement
INTER FACE
Resolved Type
ĠresultSetMapping Name
Ġown ed
ç¾ İ
Ġrelative Path
ĠCommon FunctionFactory
ĠRecord StructHolder
ĠMouse DownEvent
******** ********
DIS ABLE
ĠSafeStyles Utils
Substring Function
recogn izer
oth etical
clock hourOfHalfday
credit Account
addRoot Type
Ġcompiler Options
getLiteral Value
page Size
aln es
ĠBytecode EnhancementMetadata
ĠsecondaryTable Join
ĠgetSorted Keys
Ġcontrib utableInclusionFilter
azz av
visitMethod Insn
Paging Policy
ĠRelationalValueSource Helper
QUE ST
ĠIO Status
ĠgetFallback Sqm
Signat ures
IncrementalCompile Enabled
Pur pose
atemal a
SSE S
WithValid Site
Partitioning Result
utoc om
WithInsert Remove
% "
- =
3 018
A xis
C entral
D er
H ong
K ir
M ak
N ep
P al
T REE
V iet
b is
b og
d up
g cal
m ing
m icro
p m
s ampling
x ffff
Ä Į
Ð Ī
Õ ¾
Ġ Content
Ġ áİ
Ġ artifact
Ġ RegionFactory
on Detach
Ġ{ '
() ==
is Jso
is Uninitialized
get File
get Out
get Fragment
get Level
get Url
get Optimizer
get Instantiator
get TenantIdentifier
get Accounts
get LeafType
get ForUpdateString
or o
an not
ass ociate
ro c
re placer
Ġv m
est ing
Type Definition
se p
En countered
Ġp riority
Ġp atient
lo cator
Con sumedEvents
set Customer
set InnerText
set AutoCommit
Entity ValuedModelPart
Override Entity
ut s
Ġget TableReference
Ġget TypeName
Ġget Role
Ġget MapKey
Ġget MinimumValue
List Transformer
add ClickHandler
ĠString Tokenizer
row Number
Ġin sets
Ġset Em
Ġset Foo
Ġl tr
Ġres tricted
For est
create Reader
Ġpro perly
Ġentity C
Expression Node
ST OM
ĠM ain
la uses
ĠT urk
ĠT icket
ust er
<?> >();
query Spaces
AR GET
vert ise
Ġcreate Logger
Function Expression
getC lob
Ġadd All
ĠF OR
RE NCY
Default FetchGroup
Metadata Context
Metadata Collector
root EntitySource
Lock s
Ġun resolved
Ġun quoted
10 3
Out Parameter
ĠL uc
ĠN um
Load Handler
que ued
Empty Map
Ð¸ Ð²
Call Count
Ġon Error
LO R
And Check
Ġjdbc Connection
sub trah
Ġattribute JaxbMapping
ÑĢ Ð°
200 9
No Op
Error Message
ĠV ertical
Del et
CO LOR
Ġother Child
Insert Values
parent s
àº Ĭ
Start Element
Position Function
red irect
red uce
àª ĩ
with UTC
Ġlock ed
Ġdes erialized
local es
SI TIVE
Ġnative Event
Ġoriginal IdPropertyName
LI T
LI MIT
PAR SER
CON STAN
CON TENT
und led
Ġversion String
Perm s
áĬ ®
XML Context
Ġsecond ary
Ġsecond aryTables
NotFound Delegate
node View
Ġread ing
Box Base
Ġaddress Editor
ĠAudit WorkUnit
Cast Check
Ġconfig Service
Exp iry
=' {
generate EntityKey
verify OnlyQualifier
Ġrender Comparison
Ġfr action
Us es
ãĥ ©
ĠJaxbHbm NativeQuery
Neg ate
SER VED
ĠIdentifier Helper
Ġcte Container
×Ļ ×Ļ×
Cascade Type
ĠqueryPart ForRowNumbering
Versioned CacheableItem
criteria Query
getOffset ClauseExpression
AccessType Entity
getPath Name
Ġunique Constraint
Ġfragment s
Ġprop Name
Place History
ĠCO L
ĠMapKey Temporal
Ġprepare Test
icu DecimalFormat
Suggest Box
Area Builder
Author ization
callback s
requ ency
ĠMessage ProcessingException
eni or
Ant ar
getFetch ableName
59 1
Ġinterpret er
Ġinterpret Select
getLast Modified
ĠSelectable Consumer
dom estic
mutation Target
publ ika
xx xx
Distinct From
Word Wrap
Gre eting
ha us
Flow Info
Flow Analyzer
ĠSingular AttributeMapping
getMapped JavaType
ĠTemporal JavaType
Tra versableResolver
orrelatedRoot Join
Tail Map
LOCAL E
Ġicu DecimalFormat
ĠHe ader
Implemented Interfaces
TopLevel HtmlFor
Unload edClass
retty PrintWriter
Mik rones
BinaryArithmetic Expression
Ġdirection Estimator
chunk s
emulate FetchOffsetWithWindowFunctions
ĠTR A
OPTI MISTIC
Bang lad
ars aw
ĠEventListener Registry
setFieldIn NonEntity
InitializeCollection Listener
mkdir s
ABB REV
ĠLeg acy
aliasFor SystemAttribute
LUS H
RESPON SE
DialectNaming Resolution
3018 78791834
% '"
, ##
= {
J EnumType
J WildcardType
K EN
M ARY
O k
S Ã¼
T ad
Y ou
d raw
f c
r b
s cl
t im
x sd
Ú ¾
Ú Ĭ
Ġ ct
Ġ Config
Ġ rollback
Ġ Generic
Ġ Logging
Ġ omit
Ġ Organization
es h
is Fetched
is Updateable
get PeriodType
get IncrementSize
it a
it i
ing Target
Ġ" ))
ess EntityName
Ġ( ++
Ġv Align
(" '
In Predicate
assert On
se gment
Name Key
Ġf lat
St mts
set Values
set Author
Entity Dirtiness
Ġm v
ib l
Ġget Return
Ġget ServiceRegistry
add Arg
Lo cate
Id Or
Ġd irect
Ġin cluded
Object Ref
Res cue
entity Entry
Ġset Order
Ġset Widget
Key boardSelectedRow
ĠJ Node
ĠJ VM
Ġex clusive
Ġre verse
Un box
Un modifiable
Ġi Zone
Array StoreException
Table KeyColumnNames
Ġis Open
ex istent
Element Metadata
ĠC ook
Path Prefixes
Method Signature
ĠH ost
ĠP rettyPrintWriter
os ites
ĠM ASK
ĠA LI
With Comparator
With Patient
Ġto DateTime
Ġto Long
ĠD et
getName Of
Ġr ate
Ġadd Key
Parent Parent
Parent OwnedIndexedListJoinColumnBidirectionalRefEdEntity
Ġexpected Default
ĠF light
do Replace
find SimpleFoo
DE SC
ĠEntity Proxy
Select String
Sqm SubQuery
Request s
Ġarg Names
fix ed
ĠG et
Ġjdbc JavaType
sub Set
break down
à¥ ħ
Ġattribute Path
ĠJs Node
Ġim mediate
Simple Module
ĠR ichTextArea
ðĳĦ ĳ
register Parameter
ĠV isibility
Ġcollection Instance
Script s
ĠPerson MapsId
Ġother wise
Case Insensitive
user Name
Ðµ Ð¹
Start Millis
getEntity Metamodel
à° ª
sql Buffer
TH AN
Ġ9 9
MA TION
Ġpath PrefixSet
day of
dis connect
Co verage
SI GN
ÑĤ Ð°
Float Value
ĠSimple Value
alias ToComponentPropertyNameMap
ĠÐ Ŀ
ĠÐ Ł
ĠProperty AuditingData
array List
CK ET
ĠStandard Function
LockMode Type
EntryPoint Resource
fetch Path
can onical
ĠSh aredSessionContract
Partial Converter
collection Binding
Annotated Classes
Server SerializationStreamReader
Me ks
Ġconvert s
over laps
Ð´ Ð°ÑĢÑĭ
Unique Id
CODE D
part ition
Transform ers
Ġmax Digits
Collections TestServiceAsync
Search Order
Other Side
JaxbHbm ColumnType
Lob Creator
Indexed Collection
ru pt
some String
aj e
initialize FunctionRegistry
Ġnum Entries
Phone Number
Ġmillis OfDay
Ġarguments Validator
FlushMode Type
ĠCO DE
PAREN T
TRA CKER
Integr ated
ĠgetDefault Instance
RunAsync s
êĶ ³
Ġconfigure SessionFactoryBuilder
HasData Presenter
ĠXml ElementMetadata
Ġbody Weight
imension s
So Far
Ġco ord
ĠGwt Version
Assertion Passed
Br az
ĠStruct Holder
Ġsetting Name
Ġrequested JoinType
getCte Columns
YY YY
getPackage Name
Ġob fus
-------- --------
Ġ1234 5
Ġ1234 56789
Comma Separated
Õ¥ Õ
ĠQ Name
åľ °
focus able
ĠBinary Stream
EnumMap Value
RUN TIME
setH altOnError
getDifference AsLong
ĠBad PropertyValueException
StandardFunction ReturnTypeResolvers
ĠinheritanceState PerClass
Ġdelay ed
getActual LongValue
oct et
ĠeventListener Registry
(': ');
ĠgetA Date
COMPAR ATOR
ĠMarkerTypeIdentityHashMap Value
Ensure DebugId
çĪ ¾
azzav ille
EntityDirtiness Strategy
findSimpleFoo ById
> (),
B uk
C oin
E kw
G V
H S
I cu
J BooleanLiteral
L value
L exer
M edicalHistory
P m
] }");
a uth
b ootstrap
j u
j ac
j avascript
p ed
p adding
q ry
r ank
v in
v able
v iol
y ogi
Ä ©
Å «
Ì Ĥ
ì Ŀ
Ġ ×Ķ
in sh
es e
at as
at Zone
is Lazy
is Last
is RTL
get Employee
get Static
get CompilationUnit
get PersistentClass
Ġ" &
Ġ" =
Ġs ynth
(" =
de compose
In Clause
assert Attribute
assert LoadingState
assert StructEquals
able With
put IfNotNull
st uff
St ock
St anza
set Entity
set Session
set Referenced
Ġnull Safe
ig er
class B
Class By
ib r
Ġget S
Ġget Full
Ġget Difference
add Sub
Ġd os
Ġd Read
ĠS UB
Ġ1 0000
Qu arter
Ġ* =
entity Source
To Remove
Ġset Entity
Ġset LockMode
Ġset Street
Of Date
Ġvalue Bindings
con crete
con tributor
For Current
Date Patterns
Ġre cogn
Ġ< %
create Logger
create EntityManagerFactory
Ġid Property
append Separator
ĠC ert
ĠP ayment
IN ET
IN ITIAL
Ġtype Params
DateTime FormatterBuilder
Collection Listeners
of Hours
Parameter Expression
ĠM ihalcea
With Two
ĠT ome
ĠT RI
ĠD iv
ĠD rag
test DialectNamingResolution
Ġde vMode
com bine
From Annotation
Impl Name
Impl Creator
Ġg ood
check IncrementalRecompile
Pre isregelung
Argument Binding
RE STRICT
select Clause
Metadata Impl
boolean Value
AN NOTATION
Root Graph
SE SSION
Sqm Query
Order Line
Size Estimate
Er r
JavaType Access
Dialect s
âµ ĸ
Ġsql Query
ĠList JoinColumnBidirectional
ren ame
Ø§ ÙĬ
Read only
Log Entries
áĢ °
Ġattribute Metadata
Ġroot Alias
Proxy Type
Ġvalues Analysis
Process ingOptions
Ġmapp edClass
start Instant
ĠPerson Document
ĠPerson Pkjc
à¸ Ķ
Exec uting
default ReadObject
parent Access
After All
TH ROW
àª ¤
àª Ĺ
Ġtarget Descriptor
Named Parameters
Ġmetadata Context
be k
Ġpr edicates
local host
ph a
Ġz onedDateTime
áĪ ŀ
getProperty Type
last Key
Ġowner Field
Ġbase Name
Mutation s
path PrefixSet
Xml Files
Ðº Ñģ
Character Stream
collection Binder
Ð² Ð°Ð´
po licy
=\" ../
Information Impl
Cast ed
generate CacheKey
Window Close
ĠOrder Line
ĠEmployee Group
áī ¡
Keys ym
ĠLocale Data
ĠLocale Info
round Floor
Frame Builder
Any Discriminator
Ġbean Name
72 3456
Ġgenerator s
Creation Options
ĠAttribute Node
ĠAttribute Overrides
STRING S
Ġcell List
Maximum Key
getD dlTypeCode
Physical TableName
Storage Event
Ġpos itive
Ġexecute Update
request ed
Ðĳ ÐµÐ»
domain Result
ResultSetMapping ResolutionContext
28 374
scroll Panel
âµīâµ į
requ ires
Fk SecondPass
Ġinitialize FunctionRegistry
Subgraph s
Mo zamb
desc ending
Interpretation Cache
ColumnReference Key
ci i
PrintWriter TreeLogger
Ġcap acity
ĠJdbcMapping Container
ĠMutation OperationGroup
PersistenceUnit Descriptor
getRole Path
getEntityManagerFactory Builder
Rev Entity
getSqm JoinType
ĠGraph LanguageParser
Common SpatialFunction
Word s
Ġexport ed
OptimisticLock ing
sup pressed
getDeclaring Type
Ġ"# "
áĪª áĬ«
Flight MetadataCollector
ĠAtomic Reference
Sing ap
depend ency
ĠgetReferenced PathSource
Ġserializable Class
contribute JdbcType
createTemp Dir
ĠDel ayed
Ġ"[ "
obfus cator
managed Entity
ĠQueryParameter Implementor
ĠQueryParameter Binding
NativePreview Event
sn apshot
Ġpad Char
Austr al
olom on
ĠJdbcParameter Binding
SelfRendering FunctionDescriptor
ĠtestFor Fields
TableSection Element
ĠWeb App
Casc ading
etitor s
assertIs Fired
Fn Name
ĠtestNot Ordinalizable
ĠgetSelect Sequence
ĠMO CK
Ten ancy
ĠGJ Chronology
getReturn edClass
processingState Stack
Ġupdating TableGroup
Nam ib
Ġreturning Columns
clip se
rient ation
Enrolment Expected
Dependant Value
ĠÐ°ÑĢÐ°Ð» Ð´Ð°ÑĢÑĭ
Navig ation
deprecated Setting
GreaterThan MaximumKey
Tooling Hints
Cred ential
ĠsearchBy Specification
('\' ',
orrespond ing
ĠSum marization
ĠCaic os
åĽ ½
ìĬ ¤
getSupported Type
sequ ent
TopLevelHtmlFor Perm
" {'
B ir
C PE
C lauses
D sl
E ti
J ord
L ess
L ATE
M ot
P ure
T ON
T ARGET
b el
f mt
i our
j k
m as
m ic
x s
z onedDateTime
Î ²
é ģ
Ġ At
Ġ art
Ġ From
Ġ ka
Ġ áĬł
Ġ InitializationException
Ġ ContainedBean
as ename
is Unique
get Search
get Events
get WhereClause
get sockopt
get FetchClauseExpression
pu lation
ar Ä±
ur g
Ġs ex
Ġs mall
Ġv endor
(" ?
Ġc ert
Ġc andidates
il a
In Progress
En closingType
Ġf light
set Year
set Minutes
set SecurityManager
Ġb ug
Ġm ajor
ut ables
Ġget Formatter
Ġget Module
Ġget ClassName
Ġget Superclass
Ġget BaseType
add Suppressed
add OrReplace
ĠS H
ĠS am
ĠString UTF
Ġtest Enum
Ġtest ReadOnly
Ġset Identifier
Ġset Custom
Of The
ĠJ ulian
Ġa uxiliaryDatabaseObject
Un loaded
Un marshaller
create ClientInfo
Ġint Array
Table Xref
Ġis ize
Ġis PropertyInitialized
Result Descriptor
not ify
DateTime Constants
ac ed
Ġthe Array
Ġto Add
ĠD ock
ĠD dlTransactionIsolator
query Param
Js Optional
Ġcreate Float
Ġlist Expressions
check Initialized
check Range
from TrustedString
Jdbc Environment
ME GA
Code x
Ġvisit OffsetFetchClause
As Defined
select Case
DE NT
\" >"
Ġclass Literal
10 101
pre view
az ini
met amodel
ĠN PE
Ġarg v
à½ ¤
à½ Ŀ
gwt SetUp
getType Primitive
Ð¸ Ð¼
Constr ucted
And Mnemonic
Ġsub graph
expected Type
Target s
Target Output
ĠJs o
ÑĢ Ð°Ð»
Ġmapp edType
Del ta
table Mapping
àº ķ
à° Ĺ
sql s
Ġdate Formatter
ĠBig Long
àª Ĥ
current Type
Iter ables
format Source
à´ ¤
à¨ Ĺ
à¨ ľ
Embeddable Aggregate
Ġdes troy
Ġdes erialization
(' -
Lazy Widget
Assign ableFrom
Ġalias ToEntityNameMap
LA ST
compare AndSet
à· ľ
AD ATA
ĠSimple Editor
resolve Descriptor
Ñģ Ð¸
geom from
Has Widgets
Ġ7 5
ĠStandard SqlAstTranslatorFactory
match ed
Abstract Species
Ġbase Class
Subclass ing
bit Length
Ġtem plates
23 8
Ġchar set
Ġfunction Registry
áĭ ³
Body Element
insert Item
Hint Name
Option Element
Cast Map
ĠMock View
Batch Loadable
setProperty String
Ġextract or
HTML Panel
metadata BuildingContext
ĠJaxbHbm Filter
') "
ĠColumn Sort
call able
Requ ire
mod ifiers
ission s
ĠDouble ListJoinColumnBidirectionalRefEdEntity
JaxbHbm CustomSqlDmlType
Mouse Up
getAttribute Path
Ġspec ies
Ø§ÙĨ Ø§
ĠCache StoreMode
Split Point
getStyle Name
Ġservice Binding
med ium
Servlet Context
Ø¯ ÙĪ
Ġboot Model
×Ļ× ¢
Ġdatabase Name
basic Type
Ġste alFocus
rand Child
77 77
ĠJson Holder
Ġpl an
Ġprevious State
Ġbatch Identifier
ĠEm b
Ġinstantiate Instance
Ordering Strategy
Extra Dir
Dispatch Type
Ûķ ÙĨ
Ġreal Context
Ð¿ ÑĥÐ±
Metrics Artifact
Ġlabel s
à¾ ²
Ġmy Entity
Ġupd ates
Ver ification
Original Id
Bad PropertyValueException
cce eded
ĠRE V
ĠXml Pull
BIN DING
It al
Drag Start
Partition Item
ung ey
Vertical ScrollPosition
Middle IdData
TransactionCompletion Process
PersistenceUnit Info
ĠMarkerType EnumMapValue
ĠreturnType Resolver
getNext Reference
456 8
Ġparsed Args
âµľ âµī
REFERENCE S
Shared CacheMode
Ġfire Events
Ġel apsed
Ð²Ð° ÑĤ
ĠHel ena
ĠtestHistoryOf Ed
Ġob server
WithNo IdOr
Enhancer Constants
ALIZ ATION
getListener List
Between Predicate
áĪª áĭ«
Sing apu
Unicode Locale
depend ent
dk Version
TypeIn MetaModelFor
setS rc
getContent Id
Representation Strategy
Uk rain
ĠRuntime Permission
ĠOffset Time
==== ====
Les oto
Compound Selection
ĠgetSorted Values
Malformed URLException
install Listeners
TypeInfo Computed
ĠSpec ial
Compat ibility
Ġdml Target
ega Farm
membership Key
ĠDO UBLE
ĠHttp Servlet
angled Name
Vm Policy
getReflection Manager
Madagask ar
Produced Is
TestAnnotated Messages
CONSTAN T
Ð¿ÑĥÐ± Ð»
WithNoIdOr PropNamedId
" [
$ ",
% ",
' ),
) "));
, \
. ###
: \
B a
B is
B ands
E LSE
I p
J DeclarationStatement
K en
L IN
M ost
O PER
S aved
S omething
T ernary
U Locale
V ATE
V eto
V olume
] ==
b undle
c ers
j ulian
l ie
Û İ
å Ł
Ġ Ar
Ġ Year
Ġ Interface
Ġ QualifiedName
er al
le ased
get Limit
get Implicit
get GeneratorContext
get InitializeCollectionListener
or r
or se
or edProcedure
id ing
ur face
ce iving
String Tools
In Database
In clude
ab u
Ġt body
Ġnew Scale
Ġf is
Ġf ree
lo c
Con go
set Style
set Timeout
set Nullable
Ġb o
Ġnull IfEmpty
ig i
Ġm is
Ġget ResultSet
Ġget SqlAstTranslatorFactory
add Entry
Lo ss
Ġ1 12
Ġtest Sub
Ġtest Compile
co w
pl an
av es
av our
entity Binding
for ward
Ġset Lazy
Ġset Cascade
Set RefEdEntity
ĠJ ValueLiteral
Ġi rrelevantEntity
Ġpro jection
Property Mapper
ex actly
ĠC aching
Ġh aystack
Attribute LoadingInterceptor
ength en
throw able
key board
Java Annotations
Ġcreate Class
Ġlist agg
Ġr ace
Ġr gn
Ġr anges
Ġr ename
getC ourse
Parent WithCollection
Persist ed
ĠF ETCH
Cache Put
à¦ ¶
Ġreturn Class
Select Builder
Select Aliases
getTransaction DriverControl
ĠSqm Query
ĠSqm QueryPart
ĠSqm FunctionDescriptor
ĠL ook
Util ities
Ġsql ExceptionHelper
ĠG ET
amed Class
ĠList Box
EN CO
ploy ed
Ġsub B
Ġsub Graph
Ġindex es
has Data
has Attribute
áĥ Ľ
AT URAL
Dis criminatedAssociation
ðĳĦ Į
visit Insn
Person aje
PA CKAGE
Ġjava Lang
ĠV M
ĠV irtual
CO LL
Insert EventListener
Ðµ Ð³
old Value
àº Ħ
à¬ ¡
sql TreeWalker
Ġdefault Schema
Named Queries
Ġtrans itions
property Type
property AuditingData
à´ ¡
Embeddable With
First Row
min imum
Ġdes ignTime
Statistics Support
Duration Type
Copy Observer
Ġthat Type
Ġinter ceptable
Jpa AttributeConverter
Period Formatter
áĪ ®
Container Element
Ġcurrent Index
Ġfirst Child
aw ait
Response For
jdbc ExecuteStatement
Float ing
Ġrow Value
target KeyPropertyNames
alias ed
alias Field
Equal To
getElement s
SO L
trans ition
Ġlocale Utils
Ġover flow
Character istics
Generated Value
SafeHtml Templates
Ġunit Price
TO KEN
unique Constraints
Implicit Join
insert Statement
address Editor
Url s
Setting Name
Ùħ Ø§ÙĨ
Pos session
getQuery CachePutCount
Serializable DoublyLinkedNode
ĠMock ErrorReporter
Gwt Version
Ġdomain Jtd
Ġconvert ers
Ad der
Modified SubQueryExpression
Button s
Ġmax Rows
AC CESS
Managed MappingType
ĠJaxbHbm CustomSqlDmlType
àŃ Ł
ane Type
Immutable List
SH A
Dirty Check
Ġad apt
ĠSqlAst CreationState
Unknown AtRule
UP GRADE
ĠFor bidden
Ġsign al
Ġlazy Property
ĠEmbeddable ListEntity
à© Ī
delay ed
ISO DateTimeFormat
Getter With
bl ue
Ġ"- "
Bootstrap ServiceRegistryBuilder
ĠInt TestEntity
igh b
Ġpost Sub
ĠResource Generator
asc ii
IL ER
Drop per
getL ineno
Attr Impl
Ġassociation Key
ĠLazy AttributeLoadingInterceptor
Enc oder
fragment HasLoaded
eni us
TestSet Factory
Ġnow ait
Mult ip
BIN DER
Testing Utils
Partition ed
STYLE NAME
ij i
layout Panel
Popup Menu
WARN ING
Negated Predicate
Ġproject Dir
ĠMutation Query
Trim Spec
ĠLe af
Bl acklist
columns AndFormulasSource
TableWith Integer
ÑģÑĤÑĢ Ð²Ð°
ĠLoad State
Ġsherman Map
SU PER
Numeric Boolean
Lambda Class
anc ial
Wall et
Anchor Element
MULTI P
ĠCompilation State
isNull Type
hasMore Tokens
Ir ak
áĢ® áĢ¸
ĠðĳĦ ī
Orphan Delete
HE L
Ġprimitive Type
hand shake
Ġpkg Name
obfus cated
Summary Statistics
ĠSup plier
ÃŃn cipe
QUO TED
ĠTR UE
getDocument Element
à¤¦ à¤ķ
Expos ure
ĠDatagram Packet
vide o
canUse JavaAnnotations
ĠSw ingEventMonitor
Di agnostic
ĠSO CK
sam Method
Ã¯ i
Recogn ized
getLeap Amount
æ´ ²
ĠJoined Subclass
Pat ern
DESCEND ANT
pul se
Ġintermediate PathSource
jun ct
ĠquerySpace Consumer
assertEqual Block
draft Fee
Cr azy
MappingBinder Access
ĠgetWrite LockString
CONTAIN S
JdbcOperation Query
Abbrev iation
insh asa
ĠTRI M
ĠJulian Chronology
ENCO DING
ĠForbidden ClassException
6 1
A INT
B h
C ATE
J uÅ¾
L etter
M ust
P CT
S orter
[ @
g d
j p
l it
o j
p q
q Name
v ector
Ó Ģ
å Į
è ģ
Ġ Manager
Ġ ends
Ġ its
Ġ External
Ġ âµľ
Ġ ReadableInstant
et h
es hi
at rix
get Parser
get Names
get Exceptions
ic o
an istan
ing er
Ġ" ',
Ġn aming
Ġs el
Ġs ee
re placed
re moval
String List
In Non
In Activity
assert Has
Type Mirror
Ġp red
Con sume
un marshal
set Source
set Hours
set DirectionEstimator
act Writer
pr ior
iz i
Ġnull s
ck roach
Ġm emoized
Ġget Year
Ġget Read
Ġget Attributes
Ġget Header
add Action
Id Attribute
Ġd atagramSocket
Ġtest Field
Ġtest Put
Ġtest EntrySet
co ckroach
Ġin struction
To Browser
Ġset Amount
Ġset Flag
De ad
De precation
Field Reference
session Key
Context s
to MutableDateTime
Un id
At End
create Schema
Ġpro totype
Ġcon f
Ġentity Identifier
Ġentity Binder
Property Reference
Ġname Key
ĠP ackage
ĠP lan
Reg s
ĠB ootstrapContext
ĠB ITS
mo sp
ac ility
Event Factory
test ing
test ExitCode
value Mapping
Ġproperty Ref
Ġproperty Values
Number Label
Com pute
Ġcreate SelectionModel
Ġg regorian
getC l
TI TLE
Ġadd Log
Jdbc Parameters
Ġtable Details
ĠF ail
Be en
find Field
On Close
à¦ «
à¦ ·
Root Types
Ġclass UnderTest
ĠHibernate Type
Er rno
ĠN Clob
Ġbe ing
code Bug
getS um
field One
Ġjdbc ValueMapping
Ġjdbc ConnectionAccess
Ġsub types
lem y
Ġsuper MappingType
Ġattribute Converter
ĠSet ter
Alias SpecificLockMode
Is land
Ġmap BinaryOperation
Ġfetch Size
Min ister
default Value
arg Processor
parse Boolean
à° ¤
sql Text
sql AliasBase
Ġdefault Catalog
àª ª
Ġtrans ition
ĠO pen
ĠO THER
the Main
the Alternative
Ġinit iateService
Ġdis count
Ġsqm Expression
ĠJdbc Coordinator
jdbc Select
Ġdp Loaded
resolve Type
CON TEXT
Abstract Entity
ĠLocal ized
statement Details
Mutation Type
GE X
ĠSh aredSession
Hand les
Mock ErrorReporter
ĠRe place
Generated Values
Ġfunction Factory
ts i
Am Pm
Url Builder
Ġtypes Sent
Ð°Ð½ ÑģÐºÐ°
Mar iaDB
ĠU I
ĠEvent ID
Css Visitor
Gwt Event
ĠIN ITIAL
à¯ Ģ
verify Gesture
STR AINT
Generation Type
Open Handler
Post Load
cap acity
Var Name
eb ru
Bo ol
Display Name
impl iedResultType
ĠEnum Map
Jaxb Entity
74 83
MapKey Entity
aggregate Column
Hql Query
Lob Len
Ġregion Factory
Ú© ÛĮ
ĠSchema ManagementTool
Compile Time
Temporal JavaType
maybe Check
FromClause Index
Ġtreat JavaType
ĠEntityWith Final
ĠInt NoAutoIdTestEntity
El apsedMillis
Control s
Ġpost Commit
Ġdiscriminator Column
isSame As
Gu inea
ĠsetC ountry
Ġannotated Element
Ġperiod Str
Self DirtinessTracker
ÐĲ ÑĢ
Required Exception
getBody Element
ĠDe que
RowCount Exact
scroll able
Conditional Node
ĠCustom Type
ĠMessage KeyWatcher
Ġdiv isor
Ġjsni Methods
ForUpdate Clause
ĠRE PLACE
ĠSt ale
spec ial
Ġtask s
QueryParameter Implementor
JP QL
Enhanced Proxy
Bl ur
ÙĤ Ø§
ĠSocket Address
Ġag ent
amer a
Ġapp ro
Bidi Formatter
Transport s
ĠMin or
MAN UAL
getT eacher
ĠtestHistoryOf Id
Via Sql
Cert Path
ĠCallback Type
setStr eet
ĠBi RefEdEntity
unmodifiable Set
Ġ'/ ')
JAVA EE
Ġstorage Access
depend encies
unn y
SCRIPT S
ĠScroll ableResults
export ed
ACTIVE DESCENDANT
ĠBytecode LazyAttributeInterceptor
ç¾¤ å²Ľ
Affected TableNames
EntityOf Lists
Ġpack et
integration Settings
Slow Query
ĠCoercion Helper
Tight en
ĠisContract Versioned
Circ ular
includes Resource
ĠPersistenceUnitInfo Adapter
getNextSibling Element
pread Deal
Grad ient
assertShould Not
getFavorite Item
FieldsTo Print
ĠCUR RENT
ĠAssign ment
Ġanticip atedSize
Bitless DomHandler
ĠlegacyFetch Resolver
ĠBIN ARY
hold lock
SEN SITIVE
ĠAnonymous Tuple
roz en
ClassBy AttributeName
LazyWidget Builders
avour ite
Patern ity
mosp here
' ";
1 99
1 98
6 7890
A v
A PA
D irectional
F atal
F LOW
H ung
L u
N ord
N EXT
R ew
S i
S l
U g
W IN
c andidates
e very
h r
i LocalMillis
m ma
n ns
o ve
t ables
u end
v ia
x f
y es
} ]
} "));
© ¬
Î Ł
é ĺ
é ©¬
Ġ assertThat
Ġ Decimal
Ġ Attributes
Ġ Store
Ġ Extra
Ġ Resolve
Ġ ReadablePartial
Ġ ParsingException
in Ã©
al Area
is Insertable
get Bounds
get Active
get ById
get Chars
get ForeignKeys
Ġ" ;");
Ġn i
Ġs alesperson
ul ner
assert Selected
ment os
Ġnew Instance
Ġp p
Re p
Con n
[...]
